{"version":"1.0","truncation":null,"padding":null,"added_tokens":[{"id":0,"special":true,"content":"[UNK]","single_word":false,"lstrip":false,"rstrip":false,"normalized":false},{"id":1,"special":true,"content":"[EOS]","single_word":false,"lstrip":false,"rstrip":false,"normalized":false},{"id":2,"special":true,"content":"[BOS]","single_word":false,"lstrip":false,"rstrip":false,"normalized":false},{"id":3,"special":true,"content":"[PAD]","single_word":false,"lstrip":false,"rstrip":false,"normalized":false}],"normalizer":null,"pre_tokenizer":{"type":"Whitespace"},"post_processor":null,"decoder":null,"model":{"type":"BPE","dropout":null,"unk_token":null,"continuing_subword_prefix":null,"end_of_word_suffix":null,"fuse_unk":false,"vocab":{"[UNK]":0,"[EOS]":1,"[BOS]":2,"[PAD]":3,"a":4,"b":5,"c":6,"d":7,"e":8,"f":9,"g":10,"h":11,"i":12,"j":13,"k":14,"l":15,"m":16,"n":17,"o":18,"p":19,"q":20,"r":21,"s":22,"t":23,"u":24,"v":25,"w":26,"x":27,"y":28,"z":29,"µ":30,"º":31,"ß":32,"à":33,"á":34,"â":35,"ã":36,"ä":37,"å":38,"æ":39,"ç":40,"è":41,"é":42,"ê":43,"ë":44,"ì":45,"í":46,"î":47,"ï":48,"ñ":49,"ò":50,"ó":51,"ô":52,"õ":53,"ö":54,"ø":55,"ù":56,"ú":57,"ü":58,"ý":59,"ÿ":60,"ā":61,"ă":62,"ą":63,"ć":64,"č":65,"đ":66,"ē":67,"ė":68,"ę":69,"ě":70,"ğ":71,"ħ":72,"ī":73,"į":74,"ı":75,"ļ":76,"ł":77,"ń":78,"ņ":79,"ň":80,"ō":81,"ŕ":82,"ś":83,"ş":84,"š":85,"ţ":86,"ų":87,"ŵ":88,"ż":89,"ž":90,"ƙ":91,"ƨ":92,"ư":93,"ƴ":94,"ǝ":95,"ǿ":96,"ȼ":97,"ɐ":98,"ɓ":99,"ɔ":100,"ə":101,"ɞ":102,"ɯ":103,"ɹ":104,"ʁ":105,"ʊ":106,"ʍ":107,"ʎ":108,"ʚ":109,"ʞ":110,"ʹ":111,"ˆ":112,"ˇ":113,"ˈ":114,"ː":115,"ά":116,"έ":117,"ή":118,"ί":119,"ΰ":120,"α":121,"β":122,"γ":123,"δ":124,"ε":125,"ζ":126,"η":127,"θ":128,"ι":129,"κ":130,"λ":131,"μ":132,"ν":133,"ξ":134,"ο":135,"π":136,"ρ":137,"ς":138,"σ":139,"τ":140,"υ":141,"φ":142,"χ":143,"ψ":144,"ω":145,"ό":146,"ύ":147,"ώ":148,"ϟ":149,"а":150,"б":151,"в":152,"г":153,"д":154,"е":155,"ж":156,"з":157,"и":158,"й":159,"к":160,"л":161,"м":162,"н":163,"о":164,"п":165,"р":166,"с":167,"т":168,"у":169,"ф":170,"х":171,"ц":172,"ч":173,"ш":174,"щ":175,"ъ":176,"ы":177,"ь":178,"э":179,"ю":180,"я":181,"ё":182,"ђ":183,"ѓ":184,"є":185,"ѕ":186,"і":187,"ї":188,"ј":189,"љ":190,"њ":191,"ћ":192,"ќ":193,"ѝ":194,"ў":195,"џ":196,"ѡ":197,"ѣ":198,"ѻ":199,"ґ":200,"ғ":201,"җ":202,"қ":203,"ҡ":204,"ң":205,"ү":206,"ұ":207,"һ":208,"ӕ":209,"ә":210,"ӧ":211,"ө":212,"ա":213,"բ":214,"գ":215,"ե":216,"է":217,"ը":218,"ի":219,"լ":220,"խ":221,"ծ":222,"կ":223,"հ":224,"ղ":225,"մ":226,"յ":227,"ն":228,"շ":229,"ո":230,"չ":231,"պ":232,"ռ":233,"ս":234,"վ":235,"տ":236,"ր":237,"ց":238,"ւ":239,"փ":240,"ք":241,"և":242,"א":243,"ב":244,"ג":245,"ה":246,"ו":247,"ז":248,"ח":249,"ט":250,"י":251,"ך":252,"כ":253,"ל":254,"ם":255,"מ":256,"נ":257,"ס":258,"ע":259,"ק":260,"ר":261,"ש":262,"ת":263,"ء":264,"آ":265,"أ":266,"ؤ":267,"إ":268,"ا":269,"ب":270,"ة":271,"ت":272,"ث":273,"ج":274,"ح":275,"خ":276,"د":277,"ذ":278,"ر":279,"ز":280,"س":281,"ش":282,"ص":283,"ط":284,"ظ":285,"ع":286,"غ":287,"ف":288,"ق":289,"ك":290,"ل":291,"م":292,"ن":293,"ه":294,"و":295,"ى":296,"ي":297,"پ":298,"ڣ":299,"ک":300,"ں":301,"ہ":302,"ی":303,"ے":304,"ব":305,"স":306,"இ":307,"ໂ":308,"ა":309,"ბ":310,"გ":311,"დ":312,"ე":313,"ვ":314,"თ":315,"ი":316,"კ":317,"ლ":318,"მ":319,"ნ":320,"ო":321,"რ":322,"ს":323,"ტ":324,"უ":325,"ქ":326,"ღ":327,"ყ":328,"შ":329,"ძ":330,"წ":331,"ხ":332,"ჯ":333,"ᅠ":334,"ዙ":335,"ᴍ":336,"ᴑ":337,"ᴵ":338,"ᴷ":339,"ᴸ":340,"ᵰ":341,"ḗ":342,"ế":343,"ố":344,"ổ":345,"ợ":346,"ἰ":347,"ⁿ":348,"ℛ":349,"ℯ":350,"〴":351,"あ":352,"い":353,"う":354,"お":355,"か":356,"が":357,"き":358,"ぎ":359,"く":360,"け":361,"さ":362,"し":363,"せ":364,"た":365,"だ":366,"っ":367,"つ":368,"て":369,"な":370,"ぬ":371,"ね":372,"の":373,"は":374,"ば":375,"ま":376,"も":377,"よ":378,"ら":379,"る":380,"れ":381,"わ":382,"ゐ":383,"を":384,"ん":385,"ア":386,"イ":387,"ウ":388,"カ":389,"ギ":390,"ク":391,"ゲ":392,"ゴ":393,"サ":394,"シ":395,"ジ":396,"ス":397,"セ":398,"タ":399,"ダ":400,"ッ":401,"ツ":402,"ヅ":403,"ナ":404,"ニ":405,"ヌ":406,"ブ":407,"ボ":408,"マ":409,"ミ":410,"メ":411,"ュ":412,"ユ":413,"ラ":414,"リ":415,"ル":416,"ロ":417,"ン":418,"ー":419,"上":420,"不":421,"与":422,"中":423,"为":424,"丿":425,"之":426,"了":427,"事":428,"亚":429,"京":430,"介":431,"伯":432,"但":433,"佐":434,"你":435,"使":436,"俊":437,"保":438,"内":439,"円":440,"切":441,"動":442,"勝":443,"卍":444,"印":445,"友":446,"反":447,"叫":448,"和":449,"商":450,"喜":451,"因":452,"国":453,"地":454,"垂":455,"士":456,"天":457,"太":458,"奄":459,"奋":460,"女":461,"好":462,"妈":463,"子":464,"它":465,"守":466,"安":467,"完":468,"密":469,"对":470,"小":471,"屄":472,"屌":473,"山":474,"嵬":475,"川":476,"平":477,"幸":478,"店":479,"度":480,"康":481,"式":482,"彦":483,"彼":484,"得":485,"心":486,"惡":487,"感":488,"我":489,"戯":490,"所":491,"手":492,"払":493,"投":494,"护":495,"拉":496,"拖":497,"拳":498,"挖":499,"撒":500,"支":501,"放":502,"斗":503,"日":504,"明":505,"是":506,"曲":507,"有":508,"未":509,"机":510,"来":511,"極":512,"橋":513,"機":514,"武":515,"沙":516,"泰":517,"浪":518,"涼":519,"漢":520,"澤":521,"爱":522,"父":523,"物":524,"特":525,"犬":526,"猁":527,"猞":528,"猟":529,"猫":530,"獄":531,"球":532,"産":533,"画":534,"的":535,"盖":536,"直":537,"県":538,"真":539,"知":540,"祖":541,"福":542,"私":543,"秘":544,"空":545,"統":546,"綾":547,"編":548,"给":549,"网":550,"美":551,"者":552,"联":553,"聴":554,"能":555,"腹":556,"自":557,"芥":558,"苏":559,"虎":560,"西":561,"覆":562,"覚":563,"語":564,"說":565,"調":566,"謝":567,"记":568,"谓":569,"谢":570,"起":571,"足":572,"道":573,"醒":574,"野":575,"金":576,"長":577,"阿":578,"零":579,"霜":580,"鞋":581,"飞":582,"駑":583,"騒":584,"魏":585,"黒":586,"龍":587,"ꙑ":588,"ꮑ":589,"가":590,"나":591,"난":592,"녕":593,"는":594,"당":595,"똑":596,"름":597,"물":598,"세":599,"수":600,"신":601,"안":602,"요":603,"우":604,"원":605,"을":606,"의":607,"이":608,"있":609,"잘":610,"하":611,"해":612,"ﺎ":613,"ﻣ":614,"ｼ":615,"ﾟ":616,"то":617,"ка":618,"на":619,"не":620,"ть":621,"ко":622,"но":623,"по":624,"ли":625,"ва":626,"ра":627,"ет":628,"ро":629,"ни":630,"го":631,"че":632,"ст":633,"мо":634,"да":635,"во":636,"что":637,"вы":638,"те":639,"ль":640,"де":641,"как":642,"ре":643,"за":644,"се":645,"та":646,"му":647,"ла":648,"ри":649,"ся":650,"ло":651,"ме":652,"до":653,"ны":654,"же":655,"ма":656,"ес":657,"бы":658,"от":659,"ки":660,"ве":661,"лю":662,"бо":663,"это":664,"ле":665,"хо":666,"ви":667,"ше":668,"чи":669,"ку":670,"со":671,"про":672,"ди":673,"ну":674,"мож":675,"бе":676,"ча":677,"ру":678,"все":679,"са":680,"жи":681,"ля":682,"си":683,"или":684,"гда":685,"ня":686,"ти":687,"ми":688,"лу":689,"сто":690,"при":691,"па":692,"би":693,"если":694,"ду":695,"нь":696,"ты":697,"пе":698,"ста":699,"чем":700,"како":701,"лько":702,"кто":703,"мы":704,"чему":705,"можно":706,"когда":707,"ши":708,"сь":709,"ско":710,"ете":711,"бу":712,"из":713,"почему":714,"пи":715,"ще":716,"вас":717,"раз":718,"тся":719,"для":720,"зна":721,"вам":722,"ву":723,"ться":724,"га":725,"ры":726,"ска":727,"бя":728,"сво":729,"ба":730,"щи":731,"муж":732,"люби":733,"мне":734,"ный":735,"так":736,"ша":737,"об":738,"сти":739,"жен":740,"меня":741,"есть":742,"шь":743,"дела":744,"ют":745,"ние":746,"ря":747,"ту":748,"луч":749,"каки":750,"льно":751,"под":752,"ги":753,"ется":754,"жа":755,"какой":756,"где":757,"чего":758,"он":759,"сть":760,"ные":761,"чно":762,"только":763,"дет":764,"вет":765,"ке":766,"чу":767,"может":768,"лучше":769,"вать":770,"нет":771,"це":772,"боль":773,"мужчи":774,"нно":775,"гу":776,"су":777,"сколько":778,"фи":779,"уже":780,"кра":781,"пра":782,"ски":783,"без":784,"ния":785,"ная":786,"тако":787,"пос":788,"кая":789,"пу":790,"жно":791,"женщи":792,"дру":793,"пре":794,"его":795,"быть":796,"ды":797,"дно":798,"мно":799,"ха":800,"какие":801,"лове":802,"оче":803,"зы":804,"делать":805,"деву":806,"ци":807,"вот":808,"мот":809,"она":810,"хоро":811,"челове":812,"лы":813,"пере":814,"очень":815,"пер":816,"лет":817,"надо":818,"девуш":819,"мя":820,"кото":821,"вс":822,"вер":823,"их":824,"вно":825,"ком":826,"любо":827,"тебя":828,"ей":829,"вре":830,"больше":831,"вь":832,"ин":833,"нра":834,"ходи":835,"дол":836,"жиз":837,"сы":838,"дума":839,"гла":840,"кого":841,"ят":842,"дь":843,"гра":844,"вый":845,"спо":846,"они":847,"пото":848,"сло":849,"люб":850,"тебе":851,"просто":852,"смот":853,"сте":854,"всегда":855,"будет":856,"воз":857,"какая":858,"после":859,"ца":860,"зо":861,"еще":862,"чтобы":863,"жите":864,"ваше":865,"себя":866,"ит":867,"нужно":868,"ных":869,"куда":870,"стра":871,"само":872,"вст":873,"ща":874,"йте":875,"год":876,"рить":877,"шо":878,"нима":879,"зачем":880,"всё":881,"мый":882,"вает":883,"нрави":884,"ут":885,"сно":886,"филь":887,"нее":888,"много":889,"день":890,"чита":891,"зи":892,"любовь":893,"тво":894,"час":895,"ую":896,"там":897,"ск":898,"таки":899,"скажите":900,"чё":901,"ем":902,"сей":903,"йти":904,"ной":905,"ешь":906,"вопро":907,"которы":908,"кой":909,"пла":910,"гово":911,"такое":912,"фо":913,"сейчас":914,"стро":915,"всего":916,"каж":917,"стоит":918,"бра":919,"пить":920,"отно":921,"вто":922,"обще":923,"пар":924,"сек":925,"вить":926,"краси":927,"жить":928,"ваш":929,"ным":930,"мой":931,"люди":932,"чь":933,"тра":934,"ге":935,"ную":936,"стоя":937,"себе":938,"чит":939,"кому":940,"ство":941,"могу":942,"инте":943,"слу":944,"кон":945,"име":946,"пы":947,"им":948,"вя":949,"сама":950,"бро":951,"потому":952,"помо":953,"хочу":954,"мер":955,"ней":956,"стве":957,"пло":958,"рабо":959,"мужчина":960,"прав":961,"нас":962,"хоч":963,"даже":964,"кро":965,"пока":966,"нравится":967,"мужчины":968,"человек":969,"время":970,"часто":971,"тоже":972,"какое":973,"ное":974,"гру":975,"пол":976,"хоте":977,"сегод":978,"ему":979,"было":980,"зя":981,"хот":982,"сегодня":983,"ются":984,"пода":985,"уме":986,"щё":987,"учи":988,"рма":989,"рас":990,"мен":991,"всем":992,"тут":993,"зыва":994,"гото":995,"дни":996,"самый":997,"одно":998,"тесь":999,"зе":1000,"женщина":1001,"ещё":1002,"ваши":1003,"коне":1004,"спа":1005,"жу":1006,"жизнь":1007,"оди":1008,"ее":1009,"чать":1010,"доро":1011,"жизни":1012,"ший":1013,"ский":1014,"значит":1015,"оста":1016,"вообще":1017,"тель":1018,"дя":1019,"подскажите":1020,"ром":1021,"вой":1022,"нить":1023,"какого":1024,"лся":1025,"тя":1026,"вля":1027,"любите":1028,"тре":1029,"такой":1030,"тельно":1031,"том":1032,"ску":1033,"дать":1034,"найти":1035,"сси":1036,"вые":1037,"ан":1038,"смотря":1039,"кла":1040,"какую":1041,"люблю":1042,"вопрос":1043,"сла":1044,"игра":1045,"девушки":1046,"совет":1047,"сделать":1048,"ответ":1049,"прави":1050,"зать":1051,"дей":1052,"сту":1053,"ков":1054,"нка":1055,"вая":1056,"ничего":1057,"чувст":1058,"зде":1059,"пред":1060,"интере":1061,"ню":1062,"всех":1063,"юсь":1064,"сер":1065,"них":1066,"кры":1067,"женщины":1068,"кру":1069,"такие":1070,"фильм":1071,"обы":1072,"вес":1073,"лись":1074,"работа":1075,"рез":1076,"дер":1077,"него":1078,"вле":1079,"счита":1080,"сча":1081,"тер":1082,"нный":1083,"мыс":1084,"полу":1085,"эти":1086,"нуть":1087,"свою":1088,"фе":1089,"лось":1090,"цвет":1091,"боле":1092,"рет":1093,"чтоб":1094,"мет":1095,"стать":1096,"ёт":1097,"хи":1098,"конечно":1099,"голо":1100,"дом":1101,"нуж":1102,"дома":1103,"девушка":1104,"аль":1105,"деть":1106,"лег":1107,"рт":1108,"пес":1109,"чка":1110,"нии":1111,"бывает":1112,"шу":1113,"вку":1114,"ник":1115,"чки":1116,"авто":1117,"зави":1118,"сам":1119,"три":1120,"будь":1121,"был":1122,"наз":1123,"чём":1124,"ху":1125,"хорошо":1126,"маши":1127,"нача":1128,"кар":1129,"бой":1130,"буду":1131,"бли":1132,"самое":1133,"точно":1134,"вра":1135,"дете":1136,"дите":1137,"купить":1138,"жела":1139,"нять":1140,"каком":1141,"род":1142,"соб":1143,"называ":1144,"ино":1145,"этом":1146,"тру":1147,"ний":1148,"цы":1149,"ум":1150,"вают":1151,"гля":1152,"каких":1153,"зу":1154,"своей":1155,"норма":1156,"ваша":1157,"рите":1158,"сить":1159,"сты":1160,"потом":1161,"свои":1162,"сит":1163,"этого":1164,"чер":1165,"любви":1166,"реть":1167,"этот":1168,"её":1169,"кем":1170,"отли":1171,"совету":1172,"соба":1173,"лась":1174,"спи":1175,"дить":1176,"ал":1177,"здесь":1178,"ции":1179,"сов":1180,"любить":1181,"пря":1182,"ские":1183,"любя":1184,"ак":1185,"относи":1186,"каким":1187,"один":1188,"шка":1189,"ходит":1190,"тем":1191,"можете":1192,"посовету":1193,"человека":1194,"доб":1195,"ья":1196,"жду":1197,"чить":1198,"стви":1199,"вали":1200,"ально":1201,"знаю":1202,"нем":1203,"дят":1204,"мые":1205,"никогда":1206,"поло":1207,"дит":1208,"вное":1209,"фото":1210,"ить":1211,"которые":1212,"моло":1213,"обычно":1214,"дели":1215,"разу":1216,"ская":1217,"правда":1218,"самая":1219,"рой":1220,"навер":1221,"чина":1222,"ез":1223,"года":1224,"росси":1225,"есь":1226,"друг":1227,"обо":1228,"похо":1229,"отноше":1230,"шки":1231,"дра":1232,"через":1233,"новый":1234,"вую":1235,"мени":1236,"хочется":1237,"ман":1238,"оно":1239,"сле":1240,"иногда":1241,"кий":1242,"ской":1243,"ред":1244,"ваться":1245,"брать":1246,"бле":1247,"ного":1248,"бес":1249,"бот":1250,"вро":1251,"нные":1252,"друго":1253,"вое":1254,"такая":1255,"рит":1256,"думаете":1257,"плохо":1258,"поз":1259,"жде":1260,"любят":1261,"од":1262,"писа":1263,"вести":1264,"нибудь":1265,"хва":1266,"ства":1267,"аа":1268,"спе":1269,"тив":1270,"фа":1271,"шая":1272,"бира":1273,"кажды":1274,"кре":1275,"хотели":1276,"сами":1277,"пой":1278,"знать":1279,"ньше":1280,"бор":1281,"жать":1282,"ров":1283,"сме":1284,"хочет":1285,"глу":1286,"свой":1287,"кор":1288,"уда":1289,"перед":1290,"холо":1291,"шать":1292,"моя":1293,"добро":1294,"льный":1295,"вз":1296,"думаю":1297,"главное":1298,"to":1299,"ребе":1300,"вятся":1301,"чаще":1302,"хоть":1303,"осо":1304,"рее":1305,"кие":1306,"посмот":1307,"того":1308,"долж":1309,"цу":1310,"пом":1311,"сказать":1312,"шие":1313,"ис":1314,"правильно":1315,"поро":1316,"чается":1317,"хороше":1318,"относитесь":1319,"посоветуйте":1320,"сли":1321,"тор":1322,"могут":1323,"нию":1324,"настоя":1325,"любимый":1326,"пор":1327,"каждый":1328,"начина":1329,"музы":1330,"нель":1331,"любит":1332,"други":1333,"ству":1334,"кни":1335,"чку":1336,"знако":1337,"рю":1338,"занима":1339,"чет":1340,"ющи":1341,"нам":1342,"жда":1343,"рят":1344,"рен":1345,"клю":1346,"вого":1347,"секс":1348,"рень":1349,"мар":1350,"бере":1351,"ном":1352,"возможно":1353,"лень":1354,"любимо":1355,"чай":1356,"гли":1357,"своих":1358,"должен":1359,"етесь":1360,"нельзя":1361,"вание":1362,"ция":1363,"тогда":1364,"жо":1365,"пя":1366,"быстро":1367,"людей":1368,"долго":1369,"была":1370,"ним":1371,"дой":1372,"ведь":1373,"хать":1374,"научи":1375,"знает":1376,"зав":1377,"вод":1378,"обра":1379,"вари":1380,"возра":1381,"вашей":1382,"сильно":1383,"ходить":1384,"рок":1385,"гре":1386,"который":1387,"стить":1388,"пожа":1389,"рус":1390,"нок":1391,"чный":1392,"лек":1393,"фут":1394,"счасть":1395,"понима":1396,"воло":1397,"лей":1398,"встре":1399,"лен":1400,"вом":1401,"ne":1402,"глаза":1403,"эта":1404,"зависит":1405,"вами":1406,"сс":1407,"нег":1408,"над":1409,"тро":1410,"работ":1411,"пь":1412,"меся":1413,"мая":1414,"между":1415,"взя":1416,"лё":1417,"прият":1418,"нравятся":1419,"поле":1420,"сдела":1421,"лично":1422,"ток":1423,"были":1424,"нку":1425,"ского":1426,"сразу":1427,"ность":1428,"ставить":1429,"ника":1430,"попро":1431,"ственно":1432,"меч":1433,"ар":1434,"разве":1435,"гор":1436,"нт":1437,"ночь":1438,"тить":1439,"тов":1440,"завтра":1441,"нки":1442,"подарить":1443,"вну":1444,"цо":1445,"луй":1446,"ите":1447,"вым":1448,"гите":1449,"спать":1450,"уу":1451,"называется":1452,"вых":1453,"жена":1454,"вся":1455,"кроме":1456,"отве":1457,"стано":1458,"никто":1459,"той":1460,"деньги":1461,"пси":1462,"мужи":1463,"испо":1464,"er":1465,"тот":1466,"вай":1467,"первый":1468,"более":1469,"ните":1470,"ными":1471,"легко":1472,"своего":1473,"льные":1474,"помогите":1475,"хороший":1476,"коро":1477,"давно":1478,"вут":1479,"дли":1480,"слы":1481,"откуда":1482,"рая":1483,"лучший":1484,"наше":1485,"смыс":1486,"место":1487,"ради":1488,"доста":1489,"оо":1490,"поку":1491,"ch":1492,"крас":1493,"оби":1494,"этой":1495,"серд":1496,"ём":1497,"страш":1498,"теря":1499,"сом":1500,"готовить":1501,"ница":1502,"самые":1503,"тно":1504,"моск":1505,"хоче":1506,"изба":1507,"сем":1508,"виде":1509,"щу":1510,"горо":1511,"явля":1512,"уж":1513,"лом":1514,"вне":1515,"an":1516,"ское":1517,"парень":1518,"два":1519,"буде":1520,"отношения":1521,"работать":1522,"груп":1523,"вели":1524,"стре":1525,"кри":1526,"мной":1527,"нужен":1528,"изме":1529,"in":1530,"теле":1531,"говорить":1532,"ками":1533,"знаете":1534,"ор":1535,"шко":1536,"ваете":1537,"нная":1538,"шек":1539,"поч":1540,"кую":1541,"нормально":1542,"способ":1543,"равно":1544,"може":1545,"слова":1546,"одна":1547,"поль":1548,"интерес":1549,"свет":1550,"особе":1551,"хотя":1552,"футбо":1553,"вкус":1554,"мало":1555,"всю":1556,"чески":1557,"каза":1558,"живот":1559,"большо":1560,"нужна":1561,"призна":1562,"бло":1563,"рый":1564,"мор":1565,"обя":1566,"иде":1567,"лый":1568,"нер":1569,"должна":1570,"счаст":1571,"пример":1572,"случа":1573,"ках":1574,"мир":1575,"вол":1576,"оде":1577,"кол":1578,"жение":1579,"скорее":1580,"месте":1581,"мат":1582,"наверное":1583,"назвать":1584,"моз":1585,"вал":1586,"заня":1587,"пусть":1588,"друз":1589,"особенно":1590,"вар":1591,"денег":1592,"шли":1593,"виться":1594,"этим":1595,"дают":1596,"именно":1597,"зло":1598,"тает":1599,"обяза":1600,"иг":1601,"пожалуй":1602,"интересно":1603,"своим":1604,"имя":1605,"бить":1606,"чает":1607,"начала":1608,"суще":1609,"гает":1610,"считаете":1611,"слово":1612,"парня":1613,"скоро":1614,"мужчин":1615,"хра":1616,"дает":1617,"хочешь":1618,"маль":1619,"кли":1620,"шку":1621,"ход":1622,"шает":1623,"поня":1624,"малень":1625,"нной":1626,"кот":1627,"перь":1628,"откры":1629,"пиши":1630,"сви":1631,"тай":1632,"нит":1633,"вроде":1634,"плю":1635,"постоя":1636,"говорят":1637,"хотите":1638,"дово":1639,"ид":1640,"фильма":1641,"теперь":1642,"дево":1643,"лые":1644,"опре":1645,"пробле":1646,"совсем":1647,"строе":1648,"купи":1649,"душе":1650,"наде":1651,"ровать":1652,"здоро":1653,"меньше":1654,"en":1655,"кан":1656,"рак":1657,"женщин":1658,"счастли":1659,"спро":1660,"шком":1661,"такого":1662,"побе":1663,"дня":1664,"нов":1665,"ники":1666,"шла":1667,"ких":1668,"любимая":1669,"мину":1670,"роди":1671,"лит":1672,"реально":1673,"россии":1674,"объ":1675,"пора":1676,"давать":1677,"подру":1678,"дети":1679,"li":1680,"опа":1681,"понять":1682,"взять":1683,"st":1684,"све":1685,"пожалуйста":1686,"сери":1687,"мым":1688,"ехать":1689,"ран":1690,"сен":1691,"бывают":1692,"собой":1693,"пле":1694,"чувство":1695,"ваю":1696,"одни":1697,"мои":1698,"пать":1699,"почита":1700,"рую":1701,"щий":1702,"ших":1703,"сим":1704,"интер":1705,"человеку":1706,"бои":1707,"ье":1708,"лить":1709,"коло":1710,"кам":1711,"вопросы":1712,"чные":1713,"лять":1714,"боя":1715,"тол":1716,"согла":1717,"сред":1718,"дове":1719,"най":1720,"можешь":1721,"чо":1722,"ro":1723,"вите":1724,"сказа":1725,"вится":1726,"фор":1727,"стой":1728,"чера":1729,"нность":1730,"каждо":1731,"образ":1732,"знакоми":1733,"ka":1734,"нете":1735,"времени":1736,"вается":1737,"этому":1738,"ссо":1739,"ях":1740,"смысл":1741,"нное":1742,"думать":1743,"таких":1744,"хе":1745,"вли":1746,"девушку":1747,"попа":1748,"домаш":1749,"будут":1750,"пять":1751,"узнать":1752,"рост":1753,"na":1754,"вере":1755,"чная":1756,"чик":1757,"дель":1758,"спор":1759,"сторо":1760,"ходят":1761,"ском":1762,"свое":1763,"тан":1764,"сердце":1765,"смотреть":1766,"ra":1767,"дро":1768,"твой":1769,"пли":1770,"мечта":1771,"настрое":1772,"город":1773,"людя":1774,"дний":1775,"должно":1776,"дви":1777,"свобо":1778,"ван":1779,"кое":1780,"замуж":1781,"привет":1782,"мага":1783,"нужны":1784,"дов":1785,"хотят":1786,"каче":1787,"пти":1788,"полез":1789,"нием":1790,"которо":1791,"щая":1792,"счастье":1793,"хватает":1794,"ствует":1795,"дут":1796,"утра":1797,"либо":1798,"моей":1799,"отличается":1800,"верите":1801,"мужчину":1802,"многи":1803,"скачать":1804,"сай":1805,"вашему":1806,"отды":1807,"мужчине":1808,"лки":1809,"льное":1810,"нг":1811,"силь":1812,"скать":1813,"приготовить":1814,"любишь":1815,"подо":1816,"кажется":1817,"льше":1818,"сут":1819,"it":1820,"слишком":1821,"сва":1822,"женщине":1823,"посмотреть":1824,"ново":1825,"шить":1826,"мина":1827,"ских":1828,"будете":1829,"свя":1830,"вез":1831,"соз":1832,"шим":1833,"мужа":1834,"обе":1835,"встреча":1836,"детей":1837,"запа":1838,"рь":1839,"заме":1840,"девушке":1841,"вете":1842,"нена":1843,"стно":1844,"две":1845,"гать":1846,"смо":1847,"песня":1848,"умеете":1849,"пят":1850,"стали":1851,"находи":1852,"no":1853,"дев":1854,"клу":1855,"радо":1856,"послед":1857,"укра":1858,"трудно":1859,"съ":1860,"лан":1861,"кти":1862,"выра":1863,"дре":1864,"постоянно":1865,"которая":1866,"рот":1867,"осно":1868,"эту":1869,"da":1870,"фильмы":1871,"делает":1872,"избавиться":1873,"et":1874,"sh":1875,"пыта":1876,"мент":1877,"позво":1878,"рожде":1879,"работу":1880,"почти":1881,"язы":1882,"рать":1883,"тобой":1884,"написа":1885,"назо":1886,"верить":1887,"нравиться":1888,"обязательно":1889,"сол":1890,"твоя":1891,"рядом":1892,"успе":1893,"стри":1894,"выгля":1895,"мол":1896,"деле":1897,"праз":1898,"лес":1899,"является":1900,"одино":1901,"играет":1902,"шую":1903,"скую":1904,"дело":1905,"туда":1906,"друж":1907,"моби":1908,"взгля":1909,"моро":1910,"шло":1911,"рка":1912,"дайте":1913,"po":1914,"щь":1915,"ули":1916,"эк":1917,"туа":1918,"сни":1919,"бер":1920,"бла":1921,"влюб":1922,"кофе":1923,"хотелось":1924,"la":1925,"вашем":1926,"ko":1927,"зай":1928,"ставля":1929,"секса":1930,"лишь":1931,"дву":1932,"наверно":1933,"лета":1934,"иск":1935,"поя":1936,"гар":1937,"родите":1938,"мм":1939,"боро":1940,"играть":1941,"вла":1942,"любимого":1943,"потеря":1944,"дай":1945,"весь":1946,"чат":1947,"столько":1948,"песни":1949,"против":1950,"стер":1951,"парни":1952,"выше":1953,"ma":1954,"нах":1955,"шься":1956,"лку":1957,"название":1958,"музыка":1959,"знаком":1960,"внима":1961,"последний":1962,"ев":1963,"реб":1964,"вид":1965,"получи":1966,"ваз":1967,"ребенка":1968,"улы":1969,"действи":1970,"еди":1971,"имеет":1972,"вни":1973,"делаете":1974,"прин":1975,"держи":1976,"рова":1977,"близ":1978,"мысли":1979,"тери":1980,"людям":1981,"будешь":1982,"ана":1983,"re":1984,"ненави":1985,"иди":1986,"зем":1987,"произ":1988,"попробу":1989,"кт":1990,"бога":1991,"тит":1992,"льная":1993,"тур":1994,"раньше":1995,"психоло":1996,"ок":1997,"менять":1998,"посту":1999,"слуша":2000,"сят":2001,"семе":2002,"руки":2003,"принима":2004,"тия":2005,"корми":2006,"спра":2007,"ужа":2008,"сне":2009,"ряд":2010,"женщину":2011,"on":2012,"чувству":2013,"красно":2014,"щей":2015,"волосы":2016,"рия":2017,"тех":2018,"душа":2019,"цию":2020,"важ":2021,"чек":2022,"говори":2023,"большой":2024,"сса":2025,"смер":2026,"вместе":2027,"тый":2028,"ёте":2029,"учить":2030,"которых":2031,"других":2032,"цев":2033,"идти":2034,"легче":2035,"време":2036,"сексу":2037,"спокой":2038,"бук":2039,"цвета":2040,"мира":2041,"види":2042,"мире":2043,"важно":2044,"лли":2045,"сро":2046,"обща":2047,"доволь":2048,"сколь":2049,"закон":2050,"тяже":2051,"лка":2052,"роман":2053,"вчера":2054,"ческий":2055,"стара":2056,"делают":2057,"машина":2058,"стал":2059,"попу":2060,"друзья":2061,"вен":2062,"влека":2063,"бен":2064,"серь":2065,"москве":2066,"тока":2067,"одной":2068,"блю":2069,"ствие":2070,"году":2071,"собира":2072,"поху":2073,"такую":2074,"машину":2075,"гри":2076,"проще":2077,"реди":2078,"сю":2079,"высо":2080,"хаха":2081,"май":2082,"ждать":2083,"хорошие":2084,"давай":2085,"влюби":2086,"причи":2087,"зывает":2088,"внеш":2089,"типа":2090,"опять":2091,"дох":2092,"бросить":2093,"мнение":2094,"оце":2095,"вайте":2096,"дёт":2097,"желание":2098,"гло":2099,"сила":2100,"щие":2101,"оши":2102,"дной":2103,"ува":2104,"второй":2105,"следу":2106,"харак":2107,"мых":2108,"зовут":2109,"вашего":2110,"нности":2111,"иметь":2112,"приходи":2113,"пишите":2114,"познакоми":2115,"рии":2116,"помогает":2117,"хорошего":2118,"класс":2119,"мальчи":2120,"знаешь":2121,"быв":2122,"никак":2123,"низ":2124,"красивая":2125,"эт":2126,"заниматься":2127,"готовы":2128,"бар":2129,"дура":2130,"de":2131,"сначала":2132,"любой":2133,"кури":2134,"стью":2135,"предпочита":2136,"se":2137,"дво":2138,"самой":2139,"дере":2140,"золо":2141,"mo":2142,"тые":2143,"лая":2144,"видеть":2145,"чество":2146,"жале":2147,"мом":2148,"пет":2149,"жив":2150,"нных":2151,"влия":2152,"привы":2153,"бри":2154,"аааа":2155,"мое":2156,"вания":2157,"смотре":2158,"тать":2159,"ноги":2160,"стя":2161,"пара":2162,"хорошая":2163,"объя":2164,"фиг":2165,"друга":2166,"фф":2167,"дорого":2168,"зывать":2169,"искать":2170,"береме":2171,"научиться":2172,"ходя":2173,"сложно":2174,"красивые":2175,"рые":2176,"прода":2177,"порода":2178,"уби":2179,"настроение":2180,"нес":2181,"музыку":2182,"орга":2183,"продол":2184,"йся":2185,"сосе":2186,"лов":2187,"говорит":2188,"гно":2189,"добрый":2190,"цеп":2191,"одного":2192,"спорт":2193,"бок":2194,"каждого":2195,"реа":2196,"выбира":2197,"поце":2198,"ина":2199,"раза":2200,"терпе":2201,"лья":2202,"фот":2203,"праздни":2204,"ребё":2205,"at":2206,"ден":2207,"некоторые":2208,"совер":2209,"зада":2210,"ыы":2211,"чувства":2212,"дале":2213,"пью":2214,"насколько":2215,"шел":2216,"хуже":2217,"уго":2218,"мери":2219,"быст":2220,"работе":2221,"мак":2222,"нал":2223,"бь":2224,"дальше":2225,"встрет":2226,"тё":2227,"автомоби":2228,"другой":2229,"нди":2230,"фу":2231,"пры":2232,"мама":2233,"жаю":2234,"нного":2235,"какими":2236,"ётся":2237,"чке":2238,"ri":2239,"глав":2240,"лад":2241,"скаж":2242,"карти":2243,"логи":2244,"воду":2245,"скры":2246,"пуска":2247,"см":2248,"тие":2249,"бки":2250,"кле":2251,"сон":2252,"первого":2253,"евро":2254,"уди":2255,"нд":2256,"le":2257,"девушек":2258,"кошка":2259,"парню":2260,"носить":2261,"няя":2262,"води":2263,"ах":2264,"начать":2265,"бал":2266,"станет":2267,"альный":2268,"ким":2269,"жем":2270,"слад":2271,"городе":2272,"предло":2273,"жки":2274,"тера":2275,"go":2276,"живут":2277,"пья":2278,"сказ":2279,"немного":2280,"ними":2281,"жает":2282,"щего":2283,"убе":2284,"наши":2285,"верь":2286,"нке":2287,"кино":2288,"исполь":2289,"своё":2290,"вкусно":2291,"ночью":2292,"пера":2293,"квар":2294,"голову":2295,"скажи":2296,"разные":2297,"проти":2298,"состоя":2299,"вка":2300,"неё":2301,"цве":2302,"пыт":2303,"lo":2304,"приятно":2305,"озна":2306,"ума":2307,"кур":2308,"пове":2309,"забыть":2310,"эмо":2311,"исто":2312,"должны":2313,"помощь":2314,"случае":2315,"ой":2316,"мать":2317,"ассо":2318,"зад":2319,"жал":2320,"возрасте":2321,"смотри":2322,"доба":2323,"меди":2324,"назовите":2325,"собака":2326,"мон":2327,"покупа":2328,"бог":2329,"песню":2330,"магази":2331,"цен":2332,"фон":2333,"гро":2334,"ni":2335,"лиш":2336,"возь":2337,"дже":2338,"сра":2339,"нда":2340,"нач":2341,"делить":2342,"придума":2343,"жит":2344,"твои":2345,"зво":2346,"щее":2347,"чение":2348,"увере":2349,"утром":2350,"психологи":2351,"щать":2352,"зака":2353,"воспи":2354,"чей":2355,"лез":2356,"держать":2357,"пойти":2358,"подарок":2359,"прям":2360,"своими":2361,"заняться":2362,"народ":2363,"надое":2364,"глаз":2365,"круг":2366,"кошки":2367,"стар":2368,"двух":2369,"вза":2370,"ya":2371,"щас":2372,"прико":2373,"аб":2374,"кг":2375,"тами":2376,"находится":2377,"ющий":2378,"поли":2379,"многие":2380,"пару":2381,"ешься":2382,"кварти":2383,"нут":2384,"читать":2385,"игры":2386,"хорошее":2387,"тая":2388,"рко":2389,"нету":2390,"ваются":2391,"бом":2392,"рей":2393,"весе":2394,"ваших":2395,"чемпи":2396,"ляет":2397,"спроси":2398,"рут":2399,"ат":2400,"шей":2401,"рту":2402,"he":2403,"посмотри":2404,"мыть":2405,"вино":2406,"существует":2407,"стави":2408,"яй":2409,"видно":2410,"судь":2411,"самом":2412,"ил":2413,"уга":2414,"мешает":2415,"тик":2416,"моего":2417,"конец":2418,"семей":2419,"ожи":2420,"ta":2421,"утро":2422,"дный":2423,"становится":2424,"рки":2425,"тон":2426,"ki":2427,"бка":2428,"никому":2429,"любимым":2430,"море":2431,"раст":2432,"красо":2433,"жения":2434,"зву":2435,"первую":2436,"доброе":2437,"зин":2438,"взгляд":2439,"больно":2440,"став":2441,"клуб":2442,"нака":2443,"сала":2444,"пое":2445,"закры":2446,"жени":2447,"наи":2448,"собаки":2449,"мужчинам":2450,"циа":2451,"боитесь":2452,"вала":2453,"понрави":2454,"ног":2455,"полови":2456,"семь":2457,"вос":2458,"паль":2459,"россия":2460,"летом":2461,"муль":2462,"проф":2463,"спаси":2464,"жие":2465,"дож":2466,"внутри":2467,"джи":2468,"дали":2469,"вредно":2470,"носи":2471,"души":2472,"тура":2473,"вном":2474,"идет":2475,"беспла":2476,"ствен":2477,"приро":2478,"означает":2479,"заставить":2480,"доброго":2481,"пита":2482,"прово":2483,"уууу":2484,"действительно":2485,"вной":2486,"писать":2487,"ети":2488,"изве":2489,"обла":2490,"дел":2491,"ужели":2492,"нк":2493,"похоже":2494,"взро":2495,"прямо":2496,"пиво":2497,"красиво":2498,"своему":2499,"доверя":2500,"помина":2501,"ности":2502,"счастья":2503,"оч":2504,"кло":2505,"зара":2506,"ёл":2507,"мини":2508,"держа":2509,"разница":2510,"примерно":2511,"например":2512,"коман":2513,"удоб":2514,"мили":2515,"скучно":2516,"момент":2517,"сбор":2518,"другие":2519,"отпу":2520,"другу":2521,"ar":2522,"шан":2523,"романти":2524,"сих":2525,"твоей":2526,"посте":2527,"пили":2528,"попробуй":2529,"дружба":2530,"выйти":2531,"глупо":2532,"профес":2533,"тому":2534,"получить":2535,"обходи":2536,"неде":2537,"одну":2538,"рай":2539,"дней":2540,"кормить":2541,"фан":2542,"которого":2543,"чных":2544,"vi":2545,"вдруг":2546,"нали":2547,"сны":2548,"стей":2549,"нами":2550,"креп":2551,"ват":2552,"живу":2553,"мора":2554,"таким":2555,"бре":2556,"сок":2557,"пит":2558,"ющие":2559,"цветы":2560,"лечить":2561,"доме":2562,"неужели":2563,"стала":2564,"похудеть":2565,"деше":2566,"насту":2567,"уни":2568,"боюсь":2569,"потре":2570,"шке":2571,"рано":2572,"давайте":2573,"выход":2574,"горя":2575,"любимые":2576,"чие":2577,"ходите":2578,"здоровь":2579,"вред":2580,"суп":2581,"мужики":2582,"карто":2583,"do":2584,"боятся":2585,"футболи":2586,"чисто":2587,"готов":2588,"рный":2589,"изменить":2590,"любимой":2591,"англи":2592,"которой":2593,"уро":2594,"чной":2595,"испол":2596,"везде":2597,"вижу":2598,"жный":2599,"ап":2600,"реши":2601,"моему":2602,"исти":2603,"бело":2604,"полне":2605,"спасибо":2606,"ребенок":2607,"кота":2608,"вление":2609,"лицо":2610,"волос":2611,"сна":2612,"зеле":2613,"вода":2614,"прости":2615,"ске":2616,"лучшая":2617,"хожу":2618,"мую":2619,"нюю":2620,"амери":2621,"мужчиной":2622,"созда":2623,"al":2624,"отсут":2625,"сил":2626,"пей":2627,"защи":2628,"подари":2629,"сексом":2630,"похож":2631,"стру":2632,"случай":2633,"ищ":2634,"самого":2635,"тен":2636,"человеком":2637,"быстрее":2638,"чения":2639,"кать":2640,"звез":2641,"книгу":2642,"воро":2643,"сидеть":2644,"поэтому":2645,"далеко":2646,"пиш":2647,"ощу":2648,"месяц":2649,"приходит":2650,"любимое":2651,"отвеча":2652,"девушкой":2653,"сня":2654,"часть":2655,"работы":2656,"рецеп":2657,"чужо":2658,"грани":2659,"стране":2660,"глупы":2661,"нечего":2662,"смет":2663,"жь":2664,"графи":2665,"группа":2666,"нор":2667,"ческие":2668,"дне":2669,"вечер":2670,"vo":2671,"снима":2672,"ета":2673,"ффе":2674,"алкого":2675,"професси":2676,"ответы":2677,"дж":2678,"жды":2679,"выбрать":2680,"хотел":2681,"будем":2682,"масло":2683,"детстве":2684,"кате":2685,"двига":2686,"какому":2687,"первом":2688,"фир":2689,"спар":2690,"этих":2691,"первая":2692,"льной":2693,"книги":2694,"улице":2695,"край":2696,"ёшь":2697,"собственно":2698,"ищи":2699,"дам":2700,"смеш":2701,"нуться":2702,"срочно":2703,"ори":2704,"памя":2705,"свида":2706,"простить":2707,"вашу":2708,"бабу":2709,"шоко":2710,"места":2711,"сили":2712,"сайт":2713,"стало":2714,"супер":2715,"спосо":2716,"друзей":2717,"живет":2718,"любов":2719,"бол":2720,"цело":2721,"данный":2722,"хле":2723,"di":2724,"гают":2725,"дное":2726,"подой":2727,"красивый":2728,"изменя":2729,"чуть":2730,"воды":2731,"свадь":2732,"нья":2733,"внутре":2734,"слабо":2735,"отка":2736,"оба":2737,"первое":2738,"проду":2739,"комп":2740,"большая":2741,"лето":2742,"гом":2743,"симпа":2744,"спраши":2745,"первые":2746,"называют":2747,"достаточно":2748,"жка":2749,"пригла":2750,"дар":2751,"зависи":2752,"среди":2753,"ищу":2754,"зато":2755,"шам":2756,"цска":2757,"оне":2758,"практи":2759,"разо":2760,"пах":2761,"рий":2762,"редко":2763,"начинается":2764,"измени":2765,"ии":2766,"серьез":2767,"определить":2768,"гов":2769,"вариан":2770,"блонди":2771,"льных":2772,"бери":2773,"иначе":2774,"гуля":2775,"ям":2776,"ктор":2777,"вирту":2778,"право":2779,"матери":2780,"нос":2781,"группы":2782,"вернуть":2783,"рождения":2784,"чную":2785,"удоволь":2786,"поставить":2787,"альная":2788,"заработать":2789,"ским":2790,"ситуа":2791,"обу":2792,"эффе":2793,"проис":2794,"лер":2795,"вече":2796,"зимой":2797,"язык":2798,"бороться":2799,"пель":2800,"bo":2801,"отра":2802,"хозя":2803,"коли":2804,"перестать":2805,"красота":2806,"конце":2807,"необходи":2808,"познакомиться":2809,"снять":2810,"дина":2811,"могли":2812,"опасно":2813,"игру":2814,"счет":2815,"тере":2816,"голу":2817,"уча":2818,"новые":2819,"сильнее":2820,"грам":2821,"кушать":2822,"el":2823,"обма":2824,"курить":2825,"принци":2826,"внутрен":2827,"дости":2828,"si":2829,"сказал":2830,"лых":2831,"физ":2832,"бля":2833,"строить":2834,"которую":2835,"смогли":2836,"компа":2837,"катего":2838,"док":2839,"расте":2840,"ников":2841,"зре":2842,"sa":2843,"оте":2844,"отношение":2845,"тяжело":2846,"стом":2847,"голове":2848,"зап":2849,"голова":2850,"зон":2851,"менты":2852,"пробо":2853,"мою":2854,"зар":2855,"получается":2856,"ление":2857,"ревно":2858,"цель":2859,"другое":2860,"тали":2861,"сериал":2862,"посоветуете":2863,"часов":2864,"лучшее":2865,"яя":2866,"гром":2867,"раду":2868,"честно":2869,"влияет":2870,"прошло":2871,"усло":2872,"проблемы":2873,"форма":2874,"слыша":2875,"выглядит":2876,"чий":2877,"душ":2878,"машины":2879,"минут":2880,"кс":2881,"рыба":2882,"внимание":2883,"около":2884,"привлека":2885,"ездить":2886,"носит":2887,"страшно":2888,"неделю":2889,"ja":2890,"прове":2891,"желания":2892,"ческая":2893,"слушать":2894,"жают":2895,"тельный":2896,"ёр":2897,"никого":2898,"прогно":2899,"ёз":2900,"ом":2901,"преда":2902,"грудь":2903,"хватит":2904,"скольки":2905,"закончи":2906,"мати":2907,"смы":2908,"ребенку":2909,"которым":2910,"зерка":2911,"ен":2912,"es":2913,"тах":2914,"женщинам":2915,"жалко":2916,"другого":2917,"видел":2918,"ужи":2919,"нему":2920,"нару":2921,"жизне":2922,"поме":2923,"возраста":2924,"верю":2925,"наш":2926,"соверше":2927,"шин":2928,"часа":2929,"зенит":2930,"вечно":2931,"bi":2932,"тки":2933,"сень":2934,"противо":2935,"симпати":2936,"дороги":2937,"va":2938,"другим":2939,"семье":2940,"матч":2941,"элек":2942,"вин":2943,"мыш":2944,"раздра":2945,"русский":2946,"размер":2947,"баты":2948,"вокруг":2949,"гами":2950,"ожида":2951,"ген":2952,"тар":2953,"лай":2954,"mi":2955,"тю":2956,"блин":2957,"мец":2958,"отношениях":2959,"солю":2960,"похожа":2961,"враща":2962,"сайте":2963,"оли":2964,"хорошую":2965,"правду":2966,"запах":2967,"душу":2968,"вклю":2969,"рубле":2970,"жены":2971,"покупать":2972,"нашей":2973,"получа":2974,"умные":2975,"россий":2976,"расста":2977,"мозг":2978,"болит":2979,"ti":2980,"лым":2981,"убрать":2982,"обре":2983,"любом":2984,"возраст":2985,"новую":2986,"мед":2987,"разви":2988,"ницу":2989,"лем":2990,"важнее":2991,"футбол":2992,"жай":2993,"появи":2994,"солн":2995,"помню":2996,"рр":2997,"нового":2998,"упа":2999,"смотрите":3000,"поехать":3001,"окру":3002,"пот":3003,"самому":3004,"одним":3005,"гости":3006,"чкой":3007,"хов":3008,"теля":3009,"интернете":3010,"щих":3011,"пользу":3012,"говари":3013,"сыпа":3014,"чёт":3015,"the":3016,"ночи":3017,"поздра":3018,"шают":3019,"нику":3020,"пись":3021,"пки":3022,"взаи":3023,"отчего":3024,"ho":3025,"несколько":3026,"водить":3027,"гря":3028,"нера":3029,"желательно":3030,"мясо":3031,"пропа":3032,"девушкам":3033,"ственный":3034,"сма":3035,"мужем":3036,"ностью":3037,"фанта":3038,"зага":3039,"чая":3040,"комеди":3041,"ваешь":3042,"доби":3043,"мов":3044,"мум":3045,"чен":3046,"стараюсь":3047,"новогод":3048,"времен":3049,"невозможно":3050,"слов":3051,"ответах":3052,"лени":3053,"оборот":3054,"абсолю":3055,"забы":3056,"стая":3057,"узна":3058,"офи":3059,"снова":3060,"секрет":3061,"лам":3062,"тран":3063,"прожить":3064,"жир":3065,"мере":3066,"номер":3067,"лете":3068,"общаться":3069,"вместо":3070,"китай":3071,"ус":3072,"шта":3073,"выс":3074,"нако":3075,"чным":3076,"умею":3077,"обраща":3078,"помни":3079,"даю":3080,"ам":3081,"остальное":3082,"комна":3083,"цей":3084,"похожи":3085,"съе":3086,"разно":3087,"мяг":3088,"новая":3089,"нном":3090,"дные":3091,"чное":3092,"фли":3093,"женская":3094,"милли":3095,"напишите":3096,"ава":3097,"ve":3098,"фран":3099,"нём":3100,"сало":3101,"мость":3102,"машине":3103,"поми":3104,"тепло":3105,"переста":3106,"строй":3107,"чного":3108,"настоящая":3109,"физи":3110,"пон":3111,"пользо":3112,"корот":3113,"настоящий":3114,"считать":3115,"уль":3116,"вич":3117,"средство":3118,"породы":3119,"зарпла":3120,"вещи":3121,"поздно":3122,"рекла":3123,"думает":3124,"второ":3125,"ага":3126,"льник":3127,"полезно":3128,"бесплатно":3129,"брю":3130,"стыдно":3131,"пози":3132,"рублей":3133,"щем":3134,"пля":3135,"болез":3136,"очере":3137,"родители":3138,"мужу":3139,"kak":3140,"лица":3141,"пути":3142,"иску":3143,"стес":3144,"тым":3145,"нике":3146,"смотрю":3147,"няет":3148,"ган":3149,"завести":3150,"me":3151,"месяцев":3152,"страи":3153,"сижу":3154,"др":3155,"or":3156,"альные":3157,"гры":3158,"сожале":3159,"помочь":3160,"мужик":3161,"виду":3162,"дохнуть":3163,"опыт":3164,"можна":3165,"пр":3166,"лучшие":3167,"поря":3168,"стов":3169,"умный":3170,"кровь":3171,"дка":3172,"ств":3173,"посе":3174,"фру":3175,"гулять":3176,"женщиной":3177,"отдыха":3178,"нения":3179,"ницы":3180,"бку":3181,"вее":3182,"случаях":3183,"способны":3184,"руете":3185,"требу":3186,"деля":3187,"основном":3188,"щую":3189,"сан":3190,"собак":3191,"реше":3192,"достой":3193,"сор":3194,"яйца":3195,"выми":3196,"прос":3197,"девочки":3198,"убить":3199,"последнее":3200,"льного":3201,"работает":3202,"спартак":3203,"дал":3204,"рует":3205,"верх":3206,"вей":3207,"выпить":3208,"ления":3209,"ваще":3210,"ян":3211,"нежно":3212,"оооо":3213,"домашних":3214,"молча":3215,"нется":3216,"кана":3217,"люсь":3218,"недель":3219,"хранить":3220,"фамили":3221,"всему":3222,"фигу":3223,"отлича":3224,"малы":3225,"ились":3226,"напи":3227,"коль":3228,"шего":3229,"прекрас":3230,"увидеть":3231,"зь":3232,"рэ":3233,"ссы":3234,"интернет":3235,"хотела":3236,"помните":3237,"плать":3238,"умеет":3239,"стые":3240,"твор":3241,"учиться":3242,"али":3243,"здра":3244,"be":3245,"зер":3246,"предпочитаете":3247,"рома":3248,"отвечать":3249,"беремен":3250,"первой":3251,"буты":3252,"мело":3253,"нец":3254,"льную":3255,"дешь":3256,"што":3257,"щение":3258,"кнуть":3259,"умеют":3260,"лин":3261,"вит":3262,"биз":3263,"ющих":3264,"собаку":3265,"обожаю":3266,"наоборот":3267,"вери":3268,"льным":3269,"эро":3270,"циона":3271,"самым":3272,"части":3273,"клас":3274,"кты":3275,"добра":3276,"прой":3277,"уче":3278,"написать":3279,"красить":3280,"молоды":3281,"вста":3282,"смысле":3283,"мото":3284,"лечи":3285,"дая":3286,"ката":3287,"чел":3288,"вные":3289,"дки":3290,"думают":3291,"скажу":3292,"диа":3293,"емся":3294,"поко":3295,"жан":3296,"старо":3297,"мости":3298,"происходит":3299,"стный":3300,"подели":3301,"мера":3302,"зовать":3303,"нят":3304,"ческой":3305,"гай":3306,"правля":3307,"совме":3308,"mu":3309,"te":3310,"девочка":3311,"жку":3312,"саха":3313,"роль":3314,"объяс":3315,"сходить":3316,"фри":3317,"месяца":3318,"смети":3319,"ассоциа":3320,"тянет":3321,"увели":3322,"назад":3323,"лой":3324,"зм":3325,"мента":3326,"сать":3327,"наро":3328,"автомобиль":3329,"шоколад":3330,"чёр":3331,"lu":3332,"космети":3333,"пен":3334,"своем":3335,"телефон":3336,"пошли":3337,"чистить":3338,"неве":3339,"любим":3340,"гна":3341,"кали":3342,"девст":3343,"рым":3344,"канчи":3345,"любимому":3346,"горе":3347,"вки":3348,"бель":3349,"видимо":3350,"жили":3351,"терпеть":3352,"нул":3353,"лую":3354,"ответить":3355,"сюда":3356,"нести":3357,"ближе":3358,"иться":3359,"клады":3360,"вполне":3361,"пусти":3362,"ябло":3363,"домой":3364,"вечером":3365,"умне":3366,"водит":3367,"города":3368,"темпера":3369,"беру":3370,"делаю":3371,"руга":3372,"бур":3373,"досто":3374,"зако":3375,"ласко":3376,"прош":3377,"жену":3378,"школе":3379,"yo":3380,"поможет":3381,"пери":3382,"влюбиться":3383,"парнем":3384,"полюбить":3385,"поса":3386,"тело":3387,"зов":3388,"выбра":3389,"жрать":3390,"тыся":3391,"нормальный":3392,"спросить":3393,"жнее":3394,"рисо":3395,"отме":3396,"цес":3397,"книга":3398,"ствуют":3399,"недоста":3400,"характер":3401,"уха":3402,"шее":3403,"умер":3404,"тых":3405,"жё":3406,"розо":3407,"начало":3408,"che":3409,"бил":3410,"моде":3411,"свете":3412,"рецепт":3413,"рых":3414,"полно":3415,"ствия":3416,"уходит":3417,"отучить":3418,"специ":3419,"сделали":3420,"животное":3421,"уметь":3422,"психи":3423,"англий":3424,"дется":3425,"бин":3426,"заставля":3427,"разговари":3428,"проблем":3429,"отдыхать":3430,"жные":3431,"хом":3432,"уве":3433,"ани":3434,"любовью":3435,"сись":3436,"рам":3437,"ru":3438,"газ":3439,"дарить":3440,"замеча":3441,"носят":3442,"един":3443,"взрослы":3444,"оты":3445,"сыгра":3446,"уйти":3447,"наша":3448,"бые":3449,"пиро":3450,"стороны":3451,"дорога":3452,"жил":3453,"сходи":3454,"еты":3455,"моё":3456,"абсолютно":3457,"кке":3458,"маме":3459,"бабы":3460,"отдохнуть":3461,"твое":3462,"зуб":3463,"нау":3464,"обеща":3465,"меру":3466,"судя":3467,"дения":3468,"сига":3469,"какова":3470,"интересный":3471,"начинает":3472,"моих":3473,"путь":3474,"умеешь":3475,"большие":3476,"плани":3477,"магазине":3478,"мужской":3479,"комплек":3480,"поез":3481,"стиль":3482,"мечты":3483,"зывают":3484,"детям":3485,"причина":3486,"алек":3487,"эн":3488,"нень":3489,"заканчи":3490,"белый":3491,"помощью":3492,"тара":3493,"откро":3494,"дного":3495,"пан":3496,"эй":3497,"ce":3498,"бая":3499,"гия":3500,"сериа":3501,"зубы":3502,"тое":3503,"вались":3504,"другом":3505,"блу":3506,"даете":3507,"вления":3508,"однозна":3509,"чувствуете":3510,"вызывает":3511,"первым":3512,"труд":3513,"мозги":3514,"благода":3515,"некоторых":3516,"живать":3517,"старше":3518,"чья":3519,"дость":3520,"нным":3521,"ай":3522,"искрен":3523,"макси":3524,"красивых":3525,"мона":3526,"цена":3527,"проблема":3528,"ческое":3529,"радость":3530,"назвали":3531,"выпи":3532,"послу":3533,"прое":3534,"услови":3535,"совесть":3536,"сожалению":3537,"распо":3538,"лежит":3539,"считается":3540,"резуль":3541,"еду":3542,"тей":3543,"гина":3544,"спорта":3545,"результа":3546,"витами":3547,"тка":3548,"нную":3549,"большин":3550,"поднять":3551,"огу":3552,"смерть":3553,"говорите":3554,"хомя":3555,"дек":3556,"рик":3557,"za":3558,"хорошим":3559,"тики":3560,"били":3561,"замет":3562,"вная":3563,"сум":3564,"круче":3565,"пече":3566,"подруга":3567,"надеюсь":3568,"бояться":3569,"праздник":3570,"вили":3571,"ждает":3572,"анге":3573,"мур":3574,"воспита":3575,"солнце":3576,"хокке":3577,"стоят":3578,"тяги":3579,"яр":3580,"фига":3581,"выиграет":3582,"провести":3583,"зор":3584,"приз":3585,"лаз":3586,"нешь":3587,"краса":3588,"недели":3589,"гей":3590,"уста":3591,"одном":3592,"шту":3593,"ими":3594,"шут":3595,"проща":3596,"поп":3597,"самим":3598,"дение":3599,"крови":3600,"тельные":3601,"выбор":3602,"разных":3603,"продать":3604,"улыба":3605,"остро":3606,"потерять":3607,"сове":3608,"рези":3609,"ляр":3610,"зам":3611,"живо":3612,"американ":3613,"есте":3614,"чики":3615,"черный":3616,"энер":3617,"пои":3618,"человеке":3619,"пойду":3620,"мальчик":3621,"вряд":3622,"треть":3623,"лок":3624,"ss":3625,"риться":3626,"ником":3627,"права":3628,"смотрел":3629,"хре":3630,"тный":3631,"чере":3632,"пола":3633,"щим":3634,"ето":3635,"видите":3636,"повы":3637,"смерти":3638,"вного":3639,"знают":3640,"испор":3641,"принимать":3642,"дил":3643,"умно":3644,"которое":3645,"дур":3646,"однозначно":3647,"отсутствие":3648,"думы":3649,"бана":3650,"сегодняш":3651,"вень":3652,"днем":3653,"коно":3654,"тора":3655,"страх":3656,"тела":3657,"ассоциации":3658,"немец":3659,"жд":3660,"влюбля":3661,"пыты":3662,"употре":3663,"прекрасно":3664,"влечь":3665,"туалет":3666,"семья":3667,"ut":3668,"класси":3669,"девч":3670,"хрен":3671,"полностью":3672,"плохой":3673,"скажет":3674,"сия":3675,"интересу":3676,"чужи":3677,"состояние":3678,"иду":3679,"разгово":3680,"баба":3681,"подходит":3682,"видео":3683,"прежде":3684,"магазин":3685,"модель":3686,"руется":3687,"тихо":3688,"испа":3689,"сомне":3690,"начинать":3691,"ставь":3692,"приходится":3693,"прогноз":3694,"словом":3695,"so":3696,"ото":3697,"погода":3698,"co":3699,"реаги":3700,"печат":3701,"помнить":3702,"зарабаты":3703,"представля":3704,"руку":3705,"вашим":3706,"рети":3707,"ребёнка":3708,"хло":3709,"поменять":3710,"лик":3711,"йтесь":3712,"качество":3713,"джа":3714,"повто":3715,"современ":3716,"понимаете":3717,"кух":3718,"фина":3719,"стый":3720,"уши":3721,"куль":3722,"лоша":3723,"осталось":3724,"бей":3725,"животных":3726,"людь":3727,"точки":3728,"поте":3729,"организ":3730,"лена":3731,"смотрит":3732,"мнению":3733,"молоко":3734,"заве":3735,"скому":3736,"мин":3737,"зная":3738,"заклю":3739,"лон":3740,"обрати":3741,"переда":3742,"связа":3743,"сможет":3744,"програм":3745,"сах":3746,"слышать":3747,"наших":3748,"повод":3749,"людьми":3750,"красивой":3751,"видели":3752,"рение":3753,"ктив":3754,"разли":3755,"зом":3756,"испыты":3757,"боится":3758,"бан":3759,"скре":3760,"дока":3761,"рина":3762,"отказа":3763,"практически":3764,"другому":3765,"хво":3766,"исклю":3767,"тика":3768,"точ":3769,"согласны":3770,"сп":3771,"билет":3772,"сын":3773,"компью":3774,"думаешь":3775,"метал":3776,"сигарет":3777,"зла":3778,"красивое":3779,"расскажите":3780,"стесня":3781,"тую":3782,"успо":3783,"править":3784,"своя":3785,"футболь":3786,"спит":3787,"кошек":3788,"дую":3789,"руках":3790,"родителей":3791,"фило":3792,"конф":3793,"тему":3794,"шах":3795,"извест":3796,"адре":3797,"электро":3798,"реги":3799,"выйдет":3800,"стан":3801,"динамо":3802,"мся":3803,"поднима":3804,"крем":3805,"ложи":3806,"женское":3807,"рию":3808,"совершенно":3809,"голос":3810,"ад":3811,"зали":3812,"щения":3813,"еш":3814,"мут":3815,"брак":3816,"заменить":3817,"кер":3818,"кило":3819,"жел":3820,"свер":3821,"ав":3822,"женские":3823,"дороже":3824,"чко":3825,"отда":3826,"вечера":3827,"становятся":3828,"открыть":3829,"кака":3830,"рие":3831,"научить":3832,"коте":3833,"подоб":3834,"нашли":3835,"чужие":3836,"едят":3837,"иль":3838,"сот":3839,"нормальные":3840,"поводу":3841,"тратить":3842,"ест":3843,"тельная":3844,"парней":3845,"хороших":3846,"снег":3847,"довать":3848,"марка":3849,"скро":3850,"лее":3851,"ухо":3852,"фотографи":3853,"звать":3854,"старый":3855,"инете":3856,"дная":3857,"особо":3858,"еться":3859,"чест":3860,"света":3861,"осень":3862,"масса":3863,"недо":3864,"руют":3865,"хая":3866,"ово":3867,"всей":3868,"прили":3869,"водят":3870,"рожда":3871,"чувствовать":3872,"ненавижу":3873,"уверен":3874,"сет":3875,"кно":3876,"уй":3877,"делали":3878,"вный":3879,"следует":3880,"встретить":3881,"холоди":3882,"считаю":3883,"чемпиона":3884,"рё":3885,"внешность":3886,"рису":3887,"горь":3888,"ниже":3889,"вторая":3890,"бежать":3891,"растут":3892,"таком":3893,"крет":3894,"кет":3895,"вопросов":3896,"спу":3897,"сексуально":3898,"побольше":3899,"аж":3900,"стати":3901,"угадайте":3902,"даль":3903,"цов":3904,"ассоции":3905,"случайно":3906,"эго":3907,"мимо":3908,"слава":3909,"кин":3910,"шер":3911,"порт":3912,"здоровье":3913,"кара":3914,"причем":3915,"пива":3916,"имени":3917,"муд":3918,"очередь":3919,"животные":3920,"поговорить":3921,"дия":3922,"пает":3923,"выхо":3924,"устраи":3925,"зии":3926,"зить":3927,"кошку":3928,"посла":3929,"простой":3930,"su":3931,"шкой":3932,"шёл":3933,"новым":3934,"нарко":3935,"ложить":3936,"фильме":3937,"реал":3938,"вато":3939,"ору":3940,"хие":3941,"гол":3942,"съесть":3943,"плохое":3944,"глубо":3945,"порой":3946,"ствовать":3947,"жене":3948,"коле":3949,"чаю":3950,"использу":3951,"ot":3952,"возника":3953,"тупы":3954,"идёт":3955,"пп":3956,"сможете":3957,"плане":3958,"тату":3959,"щему":3960,"каждой":3961,"поцелуй":3962,"качества":3963,"пригото":3964,"хер":3965,"хит":3966,"жная":3967,"влять":3968,"бю":3969,"возду":3970,"ов":3971,"незнаю":3972,"тупо":3973,"наме":3974,"главный":3975,"дю":3976,"чета":3977,"подарки":3978,"систе":3979,"любимых":3980,"идут":3981,"страна":3982,"инти":3983,"девчон":3984,"неш":3985,"также":3986,"кредит":3987,"хал":3988,"возбу":3989,"вати":3990,"кл":3991,"оригина":3992,"баб":3993,"лог":3994,"корм":3995,"водки":3996,"платье":3997,"предла":3998,"бегать":3999,"оказа":4000,"тите":4001,"летки":4002,"гни":4003,"вался":4004,"показа":4005,"варить":4006,"играют":4007,"ужин":4008,"силы":4009,"чают":4010,"ваетесь":4011,"вторую":4012,"шай":4013,"маленький":4014,"умнее":4015,"конца":4016,"хорошей":4017,"земле":4018,"соблаз":4019,"ужас":4020,"тные":4021,"герма":4022,"папа":4023,"годы":4024,"гал":4025,"беременности":4026,"мел":4027,"такими":4028,"печа":4029,"доброй":4030,"is":4031,"конкрет":4032,"чества":4033,"получится":4034,"кал":4035,"русские":4036,"спокойной":4037,"вица":4038,"каждому":4039,"зим":4040,"pa":4041,"боли":4042,"добрые":4043,"умная":4044,"жесто":4045,"возьми":4046,"любовни":4047,"бов":4048,"гаю":4049,"япон":4050,"вало":4051,"пахнет":4052,"живе":4053,"ck":4054,"ока":4055,"полный":4056,"новой":4057,"победит":4058,"сда":4059,"джин":4060,"стили":4061,"пута":4062,"дверь":4063,"расска":4064,"весна":4065,"сексе":4066,"гой":4067,"видела":4068,"водите":4069,"играл":4070,"ногти":4071,"зую":4072,"дешевле":4073,"вера":4074,"инди":4075,"одинако":4076,"контро":4077,"шампу":4078,"трени":4079,"остаться":4080,"филосо":4081,"берут":4082,"отдых":4083,"ступ":4084,"попасть":4085,"украи":4086,"дан":4087,"зия":4088,"необходимо":4089,"eto":4090,"смысла":4091,"порядо":4092,"молодой":4093,"скор":4094,"плох":4095,"свидание":4096,"натура":4097,"явно":4098,"путе":4099,"нский":4100,"жало":4101,"минимум":4102,"твоих":4103,"впечат":4104,"цион":4105,"ваюсь":4106,"устро":4107,"суб":4108,"многих":4109,"судьба":4110,"броса":4111,"заслу":4112,"лят":4113,"разби":4114,"москва":4115,"разре":4116,"рили":4117,"гам":4118,"тельство":4119,"разоча":4120,"твою":4121,"приня":4122,"сезон":4123,"ловать":4124,"использовать":4125,"умира":4126,"женской":4127,"кай":4128,"сочи":4129,"отличить":4130,"рять":4131,"гах":4132,"гали":4133,"достоин":4134,"надоело":4135,"нение":4136,"сделай":4137,"стю":4138,"контак":4139,"эмоции":4140,"ох":4141,"платить":4142,"наиболее":4143,"позна":4144,"комен":4145,"ребя":4146,"сади":4147,"ческих":4148,"наве":4149,"внимания":4150,"лекар":4151,"хотеть":4152,"жет":4153,"сков":4154,"пох":4155,"мас":4156,"даёт":4157,"считают":4158,"болеть":4159,"гнать":4160,"мысль":4161,"отношений":4162,"показать":4163,"фер":4164,"ыыыы":4165,"шок":4166,"жениться":4167,"головой":4168,"случи":4169,"другую":4170,"начинают":4171,"вляет":4172,"восто":4173,"геро":4174,"память":4175,"ик":4176,"делай":4177,"круп":4178,"ситуации":4179,"вспомина":4180,"понравился":4181,"хими":4182,"дку":4183,"шими":4184,"обычный":4185,"дорогой":4186,"намного":4187,"мудро":4188,"чуде":4189,"живёт":4190,"дем":4191,"расти":4192,"вил":4193,"миро":4194,"стол":4195,"ится":4196,"бизнес":4197,"анти":4198,"мит":4199,"капу":4200,"жаре":4201,"член":4202,"сделал":4203,"проходит":4204,"выходить":4205,"остано":4206,"росте":4207,"депре":4208,"общение":4209,"тож":4210,"ca":4211,"твоего":4212,"pro":4213,"ческого":4214,"всеми":4215,"кожа":4216,"шеб":4217,"раздо":4218,"чок":4219,"таб":4220,"рил":4221,"бай":4222,"избавится":4223,"водку":4224,"ревность":4225,"вость":4226,"словами":4227,"большое":4228,"салат":4229,"рис":4230,"гер":4231,"модно":4232,"опти":4233,"карма":4234,"твоё":4235,"одиночество":4236,"нин":4237,"женский":4238,"купили":4239,"бит":4240,"пира":4241,"блюдо":4242,"плюсы":4243,"набрать":4244,"пок":4245,"бовать":4246,"волшеб":4247,"поцелу":4248,"стира":4249,"планы":4250,"выбо":4251,"арми":4252,"бря":4253,"хлеб":4254,"выходные":4255,"искус":4256,"тели":4257,"жаль":4258,"пласти":4259,"земля":4260,"метро":4261,"умение":4262,"удобно":4263,"руб":4264,"вело":4265,"сре":4266,"любу":4267,"пил":4268,"доверять":4269,"ций":4270,"моим":4271,"котором":4272,"настоящие":4273,"признак":4274,"подро":4275,"красивее":4276,"колес":4277,"жей":4278,"белые":4279,"школу":4280,"францу":4281,"ура":4282,"мето":4283,"купа":4284,"скока":4285,"сына":4286,"марки":4287,"серьёз":4288,"найди":4289,"способен":4290,"сиди":4291,"тельное":4292,"понимаю":4293,"ложь":4294,"выражение":4295,"сказали":4296,"никаких":4297,"верну":4298,"сердца":4299,"мень":4300,"временно":4301,"сказки":4302,"отличаются":4303,"слушаю":4304,"шно":4305,"ственная":4306,"разум":4307,"каков":4308,"жут":4309,"опас":4310,"лант":4311,"цца":4312,"воде":4313,"компли":4314,"выпа":4315,"мну":4316,"парт":4317,"яи":4318,"вок":4319,"тащи":4320,"бара":4321,"зелё":4322,"лада":4323,"мужские":4324,"буд":4325,"соль":4326,"многое":4327,"кова":4328,"актри":4329,"чужой":4330,"пау":4331,"ba":4332,"придумать":4333,"варе":4334,"купил":4335,"благо":4336,"нкой":4337,"вариант":4338,"ющим":4339,"мороз":4340,"любимую":4341,"удачи":4342,"занимаетесь":4343,"встречаться":4344,"ствием":4345,"носите":4346,"выки":4347,"дочь":4348,"годи":4349,"сидит":4350,"дружить":4351,"образо":4352,"спокойно":4353,"подойдет":4354,"коты":4355,"посу":4356,"нье":4357,"коше":4358,"инстру":4359,"обез":4360,"дон":4361,"приме":4362,"лице":4363,"нько":4364,"маленькая":4365,"соли":4366,"скажете":4367,"спря":4368,"пройти":4369,"лут":4370,"плиз":4371,"питере":4372,"одному":4373,"пка":4374,"напря":4375,"глядя":4376,"созна":4377,"улыб":4378,"таре":4379,"ква":4380,"фана":4381,"квартире":4382,"ческую":4383,"мить":4384,"ver":4385,"рек":4386,"степе":4387,"сона":4388,"говорю":4389,"влюбле":4390,"лям":4391,"постели":4392,"охо":4393,"гораздо":4394,"чемпионо":4395,"руками":4396,"выго":4397,"цели":4398,"согласна":4399,"футболист":4400,"лома":4401,"недавно":4402,"существуют":4403,"эконо":4404,"ждет":4405,"идеальный":4406,"опера":4407,"скром":4408,"срок":4409,"страшный":4410,"туре":4411,"плат":4412,"дед":4413,"положите":4414,"брат":4415,"пусто":4416,"чудо":4417,"кость":4418,"хто":4419,"популяр":4420,"отдать":4421,"трусы":4422,"посмотрите":4423,"ing":4424,"паца":4425,"норм":4426,"темно":4427,"ственные":4428,"ключи":4429,"поделитесь":4430,"глазах":4431,"аниме":4432,"еда":4433,"мужская":4434,"запи":4435,"хой":4436,"хозяй":4437,"зеркало":4438,"плюс":4439,"задавать":4440,"грамм":4441,"нче":4442,"возвраща":4443,"определе":4444,"ством":4445,"вывести":4446,"кончи":4447,"раздражает":4448,"маз":4449,"льном":4450,"цент":4451,"пожела":4452,"форму":4453,"добавить":4454,"поменя":4455,"превра":4456,"лежа":4457,"маленькие":4458,"кает":4459,"ждение":4460,"дорогие":4461,"ищет":4462,"еги":4463,"соответ":4464,"стихи":4465,"целый":4466,"лями":4467,"щенка":4468,"небо":4469,"окружа":4470,"любил":4471,"ибо":4472,"запрет":4473,"огур":4474,"пойдет":4475,"сиськи":4476,"сятся":4477,"рекомен":4478,"бред":4479,"теп":4480,"согласи":4481,"новое":4482,"обижа":4483,"гне":4484,"трети":4485,"понравиться":4486,"рожать":4487,"приносит":4488,"любили":4489,"пку":4490,"зме":4491,"значение":4492,"уверенность":4493,"тек":4494,"просыпа":4495,"дождь":4496,"четы":4497,"лев":4498,"шанс":4499,"объяснить":4500,"роли":4501,"колба":4502,"честь":4503,"воспо":4504,"зависимости":4505,"предела":4506,"женой":4507,"ееее":4508,"разру":4509,"родился":4510,"временем":4511,"эм":4512,"пуль":4513,"дор":4514,"весело":4515,"процес":4516,"мог":4517,"цените":4518,"вяза":4519,"воли":4520,"гражда":4521,"охот":4522,"начали":4523,"and":4524,"здоровья":4525,"устано":4526,"ребёнок":4527,"новых":4528,"шаг":4529,"прилично":4530,"правила":4531,"локо":4532,"удовольствие":4533,"знак":4534,"мари":4535,"проверить":4536,"кну":4537,"делаешь":4538,"мило":4539,"прие":4540,"советую":4541,"лёг":4542,"интересные":4543,"нормальная":4544,"вкусный":4545,"of":4546,"летать":4547,"проя":4548,"выпу":4549,"bu":4550,"гуг":4551,"водка":4552,"ссия":4553,"видишь":4554,"тус":4555,"чувствую":4556,"плохого":4557,"имеют":4558,"мамы":4559,"гармо":4560,"ньте":4561,"дого":4562,"шед":4563,"зен":4564,"целу":4565,"инсти":4566,"следую":4567,"груди":4568,"третий":4569,"силу":4570,"чьи":4571,"утрам":4572,"присут":4573,"моем":4574,"долла":4575,"милые":4576,"причины":4577,"противополо":4578,"плохая":4579,"ниж":4580,"собра":4581,"насла":4582,"уто":4583,"звучит":4584,"оре":4585,"фирмы":4586,"ого":4587,"летво":4588,"сборной":4589,"правило":4590,"знамени":4591,"правлять":4592,"второе":4593,"удов":4594,"сильный":4595,"оцени":4596,"общения":4597,"тест":4598,"жешь":4599,"тывать":4600,"пользоваться":4601,"вае":4602,"мальчика":4603,"никуда":4604,"солне":4605,"маму":4606,"отпуск":4607,"гая":4608,"познаком":4609,"рах":4610,"альных":4611,"тет":4612,"пережи":4613,"трех":4614,"двигатель":4615,"риф":4616,"длинные":4617,"пая":4618,"кадр":4619,"выро":4620,"ассоциируется":4621,"понимать":4622,"chto":4623,"заку":4624,"аааааааа":4625,"оту":4626,"отмет":4627,"телеви":4628,"джо":4629,"my":4630,"категории":4631,"одеть":4632,"цветок":4633,"яться":4634,"принять":4635,"глазами":4636,"режи":4637,"любая":4638,"тина":4639,"нынче":4640,"попробуйте":4641,"дается":4642,"реак":4643,"спер":4644,"апте":4645,"страны":4646,"мали":4647,"самую":4648,"парням":4649,"написано":4650,"сми":4651,"незнако":4652,"стные":4653,"зал":4654,"уз":4655,"веро":4656,"признаться":4657,"конья":4658,"дорогу":4659,"заключается":4660,"почитать":4661,"жий":4662,"пома":4663,"кими":4664,"щик":4665,"чник":4666,"дому":4667,"цены":4668,"отре":4669,"няют":4670,"тысяч":4671,"породу":4672,"угодно":4673,"поет":4674,"шение":4675,"широ":4676,"верит":4677,"относится":4678,"количество":4679,"обманы":4680,"тип":4681,"нком":4682,"уку":4683,"ахаха":4684,"рку":4685,"напомина":4686,"тин":4687,"стран":4688,"ищут":4689,"кора":4690,"забо":4691,"любого":4692,"разде":4693,"родить":4694,"зажи":4695,"сочета":4696,"нью":4697,"имею":4698,"порно":4699,"вылечить":4700,"называются":4701,"самых":4702,"точку":4703,"ровно":4704,"напиши":4705,"смотрят":4706,"ly":4707,"ограни":4708,"мужика":4709,"понятно":4710,"пошла":4711,"ваем":4712,"фар":4713,"заставляет":4714,"стую":4715,"объе":4716,"понял":4717,"естественно":4718,"прока":4719,"прощать":4720,"запре":4721,"девче":4722,"друзьями":4723,"питер":4724,"удовлетво":4725,"спаса":4726,"начале":4727,"средства":4728,"мульт":4729,"любую":4730,"ишь":4731,"точка":4732,"рук":4733,"щает":4734,"фона":4735,"умереть":4736,"удалить":4737,"ие":4738,"заранее":4739,"фак":4740,"считает":4741,"us":4742,"цем":4743,"анали":4744,"врачу":4745,"un":4746,"нек":4747,"москвы":4748,"неть":4749,"сторону":4750,"тупой":4751,"ждете":4752,"зая":4753,"опреде":4754,"челси":4755,"придумал":4756,"тв":4757,"ревну":4758,"понятие":4759,"обрести":4760,"постави":4761,"men":4762,"сой":4763,"понравится":4764,"петь":4765,"плакать":4766,"мпи":4767,"близких":4768,"зря":4769,"хали":4770,"являются":4771,"вши":4772,"гаи":4773,"нико":4774,"произо":4775,"тива":4776,"ээ":4777,"оставить":4778,"классный":4779,"сша":4780,"доверие":4781,"любое":4782,"скромно":4783,"тыми":4784,"she":4785,"алкоголь":4786,"приве":4787,"понимание":4788,"кризи":4789,"продолжите":4790,"рели":4791,"мужское":4792,"пуга":4793,"менее":4794,"носки":4795,"полного":4796,"талант":4797,"прочита":4798,"спортом":4799,"рода":4800,"сии":4801,"борь":4802,"принципе":4803,"добиться":4804,"умных":4805,"девствен":4806,"вина":4807,"млад":4808,"ленно":4809,"весить":4810,"хх":4811,"посы":4812,"сравни":4813,"вому":4814,"лях":4815,"гнуть":4816,"марта":4817,"выглядеть":4818,"глупость":4819,"ужасно":4820,"пришла":4821,"шусь":4822,"семьи":4823,"дё":4824,"заканчивается":4825,"вовремя":4826,"видит":4827,"накачать":4828,"думал":4829,"il":4830,"ели":4831,"попросить":4832,"довольны":4833,"комедию":4834,"руко":4835,"ga":4836,"шлы":4837,"ответов":4838,"чительно":4839,"гряз":4840,"бак":4841,"вший":4842,"вещь":4843,"ию":4844,"фк":4845,"хам":4846,"выйгра":4847,"водится":4848,"двое":4849,"прия":4850,"условиях":4851,"фотки":4852,"чивать":4853,"чам":4854,"расстоя":4855,"уе":4856,"ничем":4857,"переди":4858,"деду":4859,"старые":4860,"бума":4861,"купила":4862,"холодно":4863,"зли":4864,"нули":4865,"плохие":4866,"весной":4867,"растет":4868,"бое":4869,"сохранить":4870,"везет":4871,"позволя":4872,"тарака":4873,"сказала":4874,"француз":4875,"село":4876,"очки":4877,"выпол":4878,"зеленый":4879,"тона":4880,"тивный":4881,"сплю":4882,"детский":4883,"нен":4884,"мака":4885,"сё":4886,"спят":4887,"сном":4888,"изобра":4889,"влади":4890,"остальные":4891,"пользую":4892,"растение":4893,"шили":4894,"акку":4895,"щен":4896,"vse":4897,"шаете":4898,"работаю":4899,"тная":4900,"лыми":4901,"предпочитаю":4902,"ауди":4903,"будущее":4904,"деб":4905,"своём":4906,"шашлы":4907,"медве":4908,"придумали":4909,"ссе":4910,"мок":4911,"водой":4912,"музыки":4913,"еды":4914,"жая":4915,"целоваться":4916,"скорей":4917,"ждут":4918,"попробовать":4919,"упра":4920,"воб":4921,"дец":4922,"сипе":4923,"виа":4924,"понимают":4925,"домашние":4926,"шар":4927,"тельства":4928,"pe":4929,"еже":4930,"шен":4931,"одежды":4932,"людях":4933,"ева":4934,"коллек":4935,"мах":4936,"вкуснее":4937,"ищите":4938,"зв":4939,"началь":4940,"рука":4941,"конча":4942,"согласен":4943,"пережить":4944,"группу":4945,"рин":4946,"жид":4947,"детства":4948,"дили":4949,"рами":4950,"готова":4951,"одо":4952,"забот":4953,"разме":4954,"шлю":4955,"мура":4956,"тря":4957,"прези":4958,"ному":4959,"задни":4960,"большинство":4961,"зима":4962,"двор":4963,"деся":4964,"исче":4965,"вляю":4966,"сохра":4967,"дным":4968,"глупые":4969,"ора":4970,"деда":4971,"стоять":4972,"богу":4973,"супру":4974,"заго":4975,"красный":4976,"впервые":4977,"пройдет":4978,"наконец":4979,"чками":4980,"причине":4981,"ходу":4982,"гарри":4983,"du":4984,"нашла":4985,"измену":4986,"велосипе":4987,"xd":4988,"уважа":4989,"адек":4990,"создать":4991,"приходилось":4992,"идеально":4993,"глупый":4994,"пробовал":4995,"совето":4996,"просить":4997,"клад":4998,"уров":4999,"подрост":5000,"жур":5001,"произве":5002,"увеличить":5003,"роста":5004,"даст":5005,"шит":5006,"приста":5007,"гули":5008,"жено":5009,"прожи":5010,"думай":5011,"кости":5012,"продукты":5013,"мотоци":5014,"мё":5015,"ничто":5016,"имена":5017,"дак":5018,"измена":5019,"улыбка":5020,"вную":5021,"вяз":5022,"знакомиться":5023,"бых":5024,"желу":5025,"минус":5026,"каждая":5027,"начи":5028,"тится":5029,"чесно":5030,"просну":5031,"ошибки":5032,"костю":5033,"аватар":5034,"ствую":5035,"ила":5036,"чика":5037,"нова":5038,"успоко":5039,"едите":5040,"сидя":5041,"остались":5042,"сиби":5043,"сыр":5044,"радоваться":5045,"you":5046,"оцените":5047,"изви":5048,"головы":5049,"квартиру":5050,"спло":5051,"нега":5052,"осозна":5053,"чувствует":5054,"эль":5055,"общего":5056,"наблю":5057,"пила":5058,"роз":5059,"дольше":5060,"лина":5061,"дала":5062,"ждения":5063,"упраж":5064,"чаться":5065,"мужья":5066,"джон":5067,"чаете":5068,"загля":5069,"олимпи":5070,"хай":5071,"смотрели":5072,"дания":5073,"км":5074,"грустно":5075,"куса":5076,"дамы":5077,"компьютер":5078,"результат":5079,"жной":5080,"ер":5081,"пари":5082,"бензин":5083,"тае":5084,"бесе":5085,"девчонки":5086,"ke":5087,"тема":5088,"научится":5089,"пьют":5090,"настроения":5091,"внутренний":5092,"послать":5093,"игрок":5094,"обувь":5095,"добрым":5096,"пишут":5097,"рон":5098,"врать":5099,"требует":5100,"sto":5101,"сможешь":5102,"кля":5103,"миллион":5104,"нрав":5105,"крити":5106,"мыми":5107,"товари":5108,"плачу":5109,"фамилия":5110,"нервы":5111,"неуда":5112,"рождение":5113,"пала":5114,"ближай":5115,"приви":5116,"ведли":5117,"относятся":5118,"прекра":5119,"грыз":5120,"счёт":5121,"понедель":5122,"ремо":5123,"мю":5124,"пов":5125,"подруги":5126,"возможность":5127,"получать":5128,"дняя":5129,"ету":5130,"bm":5131,"игро":5132,"воль":5133,"вик":5134,"афри":5135,"кисло":5136,"духов":5137,"иллю":5138,"беременность":5139,"безответ":5140,"блондинки":5141,"рем":5142,"банк":5143,"дд":5144,"шой":5145,"подарили":5146,"информа":5147,"среднем":5148,"мужиков":5149,"kto":5150,"твер":5151,"реале":5152,"звали":5153,"приче":5154,"интим":5155,"wa":5156,"пир":5157,"сосед":5158,"узнаешь":5159,"насе":5160,"слышал":5161,"четыре":5162,"гии":5163,"жается":5164,"странный":5165,"покупаете":5166,"тяну":5167,"никакой":5168,"куро":5169,"губы":5170,"природе":5171,"болезнь":5172,"правиться":5173,"справедли":5174,"лке":5175,"готовите":5176,"ухаживать":5177,"вец":5178,"соля":5179,"жер":5180,"духи":5181,"большую":5182,"рад":5183,"сите":5184,"меняется":5185,"тник":5186,"начал":5187,"взаимо":5188,"свобода":5189,"сложнее":5190,"бесит":5191,"спирт":5192,"повезло":5193,"придет":5194,"месси":5195,"рование":5196,"свободное":5197,"уууууууу":5198,"ge":5199,"коз":5200,"ry":5201,"природа":5202,"правды":5203,"уважение":5204,"дик":5205,"зма":5206,"завтрак":5207,"возле":5208,"ia":5209,"заму":5210,"син":5211,"паро":5212,"услышать":5213,"лесу":5214,"часы":5215,"марку":5216,"юю":5217,"фильмов":5218,"дэ":5219,"держит":5220,"радио":5221,"ходили":5222,"помогают":5223,"растения":5224,"хала":5225,"удовольствием":5226,"эроти":5227,"отлично":5228,"забыл":5229,"появляется":5230,"языке":5231,"знакомства":5232,"for":5233,"любому":5234,"компании":5235,"витамины":5236,"назна":5237,"буль":5238,"превраща":5239,"танце":5240,"охота":5241,"ответа":5242,"льность":5243,"хоккей":5244,"шаю":5245,"нета":5246,"жок":5247,"пиз":5248,"просит":5249,"акти":5250,"телефо":5251,"убий":5252,"нара":5253,"каждом":5254,"дри":5255,"дурак":5256,"поду":5257,"путеше":5258,"национа":5259,"сердцу":5260,"счастливым":5261,"форт":5262,"сборная":5263,"подроб":5264,"per":5265,"север":5266,"мато":5267,"зиму":5268,"стых":5269,"надежда":5270,"усы":5271,"микро":5272,"последние":5273,"влюбилась":5274,"проверя":5275,"пришли":5276,"бами":5277,"рисовать":5278,"нице":5279,"гиб":5280,"коша":5281,"трез":5282,"рица":5283,"классно":5284,"потра":5285,"придется":5286,"фотка":5287,"оти":5288,"план":5289,"признаки":5290,"кубок":5291,"плы":5292,"покаж":5293,"всякие":5294,"стреми":5295,"pi":5296,"стят":5297,"диться":5298,"слушаете":5299,"мв":5300,"шем":5301,"секу":5302,"вернуться":5303,"вству":5304,"падает":5305,"образом":5306,"рассказать":5307,"страшная":5308,"ксе":5309,"понятия":5310,"уми":5311,"наль":5312,"крылья":5313,"мастер":5314,"зайди":5315,"рога":5316,"th":5317,"оке":5318,"рения":5319,"польза":5320,"винова":5321,"пробе":5322,"злые":5323,"стоить":5324,"честве":5325,"моря":5326,"деви":5327,"возможна":5328,"рыбу":5329,"минусы":5330,"желе":5331,"уходят":5332,"кало":5333,"груз":5334,"звёз":5335,"ju":5336,"мей":5337,"семью":5338,"каковы":5339,"привлекает":5340,"возникает":5341,"вале":5342,"суль":5343,"приклю":5344,"отом":5345,"коем":5346,"ветер":5347,"заби":5348,"тельность":5349,"тии":5350,"граду":5351,"водо":5352,"испортить":5353,"госпо":5354,"вызвать":5355,"состоянии":5356,"взаимно":5357,"свадеб":5358,"обед":5359,"клей":5360,"убира":5361,"жую":5362,"повыше":5363,"большим":5364,"цом":5365,"познакомится":5366,"ньки":5367,"рассла":5368,"команда":5369,"отзы":5370,"делал":5371,"воскре":5372,"нё":5373,"немно":5374,"зывается":5375,"мани":5376,"стирать":5377,"грибы":5378,"остается":5379,"je":5380,"поддержи":5381,"забереме":5382,"био":5383,"барсело":5384,"гр":5385,"нятся":5386,"лак":5387,"целью":5388,"кия":5389,"отде":5390,"тупые":5391,"совреме":5392,"тиши":5393,"молодые":5394,"разговаривать":5395,"сел":5396,"радости":5397,"дива":5398,"всём":5399,"стиле":5400,"борщ":5401,"навея":5402,"доку":5403,"милый":5404,"существо":5405,"профессия":5406,"приятное":5407,"второго":5408,"сестра":5409,"милая":5410,"пс":5411,"странно":5412,"мечтать":5413,"грамот":5414,"виртуально":5415,"уговорить":5416,"аллер":5417,"врач":5418,"навли":5419,"форд":5420,"интересует":5421,"ух":5422,"приходят":5423,"кир":5424,"рыб":5425,"яяяя":5426,"фраза":5427,"изм":5428,"арша":5429,"которому":5430,"ha":5431,"москов":5432,"заказать":5433,"страсть":5434,"ьер":5435,"эффектив":5436,"рады":5437,"золотой":5438,"процен":5439,"лучшим":5440,"боишься":5441,"чувствуешь":5442,"холодиль":5443,"водя":5444,"гент":5445,"прошлое":5446,"проек":5447,"сверху":5448,"gi":5449,"пользуетесь":5450,"срав":5451,"заг":5452,"собираетесь":5453,"родствен":5454,"встречать":5455,"ремонт":5456,"специально":5457,"серии":5458,"уровень":5459,"пого":5460,"определя":5461,"фы":5462,"женского":5463,"красивую":5464,"птица":5465,"сегодняшний":5466,"нула":5467,"показывать":5468,"пишет":5469,"видят":5470,"ср":5471,"кок":5472,"раство":5473,"ственное":5474,"таблетки":5475,"шите":5476,"главная":5477,"мышцы":5478,"умным":5479,"одежду":5480,"сети":5481,"двумя":5482,"нада":5483,"чия":5484,"gda":5485,"жест":5486,"пределах":5487,"фин":5488,"слома":5489,"сесть":5490,"предложить":5491,"ктора":5492,"заводить":5493,"каса":5494,"ответь":5495,"напиток":5496,"чужих":5497,"вании":5498,"желаю":5499,"фей":5500,"верят":5501,"помоему":5502,"качать":5503,"арсе":5504,"хах":5505,"написал":5506,"ота":5507,"отор":5508,"альбом":5509,"собираюсь":5510,"вопроса":5511,"виноват":5512,"тони":5513,"шения":5514,"меняет":5515,"типо":5516,"мальчики":5517,"жении":5518,"бьет":5519,"отец":5520,"ронал":5521,"туры":5522,"трах":5523,"лайн":5524,"стои":5525,"скла":5526,"взяли":5527,"берутся":5528,"круто":5529,"завиду":5530,"живи":5531,"стит":5532,"красивым":5533,"история":5534,"лесть":5535,"тил":5536,"почки":5537,"думала":5538,"труднее":5539,"убор":5540,"ясно":5541,"личной":5542,"поряд":5543,"нитель":5544,"страхо":5545,"постель":5546,"утрен":5547,"русских":5548,"фотку":5549,"одновременно":5550,"андре":5551,"ошиба":5552,"юр":5553,"сапо":5554,"жных":5555,"транс":5556,"итали":5557,"перестали":5558,"глупости":5559,"будто":5560,"дав":5561,"приез":5562,"пление":5563,"продают":5564,"сахар":5565,"лого":5566,"кстати":5567,"любила":5568,"способна":5569,"можем":5570,"идеальная":5571,"выбирать":5572,"огром":5573,"любые":5574,"iz":5575,"страшнее":5576,"хорошем":5577,"нашел":5578,"заба":5579,"положить":5580,"дии":5581,"расши":5582,"стная":5583,"ниче":5584,"долги":5585,"ситуация":5586,"офици":5587,"няк":5588,"лекарство":5589,"жного":5590,"занимаются":5591,"реали":5592,"взаим":5593,"алекса":5594,"сик":5595,"ресто":5596,"купите":5597,"навсегда":5598,"максимум":5599,"гы":5600,"котё":5601,"зарплата":5602,"испыта":5603,"ооо":5604,"ната":5605,"нашего":5606,"кризис":5607,"брить":5608,"лле":5609,"заболе":5610,"телем":5611,"окна":5612,"спрашивать":5613,"bmw":5614,"опишите":5615,"мого":5616,"леди":5617,"характера":5618,"разы":5619,"стья":5620,"мммм":5621,"хро":5622,"приводит":5623,"здравству":5624,"подня":5625,"понравилось":5626,"лететь":5627,"запомни":5628,"кусо":5629,"скорость":5630,"шками":5631,"букву":5632,"удивить":5633,"жди":5634,"ведет":5635,"када":5636,"пресс":5637,"ланд":5638,"опу":5639,"направ":5640,"цией":5641,"цами":5642,"занимается":5643,"бабо":5644,"страну":5645,"качестве":5646,"рф":5647,"оз":5648,"уехать":5649,"дерево":5650,"цам":5651,"помощи":5652,"устраивает":5653,"кат":5654,"рав":5655,"комфорт":5656,"ровки":5657,"собы":5658,"поступки":5659,"ili":5660,"называть":5661,"разбира":5662,"чном":5663,"злой":5664,"зади":5665,"аз":5666,"валась":5667,"полная":5668,"профессиона":5669,"автор":5670,"лап":5671,"мам":5672,"пробовали":5673,"лкой":5674,"оставаться":5675,"футболу":5676,"джинсы":5677,"белая":5678,"вье":5679,"задумы":5680,"таться":5681,"состоит":5682,"хуа":5683,"мороже":5684,"закончится":5685,"слове":5686,"девстве":5687,"сплош":5688,"жко":5689,"руба":5690,"стакан":5691,"вспомнить":5692,"понимает":5693,"украин":5694,"лье":5695,"зача":5696,"искренне":5697,"литера":5698,"стик":5699,"слову":5700,"аквари":5701,"бороть":5702,"рд":5703,"духо":5704,"враг":5705,"блюда":5706,"ставят":5707,"весит":5708,"опла":5709,"вайся":5710,"громко":5711,"штаны":5712,"метров":5713,"начинаю":5714,"свадьбы":5715,"пенси":5716,"стях":5717,"лед":5718,"период":5719,"чком":5720,"титься":5721,"вобще":5722,"двой":5723,"вон":5724,"автобу":5725,"находя":5726,"полное":5727,"подоби":5728,"адрес":5729,"бах":5730,"соседи":5731,"последняя":5732,"жусь":5733,"левой":5734,"бросил":5735,"гордость":5736,"жерт":5737,"ku":5738,"сос":5739,"изменяют":5740,"разному":5741,"интересо":5742,"чках":5743,"сывать":5744,"области":5745,"актё":5746,"довольно":5747,"древ":5748,"неожида":5749,"фю":5750,"ношу":5751,"крайней":5752,"шампан":5753,"ладно":5754,"твоем":5755,"банке":5756,"гон":5757,"взял":5758,"волну":5759,"тр":5760,"глуби":5761,"двери":5762,"эл":5763,"высоко":5764,"зрения":5765,"пошло":5766,"ведут":5767,"проте":5768,"предложение":5769,"веришь":5770,"очи":5771,"туи":5772,"решил":5773,"валя":5774,"температура":5775,"смогу":5776,"числа":5777,"перечи":5778,"покой":5779,"вален":5780,"стрем":5781,"влюбить":5782,"нашем":5783,"построить":5784,"содержа":5785,"скри":5786,"фффф":5787,"дарят":5788,"влюбился":5789,"необычно":5790,"хвост":5791,"сере":5792,"другая":5793,"курс":5794,"привлечь":5795,"полной":5796,"овча":5797,"февра":5798,"счастливый":5799,"подруге":5800,"сторон":5801,"рубин":5802,"предмет":5803,"ост":5804,"эле":5805,"сидят":5806,"веру":5807,"летит":5808,"улуч":5809,"ясь":5810,"куча":5811,"привычка":5812,"пл":5813,"лечь":5814,"ite":5815,"наказа":5816,"вов":5817,"наслажда":5818,"безумно":5819,"сильная":5820,"футбольный":5821,"рабочий":5822,"кома":5823,"отличие":5824,"тивные":5825,"солны":5826,"курица":5827,"man":5828,"бби":5829,"ворот":5830,"веду":5831,"спите":5832,"блять":5833,"днём":5834,"нафиг":5835,"дружбу":5836,"йо":5837,"соци":5838,"роваться":5839,"примет":5840,"говоря":5841,"рада":5842,"обезья":5843,"аро":5844,"нев":5845,"песе":5846,"тянуть":5847,"снится":5848,"воспомина":5849,"дороге":5850,"картинка":5851,"сказо":5852,"исте":5853,"маски":5854,"ческим":5855,"точнее":5856,"чм":5857,"черепа":5858,"смело":5859,"девочку":5860,"посовето":5861,"кафе":5862,"полезен":5863,"красоты":5864,"казах":5865,"биться":5866,"сутки":5867,"ребёнку":5868,"уг":5869,"подумать":5870,"обес":5871,"посадить":5872,"бам":5873,"щают":5874,"разобра":5875,"русского":5876,"снимать":5877,"вперед":5878,"шему":5879,"кровать":5880,"работают":5881,"здоровый":5882,"аку":5883,"молчать":5884,"ктов":5885,"мнения":5886,"сбросить":5887,"жима":5888,"отвечаете":5889,"сдать":5890,"всяких":5891,"отклю":5892,"читаю":5893,"зываете":5894,"прикольно":5895,"размера":5896,"именем":5897,"определи":5898,"тий":5899,"молчание":5900,"торо":5901,"прид":5902,"правильный":5903,"агре":5904,"проявля":5905,"ставит":5906,"приучить":5907,"ряется":5908,"обычная":5909,"бке":5910,"неплохо":5911,"игре":5912,"возвра":5913,"отметить":5914,"проявляется":5915,"библи":5916,"суббот":5917,"зона":5918,"мик":5919,"советы":5920,"mer":5921,"каль":5922,"свидании":5923,"дных":5924,"короче":5925,"пишется":5926,"никакого":5927,"настоящее":5928,"мужского":5929,"сказка":5930,"шансы":5931,"прошлом":5932,"достать":5933,"останется":5934,"дишь":5935,"уют":5936,"сильные":5937,"отличный":5938,"лимо":5939,"соле":5940,"обсу":5941,"зоне":5942,"мудрость":5943,"бмв":5944,"ано":5945,"туру":5946,"ласково":5947,"такси":5948,"чемпионом":5949,"поры":5950,"нил":5951,"танец":5952,"влюблё":5953,"юмора":5954,"русская":5955,"нагло":5956,"актер":5957,"ключ":5958,"котенка":5959,"хру":5960,"кроли":5961,"ответственно":5962,"смог":5963,"выходит":5964,"вышла":5965,"магазинах":5966,"душой":5967,"ужасов":5968,"смс":5969,"займи":5970,"эффект":5971,"чак":5972,"чность":5973,"ходил":5974,"александ":5975,"начни":5976,"собственной":5977,"торт":5978,"щаете":5979,"дова":5980,"встречу":5981,"ита":5982,"розы":5983,"выбрали":5984,"хри":5985,"говорили":5986,"изо":5987,"сериала":5988,"финан":5989,"вероят":5990,"боже":5991,"обья":5992,"стым":5993,"опы":5994,"рим":5995,"домо":5996,"однажды":5997,"следующий":5998,"стика":5999,"доказать":6000,"космо":6001,"доступ":6002,"гара":6003,"длится":6004,"сайты":6005,"двоих":6006,"лутше":6007,"ара":6008,"задать":6009,"лировать":6010,"бегу":6011,"отмечать":6012,"дык":6013,"обру":6014,"брюнет":6015,"lin":6016,"убивает":6017,"важен":6018,"век":6019,"прошу":6020,"случилось":6021,"ива":6022,"шпи":6023,"новом":6024,"лопа":6025,"мест":6026,"гим":6027,"играли":6028,"берет":6029,"стен":6030,"настоящего":6031,"искре":6032,"прогу":6033,"моменты":6034,"изменяет":6035,"пру":6036,"забудь":6037,"иму":6038,"воздуш":6039,"чувств":6040,"арбу":6041,"покажи":6042,"цветов":6043,"сигареты":6044,"делом":6045,"персона":6046,"рубе":6047,"мыслей":6048,"лиф":6049,"станда":6050,"спасти":6051,"шампунь":6052,"пуши":6053,"леты":6054,"решение":6055,"оскор":6056,"рете":6057,"ржа":6058,"мода":6059,"предпоч":6060,"шля":6061,"пец":6062,"электри":6063,"живем":6064,"жра":6065,"привести":6066,"понимании":6067,"джу":6068,"рулем":6069,"интуи":6070,"япо":6071,"kio":6072,"даче":6073,"стари":6074,"тной":6075,"ун":6076,"каково":6077,"вшись":6078,"ито":6079,"честву":6080,"парфю":6081,"манче":6082,"цар":6083,"решить":6084,"старая":6085,"массаж":6086,"возможности":6087,"сбы":6088,"кожи":6089,"регуля":6090,"сидите":6091,"настоящему":6092,"живает":6093,"штра":6094,"вида":6095,"траха":6096,"сюр":6097,"напа":6098,"завое":6099,"чемпионат":6100,"длин":6101,"девочке":6102,"украине":6103,"сменить":6104,"обратно":6105,"лятор":6106,"нкт":6107,"суток":6108,"вязать":6109,"ночам":6110,"вность":6111,"каждую":6112,"предательство":6113,"экономи":6114,"наг":6115,"ниц":6116,"верный":6117,"война":6118,"седе":6119,"научились":6120,"водитель":6121,"аппет":6122,"телей":6123,"матче":6124,"девченки":6125,"подви":6126,"крат":6127,"победа":6128,"рэп":6129,"похме":6130,"иска":6131,"лго":6132,"встречи":6133,"лук":6134,"красная":6135,"рррр":6136,"ровка":6137,"сделала":6138,"карье":6139,"сный":6140,"холод":6141,"баллов":6142,"pri":6143,"дила":6144,"нька":6145,"ственных":6146,"au":6147,"адекват":6148,"дывать":6149,"мыло":6150,"вкусное":6151,"яйцо":6152,"чне":6153,"жат":6154,"худ":6155,"многим":6156,"известно":6157,"благодар":6158,"сравнить":6159,"ук":6160,"цену":6161,"tokio":6162,"ter":6163,"жке":6164,"жопу":6165,"степени":6166,"будить":6167,"гаете":6168,"мешают":6169,"ааа":6170,"впереди":6171,"мс":6172,"офор":6173,"вреден":6174,"свеже":6175,"хорош":6176,"разговор":6177,"реакция":6178,"гени":6179,"отказаться":6180,"жизнью":6181,"пю":6182,"подъ":6183,"чнее":6184,"финал":6185,"пожале":6186,"shi":6187,"свадьбу":6188,"nu":6189,"герой":6190,"ощущения":6191,"зарплату":6192,"ушла":6193,"умень":6194,"буквы":6195,"дочка":6196,"живете":6197,"куря":6198,"действует":6199,"йор":6200,"усту":6201,"масла":6202,"отга":6203,"список":6204,"станови":6205,"одоле":6206,"бру":6207,"верность":6208,"вора":6209,"джек":6210,"осен":6211,"лист":6212,"общий":6213,"обычные":6214,"сладкое":6215,"пления":6216,"фаль":6217,"мяса":6218,"настоящую":6219,"универ":6220,"отрица":6221,"влюблен":6222,"окно":6223,"конкретно":6224,"ссср":6225,"рукой":6226,"детские":6227,"ствии":6228,"ала":6229,"дат":6230,"генера":6231,"бры":6232,"мощ":6233,"кари":6234,"оча":6235,"серде":6236,"град":6237,"цать":6238,"темы":6239,"идиот":6240,"интереснее":6241,"ственную":6242,"доверяете":6243,"лец":6244,"черно":6245,"пьете":6246,"планируете":6247,"площа":6248,"позволяет":6249,"даются":6250,"вляют":6251,"альную":6252,"черта":6253,"напит":6254,"зз":6255,"пускают":6256,"выгодно":6257,"краше":6258,"приятного":6259,"терпение":6260,"автомобиля":6261,"джей":6262,"ллек":6263,"желез":6264,"группе":6265,"организм":6266,"упражнения":6267,"рази":6268,"подобрать":6269,"оптими":6270,"сики":6271,"врата":6272,"интересного":6273,"лл":6274,"пошел":6275,"другими":6276,"улицу":6277,"cha":6278,"пригласить":6279,"суть":6280,"чёрный":6281,"потомучто":6282,"счастливы":6283,"поезд":6284,"love":6285,"пушки":6286,"порядок":6287,"веж":6288,"бутер":6289,"пишу":6290,"вчераш":6291,"родов":6292,"хобби":6293,"переме":6294,"ходишь":6295,"бензи":6296,"госу":6297,"сель":6298,"отвечаю":6299,"тное":6300,"решать":6301,"страха":6302,"кухне":6303,"давление":6304,"бывать":6305,"доче":6306,"предо":6307,"относиться":6308,"картошку":6309,"запе":6310,"макия":6311,"мерт":6312,"счастлив":6313,"пятница":6314,"бый":6315,"снятся":6316,"чна":6317,"бас":6318,"приветик":6319,"рыбы":6320,"взрослые":6321,"исключительно":6322,"понедельник":6323,"дене":6324,"учится":6325,"зит":6326,"шё":6327,"читал":6328,"интеллек":6329,"слушает":6330,"победить":6331,"чее":6332,"ада":6333,"цкий":6334,"эр":6335,"провере":6336,"грех":6337,"профессии":6338,"каблу":6339,"приятный":6340,"радует":6341,"разнообраз":6342,"остров":6343,"скими":6344,"мерз":6345,"ушел":6346,"бия":6347,"верно":6348,"зделать":6349,"скрывать":6350,"называете":6351,"слезы":6352,"одея":6353,"нашу":6354,"лучших":6355,"конфет":6356,"оконча":6357,"нар":6358,"бори":6359,"обстоя":6360,"кош":6361,"детство":6362,"названия":6363,"сварить":6364,"знакомств":6365,"послушать":6366,"берите":6367,"способы":6368,"армии":6369,"джен":6370,"рекоменду":6371,"щенок":6372,"жанр":6373,"приобрести":6374,"жы":6375,"сму":6376,"лечит":6377,"жира":6378,"жила":6379,"большого":6380,"лево":6381,"проз":6382,"презер":6383,"фрукты":6384,"нравлюсь":6385,"сойти":6386,"пинг":6387,"дание":6388,"няка":6389,"проститут":6390,"ливо":6391,"совмести":6392,"стка":6393,"вдох":6394,"настоящей":6395,"чью":6396,"бывший":6397,"бели":6398,"удар":6399,"праздно":6400,"близкие":6401,"решила":6402,"объясните":6403,"замени":6404,"отношусь":6405,"макаро":6406,"справля":6407,"вьте":6408,"вопросом":6409,"одежда":6410,"жим":6411,"ковые":6412,"раста":6413,"дари":6414,"засу":6415,"манчестер":6416,"помой":6417,"могло":6418,"лови":6419,"умом":6420,"действия":6421,"продолжение":6422,"нож":6423,"смех":6424,"птицы":6425,"смешно":6426,"стной":6427,"напоминает":6428,"льности":6429,"парк":6430,"ощущение":6431,"подходя":6432,"детьми":6433,"пытаюсь":6434,"окном":6435,"рёх":6436,"тащить":6437,"пяти":6438,"летают":6439,"клеить":6440,"зоо":6441,"сделает":6442,"берете":6443,"ссылку":6444,"личный":6445,"знания":6446,"последни":6447,"пьет":6448,"завтраш":6449,"надолго":6450,"блондинка":6451,"сказку":6452,"воздух":6453,"пофиг":6454,"волю":6455,"чим":6456,"скольких":6457,"обрет":6458,"четвер":6459,"всякий":6460,"каждое":6461,"выходной":6462,"fi":6463,"повысить":6464,"вышли":6465,"рится":6466,"чувством":6467,"лишний":6468,"поёт":6469,"ванной":6470,"любопыт":6471,"зависть":6472,"серьезно":6473,"блес":6474,"ятся":6475,"ненависть":6476,"уважать":6477,"квадра":6478,"слё":6479,"женскую":6480,"жар":6481,"привычки":6482,"золото":6483,"штука":6484,"лька":6485,"новому":6486,"воспринима":6487,"государ":6488,"оса":6489,"нина":6490,"великий":6491,"тош":6492,"нится":6493,"дыха":6494,"fa":6495,"некоторым":6496,"валить":6497,"евре":6498,"пке":6499,"подарите":6500,"арсенал":6501,"доктор":6502,"мате":6503,"ссии":6504,"ste":6505,"нду":6506,"серви":6507,"чении":6508,"нынеш":6509,"классная":6510,"звезда":6511,"вор":6512,"сергей":6513,"психологически":6514,"прогнозы":6515,"безопасно":6516,"копи":6517,"ногу":6518,"рено":6519,"прочитать":6520,"кус":6521,"курю":6522,"счастливой":6523,"соблазнить":6524,"вовсе":6525,"диета":6526,"приду":6527,"больших":6528,"твоим":6529,"маты":6530,"бым":6531,"пин":6532,"ребенком":6533,"успеш":6534,"песен":6535,"оп":6536,"альным":6537,"диагно":6538,"высту":6539,"ственным":6540,"кори":6541,"руль":6542,"сухо":6543,"поиско":6544,"выйграет":6545,"шся":6546,"дядь":6547,"характери":6548,"браз":6549,"имеете":6550,"спорте":6551,"узи":6552,"поставь":6553,"пам":6554,"тельным":6555,"черная":6556,"красной":6557,"морожен":6558,"взгляда":6559,"льян":6560,"жарить":6561,"мное":6562,"атр":6563,"пришел":6564,"тормо":6565,"зверь":6566,"красоту":6567,"гугл":6568,"тировать":6569,"сыну":6570,"ука":6571,"называет":6572,"выя":6573,"извра":6574,"занятие":6575,"ur":6576,"родной":6577,"долг":6578,"шоу":6579,"мозгов":6580,"форме":6581,"рождаются":6582,"дим":6583,"рынке":6584,"хороша":6585,"читаете":6586,"возрастом":6587,"наступает":6588,"процесс":6589,"нили":6590,"заре":6591,"крутой":6592,"скло":6593,"ошиб":6594,"проси":6595,"белом":6596,"шали":6597,"недостатки":6598,"тером":6599,"заряд":6600,"чих":6601,"терять":6602,"конь":6603,"выгод":6604,"by":6605,"fo":6606,"жным":6607,"ревни":6608,"кача":6609,"мечтает":6610,"мозга":6611,"играю":6612,"конфеты":6613,"рк":6614,"тео":6615,"селе":6616,"сматри":6617,"увы":6618,"услу":6619,"растя":6620,"гита":6621,"природы":6622,"акту":6623,"поймать":6624,"мешь":6625,"чиков":6626,"жалеть":6627,"прием":6628,"слышала":6629,"куку":6630,"приятнее":6631,"ану":6632,"рва":6633,"танцевать":6634,"занять":6635,"зас":6636,"буть":6637,"тормоз":6638,"появляются":6639,"нному":6640,"поцеловать":6641,"покры":6642,"тельной":6643,"истина":6644,"зарабатывать":6645,"умирает":6646,"ел":6647,"жек":6648,"школа":6649,"оправда":6650,"трав":6651,"интересное":6652,"клет":6653,"неа":6654,"тыс":6655,"мечтают":6656,"звезды":6657,"барселона":6658,"шала":6659,"друже":6660,"код":6661,"автомо":6662,"потерял":6663,"эмоциона":6664,"разуме":6665,"годами":6666,"юмор":6667,"лили":6668,"продук":6669,"несчаст":6670,"ловить":6671,"мальчику":6672,"глазки":6673,"целовать":6674,"gh":6675,"внешне":6676,"маслом":6677,"моно":6678,"ктивно":6679,"zh":6680,"ребята":6681,"устал":6682,"нови":6683,"ремон":6684,"марш":6685,"свадьба":6686,"вшие":6687,"нормальное":6688,"храните":6689,"we":6690,"риск":6691,"весен":6692,"простите":6693,"дано":6694,"выклю":6695,"праве":6696,"представляете":6697,"скромность":6698,"покрасить":6699,"лети":6700,"кровати":6701,"dy":6702,"родилась":6703,"слабость":6704,"творо":6705,"семейной":6706,"лое":6707,"ческом":6708,"насчет":6709,"мечтаю":6710,"мультик":6711,"рта":6712,"пее":6713,"чье":6714,"брит":6715,"бабушка":6716,"mne":6717,"торы":6718,"поиграть":6719,"обидеть":6720,"мете":6721,"кожу":6722,"дима":6723,"кавка":6724,"gu":6725,"личное":6726,"бабушки":6727,"вных":6728,"вось":6729,"льки":6730,"лысы":6731,"буква":6732,"едет":6733,"пивом":6734,"посуду":6735,"чужую":6736,"дья":6737,"посмотре":6738,"net":6739,"фразу":6740,"пустить":6741,"браке":6742,"аромат":6743,"увлека":6744,"ci":6745,"гоня":6746,"проводите":6747,"уроки":6748,"бутербро":6749,"сау":6750,"лягу":6751,"старости":6752,"сус":6753,"моём":6754,"хотим":6755,"дерь":6756,"ждают":6757,"родителям":6758,"помидо":6759,"това":6760,"нис":6761,"детки":6762,"op":6763,"эх":6764,"дорогая":6765,"контакте":6766,"нигде":6767,"минет":6768,"пас":6769,"цветом":6770,"фла":6771,"гос":6772,"дека":6773,"прики":6774,"мерседе":6775,"метр":6776,"след":6777,"поняли":6778,"взросло":6779,"пче":6780,"коту":6781,"задума":6782,"саду":6783,"близко":6784,"появился":6785,"костюм":6786,"александр":6787,"дми":6788,"ковый":6789,"кормя":6790,"поступок":6791,"пельмени":6792,"лечится":6793,"пользуюсь":6794,"счас":6795,"пают":6796,"держаться":6797,"ногами":6798,"пова":6799,"лига":6800,"стричь":6801,"жную":6802,"ментов":6803,"фигня":6804,"осенью":6805,"покло":6806,"первых":6807,"беречь":6808,"ист":6809,"ржу":6810,"листья":6811,"sti":6812,"волоса":6813,"процентов":6814,"осторо":6815,"забить":6816,"исправить":6817,"никам":6818,"краска":6819,"колле":6820,"топли":6821,"вак":6822,"отвечает":6823,"важна":6824,"калорий":6825,"уте":6826,"набира":6827,"успеть":6828,"познакомились":6829,"питом":6830,"соблю":6831,"никах":6832,"ливый":6833,"рован":6834,"шикар":6835,"котов":6836,"тради":6837,"спросите":6838,"варень":6839,"судьбы":6840,"пало":6841,"слышу":6842,"забыла":6843,"органи":6844,"паспорт":6845,"вкуснень":6846,"открове":6847,"шве":6848,"лоб":6849,"однокласс":6850,"холодильник":6851,"лучшей":6852,"гладить":6853,"надё":6854,"пош":6855,"побороть":6856,"забыли":6857,"обман":6858,"отече":6859,"нство":6860,"сад":6861,"вязчи":6862,"бою":6863,"прибли":6864,"фотошо":6865,"пытаются":6866,"let":6867,"тельных":6868,"футболиста":6869,"реагируете":6870,"середи":6871,"довести":6872,"употребля":6873,"встать":6874,"урод":6875,"вила":6876,"сайтах":6877,"жж":6878,"шник":6879,"чите":6880,"губ":6881,"ственной":6882,"par":6883,"дря":6884,"стану":6885,"сной":6886,"od":6887,"пак":6888,"связи":6889,"фио":6890,"хочеться":6891,"ять":6892,"принад":6893,"пев":6894,"трудо":6895,"меха":6896,"синг":6897,"летний":6898,"дога":6899,"тили":6900,"мазать":6901,"прийти":6902,"тури":6903,"портит":6904,"esli":6905,"устроить":6906,"литра":6907,"тушь":6908,"ас":6909,"жаться":6910,"тельного":6911,"стями":6912,"фигура":6913,"платят":6914,"черные":6915,"морской":6916,"лера":6917,"короле":6918,"поступ":6919,"собственного":6920,"оны":6921,"ножки":6922,"хвати":6923,"команды":6924,"пробу":6925,"вариантов":6926,"уснуть":6927,"оку":6928,"тд":6929,"нравя":6930,"майоне":6931,"медици":6932,"учеб":6933,"заря":6934,"свекровь":6935,"порту":6936,"огонь":6937,"еру":6938,"эпи":6939,"позволить":6940,"букет":6941,"актриса":6942,"подходят":6943,"засыпа":6944,"вышел":6945,"ницей":6946,"страсти":6947,"поняла":6948,"аршавин":6949,"пад":6950,"женских":6951,"найд":6952,"внешности":6953,"притяги":6954,"шивать":6955,"будите":6956,"ростом":6957,"туфли":6958,"страшное":6959,"белье":6960,"мусор":6961,"худож":6962,"пускай":6963,"убедить":6964,"берешь":6965,"смени":6966,"аптеке":6967,"ночной":6968,"кольцо":6969,"обои":6970,"заинтересо":6971,"онлайн":6972,"скажут":6973,"образование":6974,"тку":6975,"кашу":6976,"телефона":6977,"новогоднюю":6978,"поста":6979,"карты":6980,"пятницу":6981,"вке":6982,"гг":6983,"гети":6984,"мене":6985,"нравишься":6986,"молоде":6987,"сентя":6988,"кнове":6989,"дадут":6990,"речь":6991,"хороши":6992,"весё":6993,"концерт":6994,"гну":6995,"тесто":6996,"терпи":6997,"знакомых":6998,"коньяк":6999,"отзывы":7000,"поде":7001,"онер":7002,"поддер":7003,"девочек":7004,"успели":7005,"ииии":7006,"входит":7007,"топ":7008,"свечи":7009,"развести":7010,"клип":7011,"родила":7012,"остановить":7013,"стики":7014,"одежде":7015,"находиться":7016,"sl":7017,"фили":7018,"рики":7019,"слушай":7020,"брали":7021,"рно":7022,"зрение":7023,"озе":7024,"тт":7025,"дию":7026,"придумайте":7027,"поки":7028,"могла":7029,"выучить":7030,"шею":7031,"имея":7032,"прими":7033,"кефир":7034,"танцу":7035,"хода":7036,"рито":7037,"чусь":7038,"луд":7039,"пряч":7040,"имуще":7041,"почистить":7042,"найдешь":7043,"принцес":7044,"лезть":7045,"печень":7046,"чувстви":7047,"потреб":7048,"ковы":7049,"теа":7050,"кормите":7051,"собаке":7052,"домашний":7053,"украшает":7054,"снегу":7055,"охра":7056,"причём":7057,"легка":7058,"усили":7059,"бух":7060,"кристи":7061,"умной":7062,"уходя":7063,"коре":7064,"потен":7065,"дарит":7066,"резко":7067,"отношению":7068,"почитай":7069,"соси":7070,"укреп":7071,"чили":7072,"сложный":7073,"виды":7074,"рыв":7075,"литров":7076,"дворе":7077,"картинки":7078,"ющая":7079,"пога":7080,"число":7081,"собесе":7082,"участ":7083,"фантазии":7084,"реклама":7085,"wo":7086,"ровы":7087,"прине":7088,"половину":7089,"йа":7090,"щики":7091,"киев":7092,"даешь":7093,"районе":7094,"зависимость":7095,"фоль":7096,"чьей":7097,"берегу":7098,"спя":7099,"поверить":7100,"мес":7101,"встрече":7102,"идеал":7103,"подойдёт":7104,"отомстить":7105,"апре":7106,"ждёт":7107,"мони":7108,"замужем":7109,"стры":7110,"прелесть":7111,"английский":7112,"уходить":7113,"лежать":7114,"бесконечно":7115,"домашнее":7116,"держится":7117,"египет":7118,"зажига":7119,"нафига":7120,"ответьте":7121,"стандарт":7122,"емые":7123,"зови":7124,"хозяин":7125,"решения":7126,"детском":7127,"ценить":7128,"гран":7129,"локомо":7130,"вдохно":7131,"руси":7132,"наличие":7133,"fe":7134,"дух":7135,"отвра":7136,"занимаюсь":7137,"бьют":7138,"уверены":7139,"управлять":7140,"прошла":7141,"гаран":7142,"вляете":7143,"минуты":7144,"мороженое":7145,"появились":7146,"трёх":7147,"избе":7148,"поступить":7149,"каму":7150,"недостаток":7151,"индивиду":7152,"голь":7153,"немножко":7154,"або":7155,"основа":7156,"получилось":7157,"живешь":7158,"однако":7159,"ями":7160,"зале":7161,"читы":7162,"паете":7163,"воспитать":7164,"связь":7165,"белого":7166,"фотографии":7167,"дора":7168,"отца":7169,"вкусные":7170,"съездить":7171,"говоришь":7172,"любовница":7173,"щины":7174,"хрень":7175,"страшные":7176,"егип":7177,"дизе":7178,"литься":7179,"ставлю":7180,"команду":7181,"деби":7182,"видом":7183,"салон":7184,"описа":7185,"горы":7186,"февраля":7187,"попе":7188,"бывало":7189,"халя":7190,"матча":7191,"приятные":7192,"стрей":7193,"горит":7194,"согре":7195,"пал":7196,"судить":7197,"истории":7198,"пота":7199,"кроко":7200,"бизне":7201,"кататься":7202,"германии":7203,"буха":7204,"общем":7205,"крой":7206,"считаешь":7207,"кают":7208,"седня":7209,"зова":7210,"животным":7211,"счастливые":7212,"бег":7213,"родные":7214,"медленно":7215,"творчество":7216,"потратить":7217,"сках":7218,"говорил":7219,"поищи":7220,"деревя":7221,"унита":7222,"белой":7223,"слю":7224,"захочет":7225,"страции":7226,"строи":7227,"курсе":7228,"солнышко":7229,"врут":7230,"ляют":7231,"стиму":7232,"наверняка":7233,"решили":7234,"певица":7235,"крутить":7236,"контра":7237,"последствия":7238,"матом":7239,"твоему":7240,"дник":7241,"агент":7242,"носу":7243,"номера":7244,"мотор":7245,"никами":7246,"маленьких":7247,"землю":7248,"картофе":7249,"zna":7250,"отте":7251,"дится":7252,"самостоя":7253,"культур":7254,"долба":7255,"sta":7256,"попугай":7257,"центре":7258,"одинаково":7259,"sko":7260,"коры":7261,"зает":7262,"викто":7263,"покажите":7264,"капита":7265,"удиви":7266,"вк":7267,"сфе":7268,"неу":7269,"гламур":7270,"подойти":7271,"наду":7272,"стите":7273,"употреблять":7274,"устала":7275,"гора":7276,"чую":7277,"чемпион":7278,"гель":7279,"трена":7280,"почка":7281,"мала":7282,"виш":7283,"размно":7284,"деревь":7285,"выбирают":7286,"ввиду":7287,"поют":7288,"большом":7289,"турции":7290,"максима":7291,"подло":7292,"ненависти":7293,"предпочитают":7294,"мучает":7295,"хан":7296,"жали":7297,"ссан":7298,"all":7299,"дама":7300,"подар":7301,"чии":7302,"баль":7303,"пьяный":7304,"прикольный":7305,"сахара":7306,"энергети":7307,"нала":7308,"соеди":7309,"стого":7310,"лучшего":7311,"зени":7312,"тяжё":7313,"русском":7314,"малыш":7315,"телевизор":7316,"пришло":7317,"обид":7318,"шники":7319,"понимаешь":7320,"ью":7321,"допол":7322,"просят":7323,"сце":7324,"будущем":7325,"мороза":7326,"засо":7327,"развод":7328,"авгу":7329,"тратите":7330,"нках":7331,"найду":7332,"хлеба":7333,"почи":7334,"сорт":7335,"дность":7336,"плевать":7337,"философ":7338,"поесть":7339,"ресни":7340,"ran":7341,"рена":7342,"бавари":7343,"красные":7344,"времена":7345,"вклады":7346,"гию":7347,"метра":7348,"доброта":7349,"вру":7350,"слегка":7351,"видать":7352,"чиком":7353,"фик":7354,"фия":7355,"нормальных":7356,"молодым":7357,"проект":7358,"рождается":7359,"чными":7360,"допусти":7361,"живой":7362,"хуй":7363,"молоком":7364,"комплимент":7365,"апель":7366,"поменьше":7367,"кошке":7368,"разить":7369,"россию":7370,"реальность":7371,"хл":7372,"вызывают":7373,"пускать":7374,"звук":7375,"ангел":7376,"плохих":7377,"руй":7378,"игно":7379,"сзади":7380,"шоб":7381,"цара":7382,"земли":7383,"наступит":7384,"кала":7385,"падают":7386,"перевести":7387,"бокс":7388,"поздравляю":7389,"сажать":7390,"обоих":7391,"хорошему":7392,"подругу":7393,"морально":7394,"факт":7395,"ценят":7396,"настолько":7397,"ненуж":7398,"небес":7399,"преду":7400,"выращи":7401,"красное":7402,"двигателя":7403,"годов":7404,"чистой":7405,"мян":7406,"молока":7407,"разницы":7408,"жаете":7409,"возник":7410,"проекте":7411,"рат":7412,"разлюбить":7413,"помнит":7414,"посыла":7415,"дочку":7416,"жечь":7417,"делается":7418,"читай":7419,"единственный":7420,"резать":7421,"зайти":7422,"изу":7423,"забеременеть":7424,"судьбу":7425,"бюдж":7426,"зарубе":7427,"оборо":7428,"набор":7429,"косметика":7430,"недорого":7431,"добрых":7432,"интересная":7433,"чур":7434,"походу":7435,"встречали":7436,"вставать":7437,"шается":7438,"хами":7439,"учитель":7440,"поведение":7441,"беременна":7442,"болеет":7443,"лла":7444,"дева":7445,"цах":7446,"ею":7447,"магни":7448,"зации":7449,"служ":7450,"лошади":7451,"уны":7452,"бываете":7453,"дин":7454,"щина":7455,"yota":7456,"расто":7457,"книг":7458,"занятся":7459,"важное":7460,"стараться":7461,"дея":7462,"чивает":7463,"пик":7464,"говор":7465,"токо":7466,"моги":7467,"которыми":7468,"ребят":7469,"странные":7470,"король":7471,"теряет":7472,"мэ":7473,"зация":7474,"логу":7475,"станешь":7476,"комедии":7477,"холодильнике":7478,"влю":7479,"сереб":7480,"собчак":7481,"нормального":7482,"проводить":7483,"det":7484,"ини":7485,"дном":7486,"хрена":7487,"son":7488,"ретесь":7489,"греть":7490,"опыта":7491,"принято":7492,"иван":7493,"укре":7494,"музыкальные":7495,"бывшего":7496,"лука":7497,"крите":7498,"завет":7499,"зала":7500,"думайте":7501,"декс":7502,"изменять":7503,"преодоле":7504,"сердцем":7505,"грызть":7506,"бота":7507,"чип":7508,"стойчи":7509,"британ":7510,"курт":7511,"воспоминания":7512,"завоевать":7513,"аген":7514,"пони":7515,"сеть":7516,"числе":7517,"подда":7518,"мятся":7519,"мужчинами":7520,"токи":7521,"быто":7522,"буди":7523,"преды":7524,"машин":7525,"жизненный":7526,"фамилию":7527,"быстрей":7528,"отдавать":7529,"всякую":7530,"kako":7531,"категори":7532,"овощи":7533,"поза":7534,"месть":7535,"самооце":7536,"смесь":7537,"ленная":7538,"способно":7539,"попыт":7540,"лох":7541,"каждым":7542,"везёт":7543,"уничто":7544,"подарил":7545,"крым":7546,"аппетит":7547,"огро":7548,"бросила":7549,"холодный":7550,"расстаться":7551,"знал":7552,"алка":7553,"подряд":7554,"позвонить":7555,"пускает":7556,"памяти":7557,"справиться":7558,"управ":7559,"ливер":7560,"лицу":7561,"вах":7562,"худы":7563,"девки":7564,"состав":7565,"розовые":7566,"пост":7567,"пусты":7568,"офиге":7569,"стенько":7570,"смотришь":7571,"добрая":7572,"im":7573,"шы":7574,"хол":7575,"жару":7576,"суши":7577,"дружбы":7578,"крепче":7579,"циф":7580,"андрей":7581,"еба":7582,"боло":7583,"дизай":7584,"скинуть":7585,"рассу":7586,"обнима":7587,"hot":7588,"глубоко":7589,"аэро":7590,"поверь":7591,"диско":7592,"трол":7593,"вредные":7594,"игрушки":7595,"здравствуйте":7596,"чле":7597,"ране":7598,"остался":7599,"болею":7600,"барса":7601,"прекрасное":7602,"зан":7603,"кула":7604,"милан":7605,"понравилась":7606,"зве":7607,"плом":7608,"ственного":7609,"боретесь":7610,"сука":7611,"блоки":7612,"тором":7613,"зат":7614,"пугает":7615,"собирать":7616,"tak":7617,"предел":7618,"предста":7619,"удержать":7620,"прошел":7621,"выпуск":7622,"лоп":7623,"марк":7624,"ll":7625,"але":7626,"ив":7627,"врачи":7628,"смотрела":7629,"нежность":7630,"курит":7631,"пиц":7632,"низм":7633,"отказыва":7634,"предыду":7635,"гвоз":7636,"чте":7637,"мамой":7638,"жарко":7639,"твоём":7640,"минуту":7641,"несет":7642,"жник":7643,"наря":7644,"родных":7645,"свидете":7646,"появится":7647,"чужого":7648,"обмануть":7649,"устроиться":7650,"наказание":7651,"вн":7652,"учат":7653,"неделе":7654,"избежать":7655,"обыкнове":7656,"чков":7657,"чом":7658,"силой":7659,"града":7660,"заблу":7661,"понимания":7662,"появилась":7663,"кен":7664,"класса":7665,"обозна":7666,"сравне":7667,"am":7668,"позе":7669,"собрать":7670,"тишь":7671,"стань":7672,"легкий":7673,"серия":7674,"пытаться":7675,"смешной":7676,"ище":7677,"поти":7678,"заки":7679,"миром":7680,"помогать":7681,"молодого":7682,"наращи":7683,"будит":7684,"жопа":7685,"vs":7686,"муз":7687,"отвлека":7688,"днев":7689,"приш":7690,"российский":7691,"шат":7692,"лучшую":7693,"трогать":7694,"рованный":7695,"столе":7696,"распро":7697,"слышали":7698,"бл":7699,"поля":7700,"жное":7701,"будущего":7702,"холодной":7703,"настоящих":7704,"ур":7705,"шти":7706,"лиги":7707,"возмож":7708,"странах":7709,"пыль":7710,"пойдёт":7711,"бьёт":7712,"половина":7713,"мечтаете":7714,"сладкий":7715,"раздражают":7716,"задают":7717,"била":7718,"центра":7719,"участи":7720,"впечатление":7721,"приключения":7722,"хим":7723,"смеяться":7724,"любовник":7725,"пух":7726,"воспитывать":7727,"произошло":7728,"прика":7729,"toyota":7730,"русской":7731,"толку":7732,"тал":7733,"поспать":7734,"пугать":7735,"ждёте":7736,"доказа":7737,"манья":7738,"оттуда":7739,"впечатления":7740,"валь":7741,"спир":7742,"отель":7743,"отправить":7744,"сериалы":7745,"оружие":7746,"ос":7747,"меняете":7748,"гриб":7749,"логика":7750,"иро":7751,"узнаете":7752,"лимон":7753,"подальше":7754,"справ":7755,"учит":7756,"зало":7757,"создал":7758,"напол":7759,"отвер":7760,"загадо":7761,"kin":7762,"кама":7763,"кастри":7764,"куплю":7765,"спорить":7766,"начальник":7767,"канику":7768,"девушками":7769,"правильное":7770,"попроси":7771,"ani":7772,"ошибок":7773,"qu":7774,"коля":7775,"мами":7776,"думали":7777,"сексуальный":7778,"ленин":7779,"кавказ":7780,"ришь":7781,"фици":7782,"получает":7783,"букв":7784,"ровали":7785,"моете":7786,"чил":7787,"сквозь":7788,"распознать":7789,"ревнует":7790,"специа":7791,"бага":7792,"деревне":7793,"растёт":7794,"заметно":7795,"звере":7796,"ковой":7797,"гается":7798,"мане":7799,"руби":7800,"гала":7801,"обращать":7802,"тойота":7803,"каи":7804,"чений":7805,"sha":7806,"посвя":7807,"завя":7808,"вешу":7809,"сток":7810,"бура":7811,"обратиться":7812,"нравяться":7813,"снега":7814,"сладкая":7815,"появилось":7816,"чистая":7817,"обли":7818,"причину":7819,"реже":7820,"вицы":7821,"гие":7822,"высокие":7823,"ревновать":7824,"ладо":7825,"находите":7826,"украина":7827,"испания":7828,"инструк":7829,"нато":7830,"зами":7831,"стаби":7832,"eni":7833,"белое":7834,"варианты":7835,"оказаться":7836,"dd":7837,"тепла":7838,"жество":7839,"вел":7840,"житься":7841,"деньгами":7842,"знакомые":7843,"лова":7844,"сокра":7845,"врача":7846,"историю":7847,"ченко":7848,"путин":7849,"пойд":7850,"обидно":7851,"спорти":7852,"праздновать":7853,"почку":7854,"квартиры":7855,"салоне":7856,"лжи":7857,"хз":7858,"ноя":7859,"погулять":7860,"чут":7861,"тяжелее":7862,"тную":7863,"театр":7864,"курсы":7865,"запол":7866,"займись":7867,"щет":7868,"навязчи":7869,"познать":7870,"выходят":7871,"каби":7872,"ниться":7873,"пило":7874,"одевать":7875,"классе":7876,"бова":7877,"пасса":7878,"евровиде":7879,"располо":7880,"миру":7881,"бабки":7882,"общи":7883,"подка":7884,"красную":7885,"raz":7886,"скрыть":7887,"питание":7888,"tu":7889,"сжи":7890,"вообра":7891,"всту":7892,"плен":7893,"ногах":7894,"вредит":7895,"тивная":7896,"порядке":7897,"сухой":7898,"помыть":7899,"ратор":7900,"дум":7901,"месяце":7902,"тачка":7903,"чали":7904,"читали":7905,"готови":7906,"частенько":7907,"одних":7908,"тём":7909,"вики":7910,"занимались":7911,"вкусная":7912,"пальцы":7913,"оле":7914,"зик":7915,"худеть":7916,"смотрится":7917,"болезни":7918,"билеты":7919,"презервати":7920,"выигры":7921,"половой":7922,"подобие":7923,"кона":7924,"продолжать":7925,"звонит":7926,"кирпи":7927,"дачу":7928,"ственном":7929,"оправды":7930,"ия":7931,"поту":7932,"колеса":7933,"дови":7934,"шевро":7935,"смотр":7936,"кругом":7937,"обруча":7938,"сходите":7939,"месячные":7940,"чаем":7941,"kogda":7942,"чужое":7943,"беременным":7944,"африке":7945,"меняют":7946,"показывает":7947,"блины":7948,"клин":7949,"виртуальный":7950,"испытываете":7951,"заработа":7952,"провер":7953,"безразли":7954,"зубов":7955,"нись":7956,"правил":7957,"друзьям":7958,"снить":7959,"стки":7960,"забира":7961,"зию":7962,"угол":7963,"кусочек":7964,"локомотив":7965,"нечем":7966,"дами":7967,"готовит":7968,"обитае":7969,"пытается":7970,"германия":7971,"инет":7972,"запомина":7973,"ежедне":7974,"тного":7975,"перепи":7976,"встречаются":7977,"покупаю":7978,"закрыть":7979,"чистого":7980,"крайне":7981,"сбе":7982,"акте":7983,"поис":7984,"измеряется":7985,"тараканы":7986,"своло":7987,"чеш":7988,"куби":7989,"der":7990,"палец":7991,"гине":7992,"жкой":7993,"идете":7994,"похоро":7995,"девя":7996,"маска":7997,"мотоцикл":7998,"автомобили":7999,"ог":8000,"ломать":8001,"руке":8002,"черное":8003,"становиться":8004,"bit":8005,"приятных":8006,"максим":8007,"бург":8008,"макароны":8009,"рыми":8010,"жала":8011,"планет":8012,"родиться":8013,"памятник":8014,"авата":8015,"маг":8016,"берется":8017,"подскажет":8018,"колоть":8019,"отвечают":8020,"помнишь":8021,"вдво":8022,"посо":8023,"нибуть":8024,"диету":8025,"классные":8026,"подойдут":8027,"дент":8028,"грубо":8029,"используете":8030,"жара":8031,"тельности":8032,"знакомство":8033,"европей":8034,"хде":8035,"ведро":8036,"патри":8037,"знаем":8038,"чужим":8039,"льными":8040,"дочки":8041,"спон":8042,"пойдем":8043,"торго":8044,"названием":8045,"ненавидеть":8046,"лошадь":8047,"клы":8048,"сал":8049,"пата":8050,"сначало":8051,"угро":8052,"канеш":8053,"модели":8054,"зану":8055,"первому":8056,"клубе":8057,"комнате":8058,"расстояние":8059,"увле":8060,"жик":8061,"черного":8062,"лём":8063,"некогда":8064,"женятся":8065,"мерседес":8066,"фее":8067,"развлека":8068,"держите":8069,"мал":8070,"сию":8071,"летней":8072,"намекнуть":8073,"тира":8074,"переводится":8075,"ina":8076,"колго":8077,"живется":8078,"ny":8079,"осу":8080,"лигу":8081,"затем":8082,"привяза":8083,"функ":8084,"рур":8085,"миф":8086,"спал":8087,"полезна":8088,"привлекают":8089,"ходила":8090,"бутылку":8091,"така":8092,"шины":8093,"шало":8094,"чудеса":8095,"сде":8096,"справа":8097,"горячий":8098,"аллергия":8099,"поиске":8100,"лия":8101,"позже":8102,"октя":8103,"обрета":8104,"уско":8105,"жном":8106,"хищ":8107,"психолог":8108,"тация":8109,"няется":8110,"миха":8111,"бухать":8112,"перестал":8113,"кажу":8114,"moj":8115,"коммента":8116,"интересную":8117,"волни":8118,"производ":8119,"успокоить":8120,"wh":8121,"конфли":8122,"кайф":8123,"телевизо":8124,"ког":8125,"чаше":8126,"счастью":8127,"тиру":8128,"гари":8129,"остальных":8130,"бассей":8131,"варя":8132,"рое":8133,"целую":8134,"окружающих":8135,"десят":8136,"канал":8137,"пай":8138,"поход":8139,"полезны":8140,"шокола":8141,"ругаться":8142,"сибир":8143,"приводят":8144,"вме":8145,"зают":8146,"масте":8147,"киа":8148,"сборную":8149,"тень":8150,"решает":8151,"здорово":8152,"отпустить":8153,"емый":8154,"сели":8155,"сити":8156,"избавля":8157,"удобнее":8158,"футболистов":8159,"зелёный":8160,"субботу":8161,"vu":8162,"станете":8163,"балу":8164,"обмен":8165,"сур":8166,"грей":8167,"борода":8168,"взаимная":8169,"газо":8170,"жность":8171,"вырастить":8172,"продаются":8173,"цвето":8174,"билан":8175,"выглядят":8176,"глю":8177,"тных":8178,"неприятно":8179,"кучу":8180,"краски":8181,"стекло":8182,"скет":8183,"женщинами":8184,"удается":8185,"подругой":8186,"выбираете":8187,"тс":8188,"парик":8189,"насто":8190,"алкоголи":8191,"дочери":8192,"поклон":8193,"лч":8194,"побыть":8195,"диете":8196,"ненавидят":8197,"залить":8198,"гип":8199,"ze":8200,"фло":8201,"каприз":8202,"ляция":8203,"мила":8204,"одиночества":8205,"позволяете":8206,"вины":8207,"диван":8208,"нях":8209,"стрижка":8210,"продается":8211,"быстрый":8212,"прошлой":8213,"искренность":8214,"вани":8215,"валю":8216,"позвони":8217,"лезут":8218,"коктей":8219,"обойти":8220,"огурцы":8221,"тута":8222,"чьих":8223,"способом":8224,"малыша":8225,"находятся":8226,"сну":8227,"ld":8228,"агресси":8229,"мч":8230,"ливые":8231,"ниссан":8232,"занятия":8233,"комплименты":8234,"шум":8235,"возрасты":8236,"бывших":8237,"возбуждает":8238,"интуиция":8239,"говно":8240,"тренер":8241,"килограмм":8242,"младше":8243,"пали":8244,"встретили":8245,"вкусного":8246,"футболе":8247,"источник":8248,"идите":8249,"насы":8250,"носа":8251,"утвер":8252,"пойму":8253,"капли":8254,"приба":8255,"стику":8256,"фирма":8257,"штук":8258,"vy":8259,"ремень":8260,"разделе":8261,"гад":8262,"ваясь":8263,"удалось":8264,"женится":8265,"мил":8266,"найдет":8267,"летает":8268,"поехали":8269,"отражение":8270,"коф":8271,"дире":8272,"ктом":8273,"шир":8274,"туал":8275,"симп":8276,"установить":8277,"ватся":8278,"плавать":8279,"горды":8280,"внезап":8281,"сексуальная":8282,"звонок":8283,"очередной":8284,"зываю":8285,"беспоко":8286,"глупых":8287,"разочарова":8288,"брал":8289,"тельную":8290,"уверенности":8291,"сбер":8292,"правой":8293,"худо":8294,"онов":8295,"звонить":8296,"купаться":8297,"сче":8298,"сгу":8299,"счё":8300,"дах":8301,"любимом":8302,"девчё":8303,"сезоне":8304,"кусок":8305,"няться":8306,"начинаете":8307,"тп":8308,"шный":8309,"даж":8310,"отклады":8311,"плачет":8312,"нео":8313,"слуши":8314,"почаще":8315,"гостей":8316,"составля":8317,"дности":8318,"служе":8319,"хирур":8320,"чудес":8321,"met":8322,"непоня":8323,"перё":8324,"желудок":8325,"котёнка":8326,"дышать":8327,"говя":8328,"развра":8329,"гадость":8330,"дураки":8331,"хватило":8332,"lko":8333,"овся":8334,"хла":8335,"надеть":8336,"боги":8337,"молчит":8338,"стены":8339,"полоса":8340,"длинный":8341,"сознание":8342,"zi":8343,"диване":8344,"вным":8345,"огля":8346,"мешать":8347,"краску":8348,"перевод":8349,"танцы":8350,"романтический":8351,"чемпионов":8352,"рты":8353,"устало":8354,"неф":8355,"выпе":8356,"преимуще":8357,"полезнее":8358,"карту":8359,"попал":8360,"получил":8361,"призы":8362,"система":8363,"герои":8364,"клё":8365,"ьь":8366,"личная":8367,"машинка":8368,"европе":8369,"успокаи":8370,"зана":8371,"отдам":8372,"минера":8373,"словах":8374,"опасен":8375,"соседей":8376,"даром":8377,"папу":8378,"стену":8379,"строго":8380,"правит":8381,"половинка":8382,"насеко":8383,"каба":8384,"сека":8385,"бус":8386,"имеется":8387,"исполните":8388,"служеб":8389,"мёт":8390,"выр":8391,"мега":8392,"пригоди":8393,"начинаешь":8394,"бюджет":8395,"инициа":8396,"кап":8397,"тяга":8398,"восстано":8399,"пирсинг":8400,"сение":8401,"вене":8402,"шель":8403,"общении":8404,"отличная":8405,"сильней":8406,"сроке":8407,"праздники":8408,"дмитри":8409,"пел":8410,"станут":8411,"меняю":8412,"страдать":8413,"щается":8414,"волк":8415,"убил":8416,"як":8417,"тают":8418,"ноль":8419,"любых":8420,"ууу":8421,"шашлык":8422,"укро":8423,"пятна":8424,"стрипти":8425,"восхи":8426,"шампанское":8427,"непре":8428,"выспа":8429,"планете":8430,"студен":8431,"близо":8432,"встречались":8433,"финансо":8434,"выжить":8435,"скле":8436,"учились":8437,"погоду":8438,"пояс":8439,"роналду":8440,"тошнит":8441,"придумы":8442,"желает":8443,"ad":8444,"забил":8445,"везти":8446,"прыгнуть":8447,"тел":8448,"зама":8449,"сканда":8450,"черты":8451,"отры":8452,"отсюда":8453,"маленькой":8454,"письмо":8455,"олимпий":8456,"ане":8457,"вр":8458,"мель":8459,"бела":8460,"кей":8461,"оргазм":8462,"склады":8463,"некуда":8464,"почувствовать":8465,"обви":8466,"скиньте":8467,"белых":8468,"летнего":8469,"компом":8470,"анна":8471,"фотке":8472,"количества":8473,"стесняюсь":8474,"ber":8475,"дении":8476,"совести":8477,"слева":8478,"граждан":8479,"камень":8480,"мясом":8481,"скучать":8482,"ездил":8483,"ошибка":8484,"дурац":8485,"вшего":8486,"нётся":8487,"сдавать":8488,"делала":8489,"фабри":8490,"принц":8491,"надоели":8492,"флирт":8493,"президен":8494,"est":8495,"теми":8496,"трам":8497,"слабые":8498,"спец":8499,"попугая":8500,"sch":8501,"экра":8502,"тени":8503,"процент":8504,"выходных":8505,"прошлого":8506,"сотру":8507,"заб":8508,"рецепты":8509,"сенье":8510,"узнали":8511,"ed":8512,"попить":8513,"поиск":8514,"робе":8515,"реальный":8516,"мяч":8517,"серге":8518,"дураков":8519,"местах":8520,"шпа":8521,"необитае":8522,"имеешь":8523,"показывают":8524,"связано":8525,"bla":8526,"гнали":8527,"нн":8528,"всякой":8529,"реальной":8530,"власть":8531,"футболисты":8532,"очереди":8533,"учителя":8534,"ty":8535,"знь":8536,"замок":8537,"лицом":8538,"красавица":8539,"водятся":8540,"гэ":8541,"захва":8542,"веди":8543,"сою":8544,"пары":8545,"зимне":8546,"парке":8547,"каждые":8548,"сути":8549,"использо":8550,"трой":8551,"повлия":8552,"моти":8553,"вопросе":8554,"втором":8555,"чувствуют":8556,"терпения":8557,"психологический":8558,"дерьмо":8559,"уез":8560,"высокий":8561,"баш":8562,"воспитание":8563,"резину":8564,"sya":8565,"колы":8566,"старой":8567,"церко":8568,"формы":8569,"выраст":8570,"звезд":8571,"серьезные":8572,"сумму":8573,"ложиться":8574,"обстоятельства":8575,"позо":8576,"синий":8577,"признакам":8578,"поделиться":8579,"сара":8580,"писал":8581,"ногтей":8582,"виртуальная":8583,"десять":8584,"читься":8585,"дуры":8586,"молодости":8587,"языка":8588,"ужо":8589,"пообщаться":8590,"ммм":8591,"ласка":8592,"представить":8593,"ждешь":8594,"святого":8595,"завод":8596,"хари":8597,"болель":8598,"тюрь":8599,"грязь":8600,"ссу":8601,"козе":8602,"избы":8603,"консуль":8604,"остаётся":8605,"трое":8606,"уважаю":8607,"современные":8608,"прическа":8609,"макияж":8610,"осе":8611,"черт":8612,"выиграл":8613,"инже":8614,"расход":8615,"играла":8616,"отказать":8617,"выборе":8618,"наси":8619,"тации":8620,"пачи":8621,"альное":8622,"сплет":8623,"xo":8624,"биат":8625,"делаем":8626,"общество":8627,"символ":8628,"непри":8629,"роды":8630,"декора":8631,"красав":8632,"каша":8633,"школы":8634,"стям":8635,"оооооооо":8636,"зубной":8637,"почем":8638,"годом":8639,"ответственность":8640,"дню":8641,"етен":8642,"причин":8643,"регулярно":8644,"бавария":8645,"продавать":8646,"баню":8647,"близким":8648,"поднимает":8649,"родо":8650,"вспомни":8651,"кта":8652,"умного":8653,"кад":8654,"саму":8655,"баскет":8656,"способность":8657,"третьего":8658,"градусов":8659,"ванию":8660,"забей":8661,"выбирает":8662,"американский":8663,"выпей":8664,"теку":8665,"лочку":8666,"скажешь":8667,"самих":8668,"инстинкт":8669,"злая":8670,"стря":8671,"прио":8672,"банка":8673,"стере":8674,"ориен":8675,"муже":8676,"шеп":8677,"улучшить":8678,"истери":8679,"нарисовать":8680,"знание":8681,"диск":8682,"гений":8683,"крос":8684,"богат":8685,"навеяло":8686,"ься":8687,"чному":8688,"ходим":8689,"фоне":8690,"яблоки":8691,"жутко":8692,"ковая":8693,"мочки":8694,"вение":8695,"бек":8696,"луста":8697,"брака":8698,"осталась":8699,"играете":8700,"por":8701,"тёп":8702,"уверена":8703,"свадьбе":8704,"момента":8705,"случается":8706,"слабый":8707,"половинку":8708,"анализ":8709,"вшую":8710,"плод":8711,"помидоры":8712,"дера":8713,"няете":8714,"золотая":8715,"жалость":8716,"фиолето":8717,"уша":8718,"сомнения":8719,"расстоянии":8720,"ато":8721,"еле":8722,"лимит":8723,"доль":8724,"одически":8725,"реп":8726,"стади":8727,"альбо":8728,"всякое":8729,"лишние":8730,"программу":8731,"одет":8732,"ночка":8733,"дочке":8734,"лету":8735,"апельси":8736,"описать":8737,"соста":8738,"обло":8739,"позитив":8740,"прекрасный":8741,"курорт":8742,"вечная":8743,"утю":8744,"тельны":8745,"слить":8746,"солнца":8747,"иж":8748,"увиде":8749,"ёё":8750,"текст":8751,"гугле":8752,"умы":8753,"талки":8754,"сова":8755,"впа":8756,"чт":8757,"раб":8758,"загру":8759,"дис":8760,"ньку":8761,"помог":8762,"любители":8763,"бритни":8764,"шевроле":8765,"вечный":8766,"препара":8767,"гене":8768,"последней":8769,"супруже":8770,"подчи":8771,"стеть":8772,"овощ":8773,"vit":8774,"отвечу":8775,"богатый":8776,"лишних":8777,"помимо":8778,"воскресенье":8779,"каме":8780,"ответе":8781,"стомато":8782,"взрослых":8783,"сные":8784,"выда":8785,"пешком":8786,"пуще":8787,"ждем":8788,"маленького":8789,"изменил":8790,"некому":8791,"прось":8792,"путать":8793,"брось":8794,"принимаете":8795,"нижнее":8796,"реальные":8797,"сумас":8798,"мужикам":8799,"морков":8800,"аве":8801,"бывали":8802,"приру":8803,"пришлось":8804,"нужное":8805,"брата":8806,"вкусом":8807,"братья":8808,"состояния":8809,"профи":8810,"старе":8811,"худе":8812,"спишь":8813,"статус":8814,"слез":8815,"потеряла":8816,"центр":8817,"независи":8818,"кипя":8819,"полезное":8820,"велосипед":8821,"ящик":8822,"рока":8823,"сломать":8824,"дорог":8825,"мета":8826,"тяжелый":8827,"дешево":8828,"кошмар":8829,"перёд":8830,"нашим":8831,"диски":8832,"влияют":8833,"шаться":8834,"поймешь":8835,"мульти":8836,"смешные":8837,"плачут":8838,"леге":8839,"альтер":8840,"плохим":8841,"хнет":8842,"капель":8843,"граф":8844,"красит":8845,"пости":8846,"река":8847,"маник":8848,"просту":8849,"веса":8850,"измены":8851,"сладкого":8852,"wi":8853,"чивый":8854,"стату":8855,"джасти":8856,"ska":8857,"вход":8858,"лении":8859,"старых":8860,"сущ":8861,"предска":8862,"личность":8863,"семена":8864,"сдержи":8865,"неправильно":8866,"част":8867,"бью":8868,"психология":8869,"египте":8870,"ела":8871,"перспе":8872,"смогла":8873,"набери":8874,"рочка":8875,"цвету":8876,"позити":8877,"ssan":8878,"поговори":8879,"чужая":8880,"посет":8881,"полтора":8882,"обязан":8883,"семейные":8884,"разобраться":8885,"посме":8886,"анжи":8887,"армию":8888,"чны":8889,"находят":8890,"ченный":8891,"придёт":8892,"языком":8893,"мальчиков":8894,"романтика":8895,"пройдёт":8896,"lan":8897,"гори":8898,"знали":8899,"безопас":8900,"зеркале":8901,"выхода":8902,"вло":8903,"опель":8904,"продаже":8905,"мия":8906,"серьезных":8907,"хнуть":8908,"выиграть":8909,"стон":8910,"такому":8911,"категорию":8912,"животе":8913,"произведения":8914,"уменьшить":8915,"зда":8916,"веры":8917,"вике":8918,"стане":8919,"бросать":8920,"спасет":8921,"узнаю":8922,"устали":8923,"литр":8924,"спортсме":8925,"сладких":8926,"уйдет":8927,"джонни":8928,"настоящим":8929,"радостью":8930,"борьба":8931,"подать":8932,"психо":8933,"свидания":8934,"выкинуть":8935,"нехва":8936,"нинг":8937,"девиз":8938,"переспать":8939,"грусть":8940,"крыша":8941,"картинке":8942,"симпатичная":8943,"пожелать":8944,"ваешься":8945,"верные":8946,"инопланет":8947,"серьезный":8948,"требуется":8949,"аф":8950,"века":8951,"скар":8952,"идеи":8953,"мечтали":8954,"наступа":8955,"оказывается":8956,"льнее":8957,"застави":8958,"причё":8959,"тык":8960,"ванну":8961,"шутки":8962,"гинеколо":8963,"gde":8964,"jo":8965,"банки":8966,"перейти":8967,"любящий":8968,"начнут":8969,"мгно":8970,"коня":8971,"маску":8972,"мадри":8973,"владимир":8974,"придётся":8975,"зри":8976,"притво":8977,"ванием":8978,"москви":8979,"вратарь":8980,"нарисо":8981,"теме":8982,"куз":8983,"бега":8984,"паре":8985,"чушь":8986,"дятся":8987,"книжку":8988,"сильное":8989,"психологии":8990,"енто":8991,"сото":8992,"тию":8993,"изю":8994,"близкого":8995,"аре":8996,"ась":8997,"цел":8998,"фору":8999,"полете":9000,"ent":9001,"основные":9002,"фантазия":9003,"аккуму":9004,"ворачи":9005,"зах":9006,"обно":9007,"браться":9008,"родина":9009,"груст":9010,"пожарить":9011,"назови":9012,"рассказывать":9013,"каникулы":9014,"дна":9015,"матер":9016,"родная":9017,"привык":9018,"каран":9019,"ничё":9020,"опасна":9021,"майкл":9022,"шансов":9023,"короткий":9024,"проигры":9025,"рыбки":9026,"балан":9027,"получаете":9028,"новогодние":9029,"короткие":9030,"табли":9031,"сино":9032,"симпоти":9033,"владель":9034,"получишь":9035,"финале":9036,"слёзы":9037,"очистить":9038,"сопли":9039,"щину":9040,"дважды":9041,"полноце":9042,"сюрприз":9043,"ничать":9044,"нормальную":9045,"ati":9046,"лечиться":9047,"покоя":9048,"яро":9049,"нишь":9050,"девать":9051,"каналу":9052,"сидишь":9053,"напитки":9054,"вверх":9055,"мели":9056,"документы":9057,"пипец":9058,"царь":9059,"воспиты":9060,"йорк":9061,"катери":9062,"провели":9063,"живают":9064,"скай":9065,"зывали":9066,"удачно":9067,"мопе":9068,"имся":9069,"трене":9070,"логия":9071,"калина":9072,"превращается":9073,"скажем":9074,"морская":9075,"выбора":9076,"замер":9077,"писали":9078,"картинку":9079,"вредны":9080,"vam":9081,"яиц":9082,"диагноз":9083,"ндай":9084,"зий":9085,"ждё":9086,"тишина":9087,"захотелось":9088,"долларов":9089,"ака":9090,"шле":9091,"точный":9092,"нутся":9093,"подразуме":9094,"компози":9095,"алкоголя":9096,"любовника":9097,"старость":9098,"игнори":9099,"альтерна":9100,"мухи":9101,"тим":9102,"экзаме":9103,"питаться":9104,"загадка":9105,"устрой":9106,"корень":9107,"ватель":9108,"лога":9109,"жень":9110,"нуждается":9111,"наказать":9112,"господа":9113,"рулём":9114,"расскажи":9115,"крышу":9116,"жом":9117,"пробовала":9118,"классика":9119,"ау":9120,"сыграть":9121,"спрятать":9122,"бразили":9123,"нги":9124,"чники":9125,"зараз":9126,"успел":9127,"kia":9128,"знаменито":9129,"волнует":9130,"обеспе":9131,"демо":9132,"масле":9133,"садить":9134,"разба":9135,"шал":9136,"головной":9137,"ооочень":9138,"эмоций":9139,"высшее":9140,"кармане":9141,"манипу":9142,"шес":9143,"проверь":9144,"пище":9145,"стук":9146,"праздником":9147,"предложения":9148,"грудью":9149,"каю":9150,"ложите":9151,"чистый":9152,"соло":9153,"шил":9154,"пустой":9155,"полезная":9156,"mar":9157,"золотые":9158,"прикольные":9159,"контролировать":9160,"отдельно":9161,"войти":9162,"месячных":9163,"кричать":9164,"тайны":9165,"макс":9166,"котенок":9167,"yu":9168,"бэ":9169,"перей":9170,"бывшие":9171,"стоимость":9172,"парфюм":9173,"pu":9174,"зва":9175,"ир":9176,"счетом":9177,"любитель":9178,"брови":9179,"фильмах":9180,"одиночестве":9181,"слушают":9182,"дурака":9183,"кладби":9184,"готовлю":9185,"пюре":9186,"лаге":9187,"расс":9188,"больной":9189,"крепкий":9190,"нении":9191,"чах":9192,"луна":9193,"скоко":9194,"раздел":9195,"ударить":9196,"официально":9197,"церковь":9198,"ъе":9199,"курение":9200,"тимати":9201,"сталки":9202,"етер":9203,"покажет":9204,"товар":9205,"глазам":9206,"молодых":9207,"невы":9208,"составить":9209,"личности":9210,"категория":9211,"ситуациях":9212,"швей":9213,"раки":9214,"муча":9215,"отстой":9216,"объеди":9217,"отпуска":9218,"ленной":9219,"перво":9220,"конди":9221,"работаете":9222,"совки":9223,"поздравить":9224,"теста":9225,"вину":9226,"женные":9227,"вашими":9228,"свободы":9229,"съел":9230,"ёк":9231,"массо":9232,"присни":9233,"папе":9234,"черной":9235,"цой":9236,"увидел":9237,"копей":9238,"меж":9239,"жишь":9240,"учили":9241,"научил":9242,"эгоизм":9243,"ford":9244,"мл":9245,"ручки":9246,"комедия":9247,"спасает":9248,"ищешь":9249,"ушли":9250,"тоска":9251,"котя":9252,"мыше":9253,"сково":9254,"мыслями":9255,"дну":9256,"стару":9257,"останавли":9258,"интересен":9259,"принимают":9260,"дерев":9261,"столица":9262,"стороне":9263,"популя":9264,"обрете":9265,"интернета":9266,"компания":9267,"отби":9268,"проб":9269,"разбудить":9270,"хорошими":9271,"животного":9272,"морко":9273,"весьма":9274,"живёте":9275,"телефону":9276,"брюнетки":9277,"целом":9278,"гера":9279,"учись":9280,"америке":9281,"включить":9282,"заведи":9283,"портрет":9284,"арбуз":9285,"гостях":9286,"отрастить":9287,"добраться":9288,"штам":9289,"живых":9290,"нужда":9291,"интересней":9292,"идея":9293,"доверия":9294,"nissan":9295,"исполняет":9296,"умерла":9297,"av":9298,"опи":9299,"сдох":9300,"развле":9301,"бат":9302,"дым":9303,"безответная":9304,"коми":9305,"тила":9306,"стур":9307,"лезет":9308,"оль":9309,"бываю":9310,"перси":9311,"возить":9312,"ссоры":9313,"экз":9314,"планета":9315,"серебря":9316,"hotel":9317,"tra":9318,"риан":9319,"помощ":9320,"сильной":9321,"горло":9322,"удовольствия":9323,"жертво":9324,"новень":9325,"речи":9326,"будьте":9327,"рекламе":9328,"осве":9329,"ухожу":9330,"дарили":9331,"бод":9332,"стерва":9333,"депрессия":9334,"штраф":9335,"smo":9336,"бет":9337,"полы":9338,"отчество":9339,"знакомится":9340,"европы":9341,"улыбаться":9342,"ами":9343,"св":9344,"пузы":9345,"котлеты":9346,"полезный":9347,"написали":9348,"лишнего":9349,"искусство":9350,"вита":9351,"остаются":9352,"ответит":9353,"скорости":9354,"экс":9355,"бывшая":9356,"завидуют":9357,"audi":9358,"вшая":9359,"задер":9360,"татуи":9361,"патаму":9362,"dru":9363,"шет":9364,"певец":9365,"трава":9366,"рман":9367,"потеряли":9368,"регистри":9369,"возникают":9370,"бензина":9371,"выши":9372,"серо":9373,"тельна":9374,"кругу":9375,"тайна":9376,"опасны":9377,"мультики":9378,"оси":9379,"свали":9380,"небе":9381,"замен":9382,"фит":9383,"пылес":9384,"полные":9385,"варенье":9386,"ливерпуль":9387,"вложить":9388,"нать":9389,"беда":9390,"женат":9391,"семейный":9392,"мудре":9393,"знаки":9394,"газе":9395,"оставь":9396,"соседа":9397,"пропадает":9398,"оригинально":9399,"темноте":9400,"бора":9401,"назвал":9402,"похожие":9403,"поливать":9404,"картошка":9405,"аппара":9406,"развития":9407,"хитро":9408,"дворня":9409,"итальян":9410,"sp":9411,"прогре":9412,"цене":9413,"квартира":9414,"комплекс":9415,"туалете":9416,"като":9417,"ведёт":9418,"курицу":9419,"грамотно":9420,"уса":9421,"сталь":9422,"балде":9423,"получают":9424,"пропал":9425,"зарплаты":9426,"шутка":9427,"ночки":9428,"сопер":9429,"жалу":9430,"чувак":9431,"породи":9432,"свободу":9433,"позволи":9434,"мля":9435,"медо":9436,"вия":9437,"свежий":9438,"ющиеся":9439,"заинтересовать":9440,"чению":9441,"тата":9442,"жих":9443,"сильных":9444,"можен":9445,"последнюю":9446,"прыгать":9447,"кинуть":9448,"дует":9449,"достали":9450,"проснуться":9451,"проявление":9452,"италия":9453,"итоге":9454,"мра":9455,"пнуть":9456,"вреда":9457,"зой":9458,"спину":9459,"золотую":9460,"января":9461,"vet":9462,"юмо":9463,"сож":9464,"соску":9465,"бел":9466,"карбю":9467,"рекламы":9468,"посидеть":9469,"фика":9470,"автомат":9471,"найдите":9472,"исчез":9473,"комфортно":9474,"виски":9475,"подклю":9476,"нормальной":9477,"владе":9478,"известный":9479,"забывать":9480,"мелодия":9481,"запреще":9482,"linkin":9483,"номе":9484,"талан":9485,"меняются":9486,"суро":9487,"воздуха":9488,"уровне":9489,"легенда":9490,"рос":9491,"привя":9492,"значи":9493,"научите":9494,"поставили":9495,"загс":9496,"дарите":9497,"сыпать":9498,"дядя":9499,"гороско":9500,"dj":9501,"намере":9502,"несе":9503,"прем":9504,"тупая":9505,"оценить":9506,"розовый":9507,"ob":9508,"фразы":9509,"мыться":9510,"изра":9511,"бане":9512,"женная":9513,"грустные":9514,"гормо":9515,"математи":9516,"sy":9517,"вших":9518,"молодая":9519,"занимает":9520,"домашнего":9521,"принципи":9522,"рец":9523,"женском":9524,"запаха":9525,"англии":9526,"таблет":9527,"ньи":9528,"такова":9529,"зировать":9530,"живота":9531,"колесо":9532,"плит":9533,"колен":9534,"ченные":9535,"теть":9536,"минима":9537,"фокус":9538,"спали":9539,"голубой":9540,"ангелы":9541,"освобо":9542,"доехать":9543,"сковород":9544,"кси":9545,"душие":9546,"кришти":9547,"вырасти":9548,"одинокие":9549,"спиной":9550,"наслаждаться":9551,"ющее":9552,"скот":9553,"сильным":9554,"родителями":9555,"вредная":9556,"водителя":9557,"определё":9558,"дцать":9559,"ласки":9560,"вед":9561,"надпись":9562,"найдется":9563,"жайте":9564,"тельств":9565,"купит":9566,"организма":9567,"лудше":9568,"обойтись":9569,"жаются":9570,"голодный":9571,"закончился":9572,"согласились":9573,"сапоги":9574,"библиоте":9575,"gre":9576,"косто":9577,"ляции":9578,"голой":9579,"книге":9580,"dela":9581,"чихуа":9582,"обиды":9583,"знакомстве":9584,"видим":9585,"потря":9586,"обратитесь":9587,"режим":9588,"шесть":9589,"нама":9590,"инвали":9591,"скру":9592,"объем":9593,"des":9594,"большинстве":9595,"дие":9596,"житель":9597,"ближ":9598,"корни":9599,"доверяю":9600,"пахнут":9601,"ростов":9602,"отдали":9603,"ряет":9604,"жах":9605,"сними":9606,"последних":9607,"ght":9608,"mp":9609,"вперёд":9610,"снего":9611,"отжима":9612,"простили":9613,"рованные":9614,"дорогое":9615,"мадрид":9616,"роско":9617,"робот":9618,"хар":9619,"обществе":9620,"равнодуш":9621,"доверить":9622,"картины":9623,"ахахахаха":9624,"ii":9625,"штан":9626,"красивыми":9627,"пятно":9628,"степень":9629,"предсказу":9630,"киньте":9631,"нутри":9632,"жись":9633,"карта":9634,"претен":9635,"австра":9636,"тараканов":9637,"токио":9638,"пачиму":9639,"юри":9640,"выпуска":9641,"молодость":9642,"полезные":9643,"авари":9644,"уси":9645,"трево":9646,"побеждает":9647,"опаз":9648,"истори":9649,"нашёл":9650,"пирог":9651,"индий":9652,"егэ":9653,"педи":9654,"крик":9655,"благодаря":9656,"улит":9657,"повода":9658,"отвлечь":9659,"богом":9660,"обна":9661,"признание":9662,"близкий":9663,"коротко":9664,"взрослый":9665,"маршрут":9666,"удел":9667,"течении":9668,"сного":9669,"спас":9670,"кремом":9671,"поезде":9672,"необычное":9673,"личи":9674,"стр":9675,"ладу":9676,"мужских":9677,"надежды":9678,"сыграл":9679,"почто":9680,"чено":9681,"форе":9682,"морду":9683,"главным":9684,"смета":9685,"поэ":9686,"дадите":9687,"выделя":9688,"стих":9689,"большее":9690,"хий":9691,"ол":9692,"быт":9693,"отправля":9694,"обслу":9695,"творить":9696,"положено":9697,"приятная":9698,"специальные":9699,"хомяк":9700,"лежат":9701,"black":9702,"итак":9703,"тят":9704,"сестры":9705,"дожда":9706,"бут":9707,"бала":9708,"форми":9709,"собирается":9710,"желаний":9711,"личного":9712,"злош":9713,"успех":9714,"настрой":9715,"досту":9716,"ходы":9717,"дитесь":9718,"портить":9719,"начинаются":9720,"взаимной":9721,"брен":9722,"вкой":9723,"шот":9724,"няюсь":9725,"сливо":9726,"действие":9727,"логии":9728,"съела":9729,"вения":9730,"тино":9731,"перемен":9732,"обычной":9733,"зае":9734,"паться":9735,"скучаю":9736,"ссию":9737,"получили":9738,"турцию":9739,"убежать":9740,"отврати":9741,"ноут":9742,"дио":9743,"мышь":9744,"котят":9745,"пету":9746,"новогодний":9747,"реагировать":9748,"аккура":9749,"актёр":9750,"зомби":9751,"ren":9752,"отдай":9753,"бары":9754,"транспорт":9755,"психиа":9756,"хреново":9757,"колготки":9758,"ллер":9759,"нными":9760,"скуки":9761,"чкам":9762,"музыкальный":9763,"ужастик":9764,"прикольная":9765,"коричне":9766,"pla":9767,"пожи":9768,"победил":9769,"iti":9770,"выбирай":9771,"схо":9772,"получше":9773,"смотра":9774,"автомобиле":9775,"возьмут":9776,"увеличи":9777,"спут":9778,"pre":9779,"чрез":9780,"ковар":9781,"потери":9782,"мае":9783,"прокла":9784,"гео":9785,"vol":9786,"напиться":9787,"уточ":9788,"фсе":9789,"ровал":9790,"спится":9791,"ini":9792,"светит":9793,"счастливая":9794,"женился":9795,"тысячи":9796,"веще":9797,"шках":9798,"глупая":9799,"покушать":9800,"злость":9801,"улыбкой":9802,"сочетание":9803,"аборт":9804,"сумасшед":9805,"корей":9806,"мастур":9807,"проходят":9808,"полити":9809,"хрони":9810,"колё":9811,"курен":9812,"чал":9813,"излиш":9814,"гага":9815,"влением":9816,"получит":9817,"длиться":9818,"рыбалку":9819,"hy":9820,"kra":9821,"дны":9822,"жми":9823,"купаль":9824,"изнача":9825,"подра":9826,"гин":9827,"верху":9828,"нками":9829,"свойственно":9830,"свести":9831,"каст":9832,"нир":9833,"приносят":9834,"хваста":9835,"корд":9836,"улыбки":9837,"высоты":9838,"используют":9839,"аза":9840,"авиа":9841,"еде":9842,"педо":9843,"красивого":9844,"работал":9845,"терьер":9846,"пойдете":9847,"чувствовали":9848,"кулина":9849,"клапа":9850,"параш":9851,"удивля":9852,"чаянно":9853,"ресторан":9854,"беги":9855,"сидел":9856,"оставлять":9857,"обуви":9858,"метод":9859,"яич":9860,"специали":9861,"дную":9862,"испе":9863,"чены":9864,"куй":9865,"рыбка":9866,"нией":9867,"фай":9868,"основная":9869,"жалеете":9870,"поеду":9871,"сцена":9872,"каре":9873,"вампи":9874,"взяла":9875,"китайский":9876,"гимна":9877,"ються":9878,"ничный":9879,"отста":9880,"столь":9881,"развить":9882,"слабости":9883,"перестает":9884,"бутылки":9885,"программа":9886,"екатери":9887,"напра":9888,"мена":9889,"грузо":9890,"отношении":9891,"пользуются":9892,"заснуть":9893,"парикма":9894,"жёл":9895,"сби":9896,"рила":9897,"готовиться":9898,"бление":9899,"лёт":9900,"що":9901,"роза":9902,"дешё":9903,"газа":9904,"вернется":9905,"расчет":9906,"порадовать":9907,"противно":9908,"мазда":9909,"гармонии":9910,"сотрудни":9911,"давали":9912,"бесят":9913,"разбор":9914,"москву":9915,"богатые":9916,"бывшим":9917,"виноваты":9918,"mit":9919,"коко":9920,"воля":9921,"чтото":9922,"большими":9923,"читала":9924,"распла":9925,"желании":9926,"крепко":9927,"достичь":9928,"оптима":9929,"вна":9930,"опоз":9931,"торе":9932,"постро":9933,"жится":9934,"сделайте":9935,"поисковике":9936,"ппи":9937,"села":9938,"нями":9939,"падать":9940,"разры":9941,"случаи":9942,"общаюсь":9943,"возьму":9944,"ставки":9945,"пё":9946,"сумер":9947,"фил":9948,"молод":9949,"продукт":9950,"украины":9951,"принадлежит":9952,"сыром":9953,"рабочего":9954,"весну":9955,"хвата":9956,"портят":9957,"следующей":9958,"пив":9959,"террито":9960,"прощения":9961,"ищете":9962,"ks":9963,"нагруз":9964,"рубля":9965,"стихот":9966,"доволен":9967,"вредна":9968,"открой":9969,"умирают":9970,"художе":9971,"ea":9972,"накры":9973,"нусь":9974,"краснодар":9975,"овчарка":9976,"hon":9977,"йй":9978,"уголо":9979,"мужскую":9980,"победы":9981,"вшийся":9982,"яд":9983,"раю":9984,"мешок":9985,"скутер":9986,"актера":9987,"радиа":9988,"городу":9989,"счастлива":9990,"современных":9991,"серьёзно":9992,"потолок":9993,"делиться":9994,"занят":9995,"скоростью":9996,"свободные":9997,"бывшей":9998,"фамилии":9999,"елку":10000,"пато":10001,"пальца":10002,"оливье":10003,"шра":10004,"писто":10005,"сделаю":10006,"chi":10007,"медведь":10008,"периодически":10009,"вспоминаете":10010,"нежные":10011,"ночные":10012,"очевидно":10013,"циони":10014,"играй":10015,"называли":10016,"пирожки":10017,"охла":10018,"неба":10019,"вище":10020,"гат":10021,"положение":10022,"серий":10023,"благород":10024,"едине":10025,"сыграли":10026,"витамин":10027,"шишь":10028,"слав":10029,"бесполезно":10030,"внешний":10031,"татья":10032,"ревности":10033,"фрукт":10034,"пушкин":10035,"поды":10036,"летние":10037,"яблоко":10038,"негатив":10039,"неожиданно":10040,"кане":10041,"жели":10042,"чае":10043,"примеру":10044,"пытались":10045,"физически":10046,"рифму":10047,"мультфильм":10048,"иной":10049,"юбки":10050,"нав":10051,"домик":10052,"отталки":10053,"интересы":10054,"водкой":10055,"звуки":10056,"взросле":10057,"голубые":10058,"ожидание":10059,"сравнивать":10060,"декабря":10061,"майонез":10062,"дожить":10063,"прикол":10064,"черном":10065,"следить":10066,"арти":10067,"условия":10068,"зарабатывает":10069,"фре":10070,"кола":10071,"помогут":10072,"крыму":10073,"прямой":10074,"спрашивают":10075,"санти":10076,"достоинство":10077,"фотошоп":10078,"анек":10079,"салю":10080,"краситься":10081,"консер":10082,"музыке":10083,"кличку":10084,"семечки":10085,"ыыыыыыыы":10086,"элемен":10087,"ази":10088,"ядови":10089,"записа":10090,"веке":10091,"часо":10092,"обеда":10093,"клуба":10094,"девственность":10095,"небыло":10096,"простые":10097,"мном":10098,"трек":10099,"врагов":10100,"беременной":10101,"прекрасна":10102,"вероятность":10103,"блеск":10104,"нога":10105,"цветные":10106,"толстые":10107,"кольца":10108,"сете":10109,"замо":10110,"изде":10111,"грозит":10112,"поставил":10113,"каранда":10114,"пору":10115,"гомо":10116,"течение":10117,"ленный":10118,"вилья":10119,"щер":10120,"покупке":10121,"морда":10122,"упасть":10123,"платья":10124,"завер":10125,"пропи":10126,"смена":10127,"вниз":10128,"восприя":10129,"зенита":10130,"управля":10131,"томат":10132,"льке":10133,"хор":10134,"чатся":10135,"прикры":10136,"полезного":10137,"хлебом":10138,"алексан":10139,"испан":10140,"самостоятельно":10141,"выводы":10142,"милым":10143,"хачу":10144,"плюше":10145,"совершен":10146,"оказался":10147,"одинаковые":10148,"опытом":10149,"капи":10150,"броси":10151,"отгадайте":10152,"жений":10153,"мара":10154,"отмыть":10155,"косметики":10156,"шахтер":10157,"дло":10158,"загар":10159,"вещей":10160,"стам":10161,"пищу":10162,"суд":10163,"летят":10164,"потол":10165,"взры":10166,"сделаешь":10167,"kie":10168,"эффективно":10169,"компанию":10170,"прекрасная":10171,"вности":10172,"цветет":10173,"спине":10174,"относительно":10175,"корова":10176,"футбола":10177,"влюбляются":10178,"вспоминать":10179,"опе":10180,"пкой":10181,"чре":10182,"простран":10183,"преки":10184,"человеческой":10185,"грань":10186,"стресс":10187,"чмо":10188,"нечто":10189,"неле":10190,"реальная":10191,"публи":10192,"вновь":10193,"советский":10194,"креди":10195,"вайтесь":10196,"влюбленность":10197,"svo":10198,"ровку":10199,"нила":10200,"кактус":10201,"бегают":10202,"жности":10203,"переходит":10204,"плее":10205,"основе":10206,"сексуальные":10207,"пацаны":10208,"анекдо":10209,"ky":10210,"напо":10211,"лочки":10212,"левая":10213,"краю":10214,"человеческая":10215,"жалею":10216,"наглость":10217,"обозначает":10218,"озабо":10219,"доми":10220,"тием":10221,"щиков":10222,"надоедает":10223,"обратись":10224,"шные":10225,"гиба":10226,"сумо":10227,"аргу":10228,"картина":10229,"болезне":10230,"уход":10231,"ведете":10232,"полном":10233,"толк":10234,"салаты":10235,"руковод":10236,"зю":10237,"усе":10238,"среднего":10239,"пользуется":10240,"народу":10241,"творог":10242,"жених":10243,"визу":10244,"мыши":10245,"рыжий":10246,"фильтр":10247,"полгода":10248,"собственный":10249,"крест":10250,"письма":10251,"немецкая":10252,"спб":10253,"мудрый":10254,"скромный":10255,"рг":10256,"лео":10257,"вига":10258,"сосать":10259,"женный":10260,"детское":10261,"сное":10262,"порш":10263,"ьера":10264,"российских":10265,"лбу":10266,"немогу":10267,"чехи":10268,"тита":10269,"желаете":10270,"длина":10271,"свадебное":10272,"предохра":10273,"индивидуально":10274,"вающий":10275,"женщинах":10276,"сотво":10277,"мебель":10278,"маша":10279,"папы":10280,"кроват":10281,"ворота":10282,"кося":10283,"носом":10284,"заце":10285,"щаю":10286,"вопросах":10287,"идешь":10288,"красного":10289,"болтать":10290,"пляже":10291,"восстановить":10292,"прокля":10293,"перестала":10294,"бросили":10295,"русскую":10296,"привыкли":10297,"ффф":10298,"приезжай":10299,"сдесь":10300,"аван":10301,"наби":10302,"выжи":10303,"собственных":10304,"научись":10305,"клином":10306,"ландия":10307,"экстри":10308,"отсутствия":10309,"нели":10310,"саша":10311,"запас":10312,"блондинок":10313,"жва":10314,"побывать":10315,"прошед":10316,"ням":10317,"творчеству":10318,"торопи":10319,"ноче":10320,"выгра":10321,"пользовался":10322,"кукуру":10323,"кладбище":10324,"вв":10325,"дке":10326,"бывал":10327,"беше":10328,"меню":10329,"запчасти":10330,"бабочки":10331,"зачастую":10332,"поверх":10333,"пень":10334,"старую":10335,"бата":10336,"увидишь":10337,"явление":10338,"нахожу":10339,"мазо":10340,"куба":10341,"пища":10342,"шара":10343,"жанра":10344,"книжки":10345,"заняты":10346,"открывать":10347,"умирать":10348,"апреля":10349,"большей":10350,"войны":10351,"реальности":10352,"ssi":10353,"мазь":10354,"бездель":10355,"тельнее":10356,"слышите":10357,"свободного":10358,"назов":10359,"паралле":10360,"дождя":10361,"чужом":10362,"кухню":10363,"килограм":10364,"боритесь":10365,"реша":10366,"читает":10367,"конкурен":10368,"холостя":10369,"интересны":10370,"душевная":10371,"влюбится":10372,"колю":10373,"попы":10374,"лечат":10375,"моложе":10376,"казаться":10377,"секреты":10378,"проверено":10379,"арен":10380,"валось":10381,"китае":10382,"шол":10383,"ino":10384,"готовят":10385,"еврей":10386,"лью":10387,"лест":10388,"бир":10389,"сперва":10390,"современной":10391,"хэ":10392,"накормить":10393,"щими":10394,"микровол":10395,"космос":10396,"пампер":10397,"магнито":10398,"стриптиз":10399,"изначально":10400,"кастрю":10401,"обой":10402,"ъя":10403,"коп":10404,"куп":10405,"прошли":10406,"представь":10407,"фанаты":10408,"литератур":10409,"посоветовали":10410,"fu":10411,"моско":10412,"бежит":10413,"страшного":10414,"стараетесь":10415,"den":10416,"оран":10417,"лил":10418,"заводят":10419,"шится":10420,"плот":10421,"day":10422,"обая":10423,"нежный":10424,"раскры":10425,"скорую":10426,"комму":10427,"школь":10428,"новорожде":10429,"район":10430,"господ":10431,"сентября":10432,"ona":10433,"zz":10434,"хох":10435,"проез":10436,"зывай":10437,"джер":10438,"иллюзия":10439,"устра":10440,"находит":10441,"кони":10442,"личную":10443,"бина":10444,"снов":10445,"имхо":10446,"полную":10447,"пьяная":10448,"добиваться":10449,"бль":10450,"голая":10451,"прибы":10452,"безусло":10453,"очеред":10454,"дрож":10455,"хомяка":10456,"мудрости":10457,"экономить":10458,"оцениваете":10459,"укрепляет":10460,"унитаз":10461,"петер":10462,"хд":10463,"реаль":10464,"детской":10465,"детского":10466,"перец":10467,"основной":10468,"спокойствие":10469,"начнет":10470,"народные":10471,"сёдня":10472,"брыз":10473,"пиццу":10474,"учусь":10475,"кода":10476,"стку":10477,"интри":10478,"слом":10479,"ешся":10480,"стихотво":10481,"котик":10482,"пошёл":10483,"обнять":10484,"сушить":10485,"передать":10486,"ответил":10487,"английском":10488,"мистер":10489,"прислуши":10490,"романтики":10491,"выпил":10492,"админи":10493,"соответствует":10494,"тете":10495,"лобо":10496,"чиво":10497,"печь":10498,"питера":10499,"нормальным":10500,"молодому":10501,"интересным":10502,"влюбляться":10503,"теплые":10504,"ушки":10505,"мусо":10506,"промы":10507,"плов":10508,"фен":10509,"пьёт":10510,"женатого":10511,"надеяться":10512,"победу":10513,"симпатичный":10514,"прозра":10515,"ковать":10516,"договори":10517,"рыбку":10518,"подбира":10519,"преми":10520,"ответили":10521,"яндек":10522,"повторя":10523,"рисунок":10524,"муравь":10525,"con":10526,"вд":10527,"лло":10528,"чена":10529,"седь":10530,"деньгах":10531,"брасы":10532,"береж":10533,"движение":10534,"принимаю":10535,"надоест":10536,"достойно":10537,"нёт":10538,"челя":10539,"рабочем":10540,"крути":10541,"весны":10542,"измене":10543,"почту":10544,"подумай":10545,"няю":10546,"бабло":10547,"грабли":10548,"кончается":10549,"правится":10550,"шубу":10551,"ездят":10552,"мужику":10553,"касается":10554,"внезапно":10555,"сума":10556,"лывать":10557,"главной":10558,"метис":10559,"принца":10560,"комнату":10561,"ярко":10562,"выразить":10563,"серый":10564,"лах":10565,"проч":10566,"разгля":10567,"светлое":10568,"чением":10569,"курят":10570,"вскую":10571,"живём":10572,"поттер":10573,"старого":10574,"задолба":10575,"солё":10576,"шутить":10577,"маленькую":10578,"надоела":10579,"пальцем":10580,"экзоти":10581,"сры":10582,"видя":10583,"возможен":10584,"сверх":10585,"кален":10586,"сильного":10587,"модера":10588,"пацан":10589,"журна":10590,"секунд":10591,"поче":10592,"зову":10593,"удача":10594,"сериале":10595,"определяет":10596,"олимпиа":10597,"ая":10598,"цвете":10599,"чаешь":10600,"мною":10601,"умную":10602,"mno":10603,"незабы":10604,"вопло":10605,"делу":10606,"муха":10607,"ходе":10608,"этими":10609,"болеете":10610,"убивать":10611,"наркома":10612,"маникюр":10613,"ic":10614,"схва":10615,"насильно":10616,"позор":10617,"сестре":10618,"льному":10619,"кефи":10620,"преж":10621,"ющийся":10622,"праздну":10623,"макдо":10624,"проснулся":10625,"вдвоем":10626,"матри":10627,"хонда":10628,"посмотрел":10629,"ьше":10630,"висит":10631,"знакомый":10632,"хочеш":10633,"подруг":10634,"сайта":10635,"вырос":10636,"рол":10637,"видов":10638,"совать":10639,"вство":10640,"ставлять":10641,"изменили":10642,"востре":10643,"разными":10644,"ценное":10645,"желая":10646,"варь":10647,"подобное":10648,"асфаль":10649,"pra":10650,"умру":10651,"греет":10652,"монта":10653,"зеленые":10654,"собственное":10655,"вича":10656,"страдают":10657,"влен":10658,"принцип":10659,"гармония":10660,"справедливо":10661,"отку":10662,"имму":10663,"доставляет":10664,"планеты":10665,"мисс":10666,"шизо":10667,"дружбе":10668,"высокая":10669,"мягко":10670,"чеснок":10671,"огра":10672,"заново":10673,"щика":10674,"женским":10675,"подтяги":10676,"волга":10677,"поцелуи":10678,"аха":10679,"хих":10680,"колько":10681,"поискать":10682,"запоро":10683,"рулит":10684,"мужчинах":10685,"архи":10686,"одиноко":10687,"богатым":10688,"деревья":10689,"уаз":10690,"виска":10691,"родились":10692,"соседя":10693,"горячей":10694,"методом":10695,"вернулся":10696,"приметы":10697,"кариб":10698,"ходом":10699,"хоти":10700,"выражается":10701,"круглый":10702,"уровня":10703,"справедливость":10704,"заправ":10705,"сезона":10706,"гавно":10707,"проблему":10708,"кa":10709,"таи":10710,"лено":10711,"дному":10712,"приходите":10713,"косметику":10714,"расшиф":10715,"справляетесь":10716,"тома":10717,"роб":10718,"молодец":10719,"сказано":10720,"игрушка":10721,"сумерки":10722,"вставить":10723,"око":10724,"полю":10725,"кура":10726,"общаетесь":10727,"любовные":10728,"отказ":10729,"one":10730,"мли":10731,"цили":10732,"найте":10733,"содержать":10734,"можите":10735,"знала":10736,"веселее":10737,"неделя":10738,"огромный":10739,"посторон":10740,"ничья":10741,"чтоли":10742,"сиком":10743,"действовать":10744,"дневной":10745,"обращаете":10746,"разновидно":10747,"единственная":10748,"замкну":10749,"honda":10750,"обстано":10751,"переехать":10752,"жопе":10753,"сссс":10754,"пьем":10755,"признаваться":10756,"liu":10757,"горькая":10758,"неви":10759,"нечаянно":10760,"пами":10761,"бензо":10762,"глоба":10763,"надоел":10764,"поисках":10765,"философия":10766,"аву":10767,"носо":10768,"машинку":10769,"власти":10770,"послушай":10771,"чемпионате":10772,"партне":10773,"оформить":10774,"ягоды":10775,"вопреки":10776,"сар":10777,"разга":10778,"летняя":10779,"читают":10780,"платит":10781,"советские":10782,"иностра":10783,"брюки":10784,"убийство":10785,"кп":10786,"огор":10787,"данное":10788,"медом":10789,"певи":10790,"ana":10791,"англия":10792,"хамство":10793,"крю":10794,"орать":10795,"ый":10796,"дана":10797,"реки":10798,"переве":10799,"войну":10800,"истинное":10801,"пригласи":10802,"результаты":10803,"капусту":10804,"фраз":10805,"заморо":10806,"чами":10807,"прий":10808,"грязи":10809,"солью":10810,"италии":10811,"притягивает":10812,"емое":10813,"новать":10814,"бегает":10815,"отличное":10816,"включи":10817,"отдыхал":10818,"возвращаться":10819,"навя":10820,"ковых":10821,"щами":10822,"песне":10823,"шахматы":10824,"чешется":10825,"рв":10826,"неуверенность":10827,"теру":10828,"разума":10829,"женатые":10830,"теряют":10831,"экстра":10832,"картину":10833,"яндекс":10834,"тупых":10835,"какту":10836,"забрать":10837,"боку":10838,"страда":10839,"брала":10840,"собакой":10841,"питания":10842,"границы":10843,"спрашивает":10844,"сексуальное":10845,"гражданский":10846,"захочешь":10847,"болят":10848,"больнее":10849,"перестанет":10850,"вопросами":10851,"спортив":10852,"спортивный":10853,"сказке":10854,"tako":10855,"убирать":10856,"несу":10857,"шом":10858,"учите":10859,"собачка":10860,"русскому":10861,"ктивное":10862,"поцело":10863,"налево":10864,"дое":10865,"переход":10866,"большому":10867,"грибами":10868,"баллы":10869,"начнется":10870,"стремление":10871,"mm":10872,"товать":10873,"реза":10874,"вест":10875,"простое":10876,"черную":10877,"интернету":10878,"перестают":10879,"lyu":10880,"прическу":10881,"лапшу":10882,"охарактери":10883,"валер":10884,"выска":10885,"мылом":10886,"гут":10887,"лыжи":10888,"работой":10889,"влении":10890,"маленьким":10891,"одиноких":10892,"наличии":10893,"жанре":10894,"разочарование":10895,"gen":10896,"указа":10897,"ковое":10898,"словам":10899,"правильные":10900,"драть":10901,"корре":10902,"встречается":10903,"способствует":10904,"sho":10905,"metal":10906,"нды":10907,"эко":10908,"выносить":10909,"чала":10910,"руса":10911,"тиком":10912,"разбить":10913,"ster":10914,"создавать":10915,"двигаться":10916,"нежности":10917,"французский":10918,"ушёл":10919,"полюбишь":10920,"воню":10921,"вернее":10922,"завист":10923,"зубами":10924,"русским":10925,"смешную":10926,"изменила":10927,"собеседни":10928,"любимыми":10929,"страя":10930,"псих":10931,"кричит":10932,"носили":10933,"постепе":10934,"джоли":10935,"довер":10936,"краской":10937,"склон":10938,"экзамен":10939,"симпто":10940,"упор":10941,"ставите":10942,"банку":10943,"делайте":10944,"зимы":10945,"обычное":10946,"новости":10947,"стервы":10948,"добавлять":10949,"честность":10950,"ресницы":10951,"озву":10952,"тке":10953,"мост":10954,"данном":10955,"шешь":10956,"чар":10957,"приора":10958,"матчи":10959,"молчу":10960,"sex":10961,"bol":10962,"определяете":10963,"магнит":10964,"росли":10965,"моне":10966,"затра":10967,"заводи":10968,"прила":10969,"нервни":10970,"not":10971,"причиной":10972,"кличко":10973,"свето":10974,"важны":10975,"защита":10976,"мелкие":10977,"духовке":10978,"ики":10979,"заблоки":10980,"знакомы":10981,"внимательно":10982,"ужасы":10983,"прыщей":10984,"главные":10985,"скрывают":10986,"мелочи":10987,"энергии":10988,"превратить":10989,"подробно":10990,"преодолеть":10991,"категорически":10992,"челябин":10993,"детская":10994,"скучаете":10995,"украсть":10996,"поступать":10997,"продав":10998,"команде":10999,"середине":11000,"логан":11001,"лечение":11002,"встретиться":11003,"обижаться":11004,"ego":11005,"ётесь":11006,"держу":11007,"национальности":11008,"лиде":11009,"разлу":11010,"красят":11011,"расписа":11012,"заниматся":11013,"дерева":11014,"обладать":11015,"дальней":11016,"достоинства":11017,"направление":11018,"поймет":11019,"побег":11020,"низко":11021,"мла":11022,"мария":11023,"дурь":11024,"скур":11025,"ездит":11026,"одеваться":11027,"бурге":11028,"партнер":11029,"события":11030,"кролика":11031,"персонаж":11032,"аккуратно":11033,"арома":11034,"мстить":11035,"выходя":11036,"табле":11037,"жению":11038,"чишь":11039,"бака":11040,"шари":11041,"пьёте":11042,"женатым":11043,"замена":11044,"внизу":11045,"орган":11046,"обладает":11047,"обманывать":11048,"звёзд":11049,"площадь":11050,"смогут":11051,"чеб":11052,"вена":11053,"кузов":11054,"разное":11055,"человеческое":11056,"креа":11057,"марти":11058,"приходиться":11059,"обращаться":11060,"путина":11061,"роналдо":11062,"wor":11063,"игорь":11064,"порекоменду":11065,"любым":11066,"читайте":11067,"черных":11068,"открыто":11069,"созре":11070,"скрывает":11071,"бабушке":11072,"яз":11073,"пород":11074,"лив":11075,"попытка":11076,"дневник":11077,"нае":11078,"повесить":11079,"живые":11080,"бало":11081,"женатый":11082,"последнего":11083,"ощущаете":11084,"дмитрий":11085,"пароль":11086,"молодё":11087,"лекарства":11088,"виновата":11089,"прячется":11090,"чипсы":11091,"феев":11092,"кр":11093,"смен":11094,"нею":11095,"диеты":11096,"щенные":11097,"трактор":11098,"спеть":11099,"мобильный":11100,"канале":11101,"тным":11102,"гонять":11103,"застря":11104,"разный":11105,"рыжие":11106,"нетки":11107,"страдаю":11108,"слив":11109,"ющими":11110,"пожалуста":11111,"комплексы":11112,"наркотики":11113,"одеяло":11114,"sc":11115,"юбка":11116,"отделе":11117,"русь":11118,"синя":11119,"папи":11120,"пивка":11121,"весом":11122,"голоса":11123,"испуга":11124,"бутылка":11125,"горький":11126,"присутствует":11127,"произведение":11128,"париж":11129,"морковь":11130,"gra":11131,"вначале":11132,"осуще":11133,"пово":11134,"выбросить":11135,"закро":11136,"паю":11137,"выйди":11138,"средней":11139,"учатся":11140,"уи":11141,"годо":11142,"мышей":11143,"трудом":11144,"злоб":11145,"почитайте":11146,"улыбку":11147,"угадай":11148,"российской":11149,"упал":11150,"смириться":11151,"евровидение":11152,"встал":11153,"кончить":11154,"достойны":11155,"мелодра":11156,"приготовления":11157,"лиге":11158,"делись":11159,"репей":11160,"беля":11161,"коммен":11162,"песок":11163,"продолжения":11164,"продуктов":11165,"кормят":11166,"углу":11167,"устрое":11168,"фт":11169,"пожертво":11170,"выдают":11171,"лочка":11172,"щенку":11173,"мужским":11174,"dai":11175,"майл":11176,"узнал":11177,"захотеть":11178,"левый":11179,"дресси":11180,"путешествие":11181,"целлю":11182,"окро":11183,"урок":11184,"юнайте":11185,"лучшему":11186,"родным":11187,"покупай":11188,"создания":11189,"змея":11190,"ээээ":11191,"ct":11192,"езде":11193,"ягод":11194,"лип":11195,"безна":11196,"гий":11197,"анто":11198,"молочный":11199,"коробка":11200,"замужней":11201,"oni":11202,"ожидать":11203,"пальто":11204,"держат":11205,"съедоб":11206,"австрали":11207,"астра":11208,"воть":11209,"садо":11210,"худой":11211,"тортик":11212,"толстый":11213,"заливать":11214,"укрепить":11215,"лидер":11216,"лами":11217,"броше":11218,"арген":11219,"интересна":11220,"жизненные":11221,"фрукто":11222,"металли":11223,"биатло":11224,"отдох":11225,"бого":11226,"соц":11227,"общее":11228,"бессмысле":11229,"ственность":11230,"шерсть":11231,"хэм":11232,"каже":11233,"демон":11234,"меры":11235,"езжу":11236,"психу":11237,"порадо":11238,"начну":11239,"изменится":11240,"противоположного":11241,"сбываются":11242,"учё":11243,"наедине":11244,"ствам":11245,"заходи":11246,"пищи":11247,"помогло":11248,"сексуальной":11249,"зимние":11250,"спрята":11251,"усталость":11252,"небольшой":11253,"вающие":11254,"мужей":11255,"бий":11256,"развода":11257,"обратить":11258,"сделаете":11259,"равнодушие":11260,"толсте":11261,"попала":11262,"взглядом":11263,"закончить":11264,"болт":11265,"воспитания":11266,"осторожно":11267,"тиков":11268,"уважения":11269,"любовницы":11270,"уважаете":11271,"выходите":11272,"семи":11273,"тихий":11274,"спала":11275,"случаев":11276,"бросают":11277,"разочаровы":11278,"бараба":11279,"оранже":11280,"юнайтед":11281,"вредить":11282,"прятать":11283,"пользы":11284,"улица":11285,"анато":11286,"причинам":11287,"чрезмер":11288,"ряться":11289,"зодиа":11290,"идеа":11291,"едино":11292,"гаиш":11293,"стремиться":11294,"юбку":11295,"погоды":11296,"личные":11297,"ливость":11298,"раны":11299,"заво":11300,"музыкой":11301,"магазины":11302,"истину":11303,"банально":11304,"адренали":11305,"просыпается":11306,"ееееееее":11307,"злых":11308,"чины":11309,"вселенной":11310,"саль":11311,"помоги":11312,"собственные":11313,"всякая":11314,"косметикой":11315,"регистра":11316,"колбасу":11317,"iq":11318,"пэ":11319,"сход":11320,"данные":11321,"дарю":11322,"телом":11323,"люд":11324,"типу":11325,"тивно":11326,"дуро":11327,"крутая":11328,"ванную":11329,"наука":11330,"тупость":11331,"оправ":11332,"каться":11333,"пожить":11334,"живую":11335,"трусах":11336,"пенсию":11337,"посоветовать":11338,"интеллект":11339,"квас":11340,"шная":11341,"боб":11342,"посред":11343,"будучи":11344,"горшок":11345,"птиц":11346,"проверять":11347,"японии":11348,"обручальное":11349,"роберт":11350,"исты":11351,"рёт":11352,"чете":11353,"каши":11354,"лабра":11355,"белым":11356,"разная":11357,"страдания":11358,"учился":11359,"ete":11360,"стесни":11361,"козлы":11362,"похмелья":11363,"нa":11364,"шевели":11365,"прочь":11366,"простая":11367,"белую":11368,"чук":11369,"насчёт":11370,"враги":11371,"коробку":11372,"red":11373,"границу":11374,"спартака":11375,"чёрная":11376,"средний":11377,"вкусненького":11378,"дизель":11379,"ринару":11380,"пели":11381,"нкам":11382,"вкуса":11383,"москвич":11384,"хера":11385,"тёр":11386,"прыщи":11387,"скромные":11388,"аккумулятор":11389,"шну":11390,"сата":11391,"присе":11392,"считаются":11393,"езда":11394,"солярий":11395,"ял":11396,"чень":11397,"есле":11398,"андже":11399,"волом":11400,"шампунем":11401,"загляды":11402,"постепенно":11403,"емая":11404,"кпп":11405,"ушей":11406,"коси":11407,"раска":11408,"чиха":11409,"самолет":11410,"маркет":11411,"ang":11412,"техни":11413,"яркие":11414,"статисти":11415,"ye":11416,"плес":11417,"точек":11418,"покор":11419,"выли":11420,"быми":11421,"дитя":11422,"курицы":11423,"природу":11424,"истинная":11425,"обращают":11426,"поцелуя":11427,"вытащить":11428,"бера":11429,"гур":11430,"войне":11431,"голов":11432,"особенности":11433,"выбираю":11434,"покупали":11435,"гроб":11436,"бесплатный":11437,"выбрал":11438,"тль":11439,"кос":11440,"лаком":11441,"утре":11442,"назвала":11443,"следо":11444,"снизу":11445,"зайцев":11446,"спросил":11447,"семейная":11448,"натуральный":11449,"пса":11450,"кофей":11451,"женить":11452,"страдает":11453,"щали":11454,"красив":11455,"русски":11456,"америка":11457,"франция":11458,"актрису":11459,"um":11460,"пожрать":11461,"завыше":11462,"прохо":11463,"наслед":11464,"далее":11465,"атмо":11466,"посетить":11467,"вконтакте":11468,"стного":11469,"выте":11470,"мата":11471,"самыми":11472,"общие":11473,"иномарку":11474,"надежный":11475,"гарде":11476,"техника":11477,"контакт":11478,"прививки":11479,"ошибаюсь":11480,"pp":11481,"ави":11482,"акин":11483,"чила":11484,"типи":11485,"нький":11486,"пежо":11487,"стреля":11488,"голуби":11489,"миллиар":11490,"городах":11491,"предлагаю":11492,"настойчи":11493,"получ":11494,"приходить":11495,"цепи":11496,"зил":11497,"красива":11498,"шкаф":11499,"циями":11500,"толстая":11501,"экскур":11502,"объясни":11503,"заказ":11504,"снимают":11505,"потребность":11506,"девчёнки":11507,"брь":11508,"рвать":11509,"ющей":11510,"запута":11511,"пришёл":11512,"пат":11513,"ценность":11514,"имел":11515,"занимался":11516,"ron":11517,"рована":11518,"загорать":11519,"камен":11520,"нат":11521,"натя":11522,"незаметно":11523,"педа":11524,"скачай":11525,"встречаете":11526,"виртуальные":11527,"автобус":11528,"королева":11529,"воняет":11530,"мачо":11531,"курите":11532,"пункт":11533,"ционе":11534,"насмор":11535,"защитить":11536,"резина":11537,"партнера":11538,"возможны":11539,"дс":11540,"рные":11541,"руешь":11542,"бления":11543,"ритет":11544,"месячного":11545,"выраста":11546,"третья":11547,"врет":11548,"деми":11549,"проби":11550,"белить":11551,"значения":11552,"рынок":11553,"крести":11554,"встречал":11555,"ситуацию":11556,"ежели":11557,"коктейль":11558,"стереоти":11559,"оправдать":11560,"сбить":11561,"мому":11562,"менно":11563,"голод":11564,"нужным":11565,"волосами":11566,"ветеринару":11567,"доллар":11568,"жней":11569,"фле":11570,"зарегистри":11571,"бегом":11572,"poche":11573,"власте":11574,"отпусти":11575,"забываете":11576,"наблюдать":11577,"свидетель":11578,"ежедневно":11579,"незабывае":11580,"крутые":11581,"торрен":11582,"попало":11583,"взгляды":11584,"заднем":11585,"заканчиваются":11586,"пакети":11587,"эли":11588,"юби":11589,"яс":11590,"сопроти":11591,"сиам":11592,"самолё":11593,"кролик":11594,"спаль":11595,"уважаемые":11596,"нув":11597,"кеды":11598,"целая":11599,"словно":11600,"материально":11601,"немецкий":11602,"начиная":11603,"ep":11604,"барс":11605,"жён":11606,"журнал":11607,"принести":11608,"жадность":11609,"фильму":11610,"слабе":11611,"попада":11612,"оценки":11613,"капитан":11614,"впи":11615,"наподобие":11616,"месту":11617,"ручку":11618,"крема":11619,"знакомятся":11620,"лишнее":11621,"шоколада":11622,"доказывать":11623,"оригинальный":11624,"змеи":11625,"тдв":11626,"худые":11627,"ежи":11628,"кока":11629,"повсе":11630,"выби":11631,"гитаре":11632,"крыль":11633,"начался":11634,"tom":11635,"dow":11636,"зеркала":11637,"испании":11638,"серебро":11639,"члена":11640,"льна":11641,"пакет":11642,"пунк":11643,"инки":11644,"зительно":11645,"подождать":11646,"живёшь":11647,"парамет":11648,"животик":11649,"связаны":11650,"way":11651,"навеяно":11652,"оплачи":11653,"предпочте":11654,"елена":11655,"срать":11656,"вольно":11657,"няли":11658,"пуд":11659,"выйду":11660,"рассказ":11661,"камни":11662,"етаки":11663,"правельно":11664,"флаг":11665,"театре":11666,"оф":11667,"моет":11668,"деться":11669,"русы":11670,"препод":11671,"летнему":11672,"банан":11673,"познакомлюсь":11674,"озеро":11675,"карбюратор":11676,"огне":11677,"тобою":11678,"подмоско":11679,"хаски":11680,"мандари":11681,"свекрови":11682,"требуют":11683,"подобные":11684,"вежливо":11685,"ек":11686,"данной":11687,"заци":11688,"обнару":11689,"вторые":11690,"жением":11691,"куриные":11692,"влияние":11693,"провока":11694,"ционный":11695,"примеры":11696,"изображен":11697,"уклады":11698,"заболеть":11699,"виктор":11700,"купать":11701,"сосу":11702,"гадить":11703,"мыслях":11704,"карли":11705,"способности":11706,"сексуаль":11707,"довольна":11708,"силах":11709,"магазина":11710,"границей":11711,"принципу":11712,"пустота":11713,"аквариум":11714,"приручить":11715,"рное":11716,"схе":11717,"мания":11718,"сика":11719,"шина":11720,"рятся":11721,"зовет":11722,"средняя":11723,"возьмите":11724,"размером":11725,"содержание":11726,"ксю":11727,"ктору":11728,"баловать":11729,"преде":11730,"странная":11731,"правдо":11732,"тремя":11733,"ствий":11734,"сахаром":11735,"контроли":11736,"никола":11737,"ser":11738,"повес":11739,"робо":11740,"хоз":11741,"тывает":11742,"изнаси":11743,"полным":11744,"началась":11745,"следы":11746,"ждали":11747,"домашняя":11748,"клубы":11749,"брилли":11750,"металл":11751,"зимнюю":11752,"задницу":11753,"комары":11754,"засунуть":11755,"зарядку":11756,"деток":11757,"бору":11758,"ценности":11759,"красивей":11760,"открытым":11761,"родитель":11762,"движения":11763,"атлети":11764,"окружаю":11765,"ухажи":11766,"тренировки":11767,"прекратить":11768,"ерунда":11769,"осени":11770,"ипоте":11771,"кхл":11772,"ливая":11773,"столо":11774,"карл":11775,"личном":11776,"пытаетесь":11777,"характером":11778,"картошки":11779,"обещал":11780,"прячете":11781,"vro":11782,"вычи":11783,"бедный":11784,"присту":11785,"делась":11786,"простого":11787,"готовится":11788,"дожди":11789,"химия":11790,"вырастет":11791,"просвет":11792,"кругло":11793,"приятней":11794,"cher":11795,"хотябы":11796,"помидор":11797,"разговоры":11798,"систему":11799,"duma":11800,"ари":11801,"несли":11802,"общественном":11803,"родину":11804,"nado":11805,"комнатные":11806,"народа":11807,"определение":11808,"ксения":11809,"бегут":11810,"бутерброд":11811,"соскучи":11812,"погиб":11813,"вылез":11814,"диплом":11815,"бум":11816,"размыш":11817,"общества":11818,"крова":11819,"чувствами":11820,"стырь":11821,"техно":11822,"добавь":11823,"посмотрим":11824,"топлива":11825,"ювен":11826,"мине":11827,"папой":11828,"собачку":11829,"актив":11830,"немцы":11831,"кличка":11832,"команди":11833,"влюблялись":11834,"дедушка":11835,"прет":11836,"поди":11837,"потер":11838,"компро":11839,"грать":11840,"зываться":11841,"труда":11842,"гречне":11843,"смотрим":11844,"покупают":11845,"следующем":11846,"карибского":11847,"заводится":11848,"боре":11849,"гаться":11850,"подтвер":11851,"всетаки":11852,"бросай":11853,"альфа":11854,"съешь":11855,"совершить":11856,"повтори":11857,"организме":11858,"увидев":11859,"зодиака":11860,"nra":11861,"кокой":11862,"лиз":11863,"гони":11864,"даёте":11865,"заты":11866,"захотел":11867,"пропор":11868,"нькие":11869,"настроением":11870,"клубни":11871,"законы":11872,"park":11873,"популярный":11874,"мб":11875,"руются":11876,"живое":11877,"драться":11878,"научили":11879,"сделают":11880,"пляж":11881,"жёст":11882,"алексей":11883,"улыбается":11884,"лимоном":11885,"яндексе":11886,"украсить":11887,"тама":11888,"чивость":11889,"слух":11890,"аква":11891,"вкусня":11892,"закрытыми":11893,"старое":11894,"возвращается":11895,"бухгал":11896,"ir":11897,"впро":11898,"лака":11899,"миг":11900,"свободный":11901,"получиться":11902,"недостат":11903,"ненько":11904,"современная":11905,"массу":11906,"взор":11907,"чешь":11908,"проколоть":11909,"tor":11910,"стрелять":11911,"убивают":11912,"разговариваете":11913,"халяву":11914,"картофель":11915,"придает":11916,"добрее":11917,"езжай":11918,"говорила":11919,"заслуживает":11920,"дядька":11921,"кес":11922,"чника":11923,"поворот":11924,"заи":11925,"шиться":11926,"банков":11927,"извините":11928,"утренний":11929,"джентль":11930,"tr":11931,"амур":11932,"нга":11933,"огороде":11934,"погре":11935,"доход":11936,"отправи":11937,"путем":11938,"жор":11939,"выгоднее":11940,"zda":11941,"нало":11942,"дению":11943,"жева":11944,"проходить":11945,"зависти":11946,"достал":11947,"уютно":11948,"ls":11949,"ково":11950,"зани":11951,"зацию":11952,"вирус":11953,"траву":11954,"еее":11955,"шкафу":11956,"спек":11957,"успеха":11958,"риям":11959,"ошибку":11960,"казахстан":11961,"пж":11962,"запла":11963,"проста":11964,"фини":11965,"обычных":11966,"современный":11967,"методы":11968,"выпадают":11969,"ds":11970,"ове":11971,"прод":11972,"женных":11973,"бездом":11974,"крысы":11975,"червя":11976,"ренная":11977,"идеальные":11978,"российские":11979,"линзы":11980,"кухни":11981,"юююю":11982,"одень":11983,"уника":11984,"залог":11985,"пеле":11986,"сводит":11987,"правы":11988,"трусики":11989,"ленных":11990,"морскую":11991,"парнями":11992,"движи":11993,"написала":11994,"одинокий":11995,"принимает":11996,"предложите":11997,"сравнению":11998,"рке":11999,"замора":12000,"бие":12001,"края":12002,"подаро":12003,"найдете":12004,"экстре":12005,"тюль":12006,"энергию":12007,"океан":12008,"длинными":12009,"медицин":12010,"кастрировать":12011,"нович":12012,"челю":12013,"доктора":12014,"щаться":12015,"славя":12016,"адеква":12017,"заглянуть":12018,"фра":12019,"ребус":12020,"маза":12021,"чьё":12022,"правилам":12023,"ногой":12024,"улицы":12025,"чувствах":12026,"питаются":12027,"провоци":12028,"неудобно":12029,"рово":12030,"сев":12031,"столом":12032,"удалять":12033,"знакомая":12034,"важный":12035,"родственники":12036,"кажутся":12037,"авангар":12038,"ёлку":12039,"телен":12040,"десер":12041,"вини":12042,"просмотра":12043,"частью":12044,"лянди":12045,"лучьше":12046,"всяком":12047,"обида":12048,"светло":12049,"толкает":12050,"съели":12051,"едой":12052,"дашь":12053,"делся":12054,"куды":12055,"стою":12056,"денье":12057,"свинья":12058,"упаков":12059,"предлагают":12060,"случится":12061,"датчик":12062,"евич":12063,"каво":12064,"коза":12065,"кушаете":12066,"трата":12067,"прямом":12068,"pod":12069,"подарила":12070,"франции":12071,"честным":12072,"ee":12073,"вят":12074,"вибра":12075,"общая":12076,"нитет":12077,"прощение":12078,"фирму":12079,"пахнуть":12080,"пираты":12081,"союз":12082,"убили":12083,"правая":12084,"маленькое":12085,"хахаха":12086,"пьяные":12087,"алиса":12088,"предлагает":12089,"окружающие":12090,"товарищ":12091,"ac":12092,"адво":12093,"пою":12094,"чева":12095,"мотива":12096,"табу":12097,"присоеди":12098,"желанием":12099,"велик":12100,"светлые":12101,"привыкнуть":12102,"соседка":12103,"религия":12104,"даем":12105,"ледя":12106,"вир":12107,"проводи":12108,"удачного":12109,"несёт":12110,"тюнинг":12111,"мягкие":12112,"карман":12113,"сидим":12114,"очарова":12115,"удержи":12116,"необычный":12117,"нифига":12118,"отбить":12119,"вега":12120,"тины":12121,"суше":12122,"подарит":12123,"научился":12124,"варивать":12125,"счастьем":12126,"половинки":12127,"короткая":12128,"пришлите":12129,"музей":12130,"ущер":12131,"полет":12132,"белка":12133,"прести":12134,"обычным":12135,"вечери":12136,"смыслом":12137,"спустя":12138,"капусты":12139,"художник":12140,"нна":12141,"пасси":12142,"гит":12143,"слон":12144,"подавать":12145,"профессию":12146,"кухня":12147,"хозяйка":12148,"президент":12149,"любопытство":12150,"инжектор":12151,"прогуля":12152,"шири":12153,"пите":12154,"шайте":12155,"ветки":12156,"самолете":12157,"подарю":12158,"распа":12159,"автора":12160,"завидовать":12161,"горба":12162,"интересных":12163,"собственном":12164,"окружающим":12165,"забота":12166,"пейте":12167,"пика":12168,"база":12169,"карло":12170,"спект":12171,"продам":12172,"снимает":12173,"получаю":12174,"оформ":12175,"инопланетя":12176,"жками":12177,"выру":12178,"останов":12179,"смешать":12180,"счастливо":12181,"танц":12182,"помириться":12183,"информация":12184,"расслабля":12185,"событие":12186,"просты":12187,"живая":12188,"глад":12189,"тяжелая":12190,"дрочить":12191,"ветерина":12192,"витаминов":12193,"горизон":12194,"звери":12195,"корма":12196,"стное":12197,"признать":12198,"бул":12199,"делах":12200,"туше":12201,"переклю":12202,"склад":12203,"дних":12204,"играем":12205,"корпора":12206,"грехи":12207,"молчат":12208,"защиты":12209,"выкиды":12210,"оторвать":12211,"девственности":12212,"максимально":12213,"обслужи":12214,"валерья":12215,"симптомы":12216,"нан":12217,"погово":12218,"жесть":12219,"подска":12220,"слона":12221,"стекла":12222,"удаля":12223,"обиду":12224,"великоле":12225,"вредных":12226,"громче":12227,"восполь":12228,"велосипеде":12229,"ать":12230,"тк":12231,"тёт":12232,"ццо":12233,"чистую":12234,"тину":12235,"еслиб":12236,"цати":12237,"вкусы":12238,"задаю":12239,"известных":12240,"колбаса":12241,"fer":12242,"напе":12243,"непонятно":12244,"побыстрее":12245,"зоны":12246,"игр":12247,"открывается":12248,"сторона":12249,"сюжет":12250,"возьмет":12251,"психологию":12252,"отсутствии":12253,"обрели":12254,"бананы":12255,"паук":12256,"грязные":12257,"википе":12258,"ускорить":12259,"бассейн":12260,"ger":12261,"модные":12262,"давить":12263,"отвар":12264,"сими":12265,"гаешь":12266,"грустный":12267,"морози":12268,"проститу":12269,"разрушить":12270,"багаж":12271,"драз":12272,"грузи":12273,"всякого":12274,"объясня":12275,"сорта":12276,"положительные":12277,"dl":12278,"вывать":12279,"знакомитесь":12280,"цветами":12281,"попса":12282,"сплетни":12283,"товой":12284,"забьет":12285,"луком":12286,"стана":12287,"подпи":12288,"плохом":12289,"великая":12290,"беременная":12291,"запретный":12292,"найдёшь":12293,"предупре":12294,"ложитесь":12295,"dan":12296,"vat":12297,"кк":12298,"чч":12299,"отбелить":12300,"меняй":12301,"шоке":12302,"вопросу":12303,"холодное":12304,"пьешь":12305,"исполнитель":12306,"процессе":12307,"sli":12308,"уде":12309,"козы":12310,"постараться":12311,"вием":12312,"чистые":12313,"ценный":12314,"подойди":12315,"достижения":12316,"взрослым":12317,"ужасный":12318,"двер":12319,"честный":12320,"босиком":12321,"измен":12322,"сками":12323,"гивает":12324,"полового":12325,"ездили":12326,"блюд":12327,"дешевые":12328,"зеленая":12329,"болта":12330,"tebe":12331,"заставляют":12332,"советов":12333,"желтый":12334,"любовницу":12335,"гимн":12336,"свари":12337,"такти":12338,"конкурс":12339,"бессмер":12340,"блох":12341,"морские":12342,"перестанут":12343,"теплый":12344,"идеального":12345,"критику":12346,"информации":12347,"вшей":12348,"сеня":12349,"мусуль":12350,"лав":12351,"сигнали":12352,"гус":12353,"нужный":12354,"онок":12355,"сладко":12356,"достойна":12357,"универса":12358,"шной":12359,"неот":12360,"дог":12361,"гант":12362,"рыбок":12363,"ниями":12364,"голода":12365,"удаётся":12366,"коровы":12367,"обязанности":12368,"влаж":12369,"игрушку":12370,"регистрации":12371,"депрессии":12372,"отрезать":12373,"борьбы":12374,"телефоне":12375,"чихуахуа":12376,"лапы":12377,"мешки":12378,"пугают":12379,"алла":12380,"сделано":12381,"попадаются":12382,"похудения":12383,"горячую":12384,"вреднее":12385,"vas":12386,"португали":12387,"азарт":12388,"склонны":12389,"ине":12390,"лс":12391,"отчая":12392,"отбели":12393,"кине":12394,"чину":12395,"дикий":12396,"прило":12397,"сыно":12398,"пойма":12399,"свежие":12400,"решите":12401,"запретить":12402,"песенка":12403,"васили":12404,"теща":12405,"лению":12406,"передо":12407,"порну":12408,"устанавли":12409,"скорпи":12410,"настой":12411,"козла":12412,"погу":12413,"мекси":12414,"ленные":12415,"тыщ":12416,"бабла":12417,"класть":12418,"легкие":12419,"называеться":12420,"хех":12421,"рубль":12422,"вшуюся":12423,"никакие":12424,"запросто":12425,"ценит":12426,"сложная":12427,"мысленно":12428,"акпп":12429,"идем":12430,"существовать":12431,"движок":12432,"стности":12433,"питается":12434,"внутреннего":12435,"противоре":12436,"араб":12437,"саунд":12438,"парашю":12439,"кэ":12440,"тапки":12441,"паспорте":12442,"учил":12443,"требо":12444,"желать":12445,"покупки":12446,"съем":12447,"венти":12448,"поведения":12449,"поедет":12450,"правосла":12451,"востор":12452,"гет":12453,"каз":12454,"ненадо":12455,"стё":12456,"рейти":12457,"павлю":12458,"пия":12459,"детских":12460,"ветром":12461,"душевные":12462,"надежду":12463,"семейных":12464,"прошлым":12465,"фарши":12466,"актуально":12467,"окрас":12468,"построе":12469,"лебе":12470,"луну":12471,"писю":12472,"пустые":12473,"слать":12474,"ответом":12475,"малышу":12476,"кончится":12477,"мастера":12478,"мопед":12479,"качай":12480,"наки":12481,"косы":12482,"рись":12483,"термина":12484,"взят":12485,"начинай":12486,"рюм":12487,"горчи":12488,"душевное":12489,"силико":12490,"количестве":12491,"принципы":12492,"посещают":12493,"ближайшее":12494,"грм":12495,"несмотря":12496,"несут":12497,"мокры":12498,"приобрета":12499,"женной":12500,"большего":12501,"душевной":12502,"тюнин":12503,"представляю":12504,"инструмент":12505,"сосиски":12506,"презервативы":12507,"перспекти":12508,"криштиану":12509,"зму":12510,"раком":12511,"чуда":12512,"крыше":12513,"врачей":12514,"сладкие":12515,"змей":12516,"актеров":12517,"сбли":12518,"упре":12519,"колу":12520,"ковую":12521,"сори":12522,"жива":12523,"подстри":12524,"цепь":12525,"трусов":12526,"нтв":12527,"петро":12528,"летела":12529,"выбрала":12530,"зубная":12531,"лк":12532,"натуре":12533,"дико":12534,"стаф":12535,"брас":12536,"вообщем":12537,"считай":12538,"собствен":12539,"собакам":12540,"шкам":12541,"tolko":12542,"жопы":12543,"пожар":12544,"кривые":12545,"ыыы":12546,"ставил":12547,"пенсии":12548,"chem":12549,"разрушает":12550,"подушку":12551,"мэри":12552,"огромное":12553,"александра":12554,"бр":12555,"биси":12556,"прямая":12557,"долгое":12558,"лёк":12559,"блок":12560,"мозгами":12561,"особенного":12562,"скрывается":12563,"услож":12564,"ожидании":12565,"развитие":12566,"буквально":12567,"иго":12568,"шни":12569,"нации":12570,"неважно":12571,"ноз":12572,"полюбил":12573,"стных":12574,"еси":12575,"отключи":12576,"вег":12577,"вис":12578,"ляцию":12579,"хулига":12580,"плюнуть":12581,"noe":12582,"bez":12583,"улыбаюсь":12584,"заде":12585,"чьим":12586,"пойдешь":12587,"ренных":12588,"семейного":12589,"lub":12590,"поднимать":12591,"сибирь":12592,"счётом":12593,"служебный":12594,"hi":12595,"ji":12596,"wit":12597,"навига":12598,"заодно":12599,"ружи":12600,"бать":12601,"котом":12602,"рованная":12603,"закончилась":12604,"контроль":12605,"ill":12606,"взрослого":12607,"арт":12608,"вынуж":12609,"левые":12610,"разделить":12611,"переводе":12612,"гены":12613,"вкусу":12614,"местом":12615,"группо":12616,"велико":12617,"целует":12618,"тормоза":12619,"распростране":12620,"ушко":12621,"кового":12622,"реальных":12623,"цин":12624,"болеют":12625,"праздника":12626,"рановато":12627,"ожидания":12628,"прекрасные":12629,"поменяй":12630,"жидкость":12631,"аппарат":12632,"господь":12633,"мартини":12634,"днее":12635,"сходит":12636,"устать":12637,"ваку":12638,"грусти":12639,"относишься":12640,"смотреться":12641,"отпуске":12642,"китайцы":12643,"представляет":12644,"самооценка":12645,"зверя":12646,"ёжи":12647,"ренный":12648,"прост":12649,"дий":12650,"жному":12651,"началось":12652,"святой":12653,"проявлять":12654,"непременно":12655,"выгнать":12656,"сани":12657,"гази":12658,"подвер":12659,"цер":12660,"глая":12661,"бойся":12662,"бескоры":12663,"измерить":12664,"спрятаться":12665,"востребова":12666,"ювели":12667,"настя":12668,"модный":12669,"шести":12670,"няются":12671,"тун":12672,"чности":12673,"драго":12674,"запахом":12675,"убей":12676,"сняли":12677,"талия":12678,"стесняетесь":12679,"мёрт":12680,"opel":12681,"gla":12682,"каете":12683,"рожа":12684,"подмы":12685,"вью":12686,"ордина":12687,"жёны":12688,"операция":12689,"кроссовки":12690,"родного":12691,"задний":12692,"разводить":12693,"щин":12694,"уйду":12695,"взаимопонимание":12696,"карьера":12697,"безусловно":12698,"zhe":12699,"ода":12700,"поне":12701,"вешать":12702,"перебор":12703,"невеста":12704,"фанат":12705,"оооочень":12706,"протеин":12707,"описание":12708,"тону":12709,"денный":12710,"риско":12711,"кушай":12712,"буй":12713,"покататься":12714,"обижать":12715,"волка":12716,"леса":12717,"санта":12718,"игроков":12719,"поддерживать":12720,"яяяяяяяя":12721,"учебник":12722,"критериям":12723,"ушами":12724,"модан":12725,"теплее":12726,"гдето":12727,"способа":12728,"прячет":12729,"говорится":12730,"прикосно":12731,"снаружи":12732,"замечательный":12733,"приличные":12734,"фарш":12735,"соблюдать":12736,"zu":12737,"коже":12738,"появля":12739,"повезет":12740,"захочется":12741,"заставит":12742,"вие":12743,"любие":12744,"длины":12745,"городов":12746,"боялись":12747,"богатого":12748,"нежное":12749,"урал":12750,"кошелек":12751,"июня":12752,"сервис":12753,"великолеп":12754,"узнает":12755,"напугать":12756,"недвижи":12757,"пообща":12758,"рика":12759,"отва":12760,"шапку":12761,"машиной":12762,"трога":12763,"едим":12764,"острове":12765,"капуста":12766,"плыть":12767,"глубине":12768,"совместимы":12769,"выспаться":12770,"cколько":12771,"тошно":12772,"неет":12773,"кись":12774,"дика":12775,"пустая":12776,"брон":12777,"боязнь":12778,"украшения":12779,"экспе":12780,"дураком":12781,"слабое":12782,"физическая":12783,"лёгкий":12784,"брута":12785,"какя":12786,"отнести":12787,"читывать":12788,"целей":12789,"любящие":12790,"получился":12791,"богатых":12792,"положительно":12793,"выполнять":12794,"подробнее":12795,"ошибках":12796,"пож":12797,"горят":12798,"чтоль":12799,"реку":12800,"запро":12801,"пела":12802,"темный":12803,"случалось":12804,"спрос":12805,"замужние":12806,"встретил":12807,"смешная":12808,"программы":12809,"мировой":12810,"опазды":12811,"ювентус":12812,"отвали":12813,"черти":12814,"удара":12815,"варё":12816,"турция":12817,"оценка":12818,"помесь":12819,"дорогих":12820,"пустил":12821,"ответственности":12822,"завтрашнем":12823,"актуаль":12824,"мэй":12825,"позы":12826,"синие":12827,"правди":12828,"хивает":12829,"плин":12830,"дешевый":12831,"мышц":12832,"рекламу":12833,"недостатка":12834,"английского":12835,"зимний":12836,"песенку":12837,"проститутки":12838,"хм":12839,"нарису":12840,"моли":12841,"подход":12842,"обычного":12843,"научилась":12844,"идеальных":12845,"свини":12846,"пьяного":12847,"обажаю":12848,"мягкий":12849,"водители":12850,"вероятно":12851,"плей":12852,"тачку":12853,"летнюю":12854,"встве":12855,"крыса":12856,"родится":12857,"займет":12858,"салата":12859,"зарабатывают":12860,"рифма":12861,"современном":12862,"ноября":12863,"ивать":12864,"уволь":12865,"коса":12866,"дата":12867,"музе":12868,"массы":12869,"продли":12870,"нулся":12871,"суме":12872,"гена":12873,"рассвет":12874,"конешно":12875,"птичка":12876,"стринги":12877,"компьютера":12878,"ложится":12879,"влюбленный":12880,"подвиг":12881,"холодную":12882,"тща":12883,"помогу":12884,"постара":12885,"теки":12886,"божий":12887,"разор":12888,"суса":12889,"сырое":12890,"произой":12891,"необходимость":12892,"необитаемый":12893,"her":12894,"энд":12895,"ноты":12896,"кубка":12897,"изуча":12898,"больные":12899,"констру":12900,"оставили":12901,"мыслить":12902,"темные":12903,"смеха":12904,"здорового":12905,"успела":12906,"созданы":12907,"температуре":12908,"большинства":12909,"que":12910,"ms":12911,"врят":12912,"добе":12913,"частей":12914,"плоды":12915,"тяж":12916,"голосу":12917,"душевную":12918,"скрываете":12919,"пробовать":12920,"показатель":12921,"зимняя":12922,"японский":12923,"заявление":12924,"сплошная":12925,"сергея":12926,"ясен":12927,"поделать":12928,"застре":12929,"бего":12930,"строите":12931,"прячу":12932,"пойди":12933,"мечту":12934,"моими":12935,"грин":12936,"семьей":12937,"романы":12938,"покорить":12939,"масля":12940,"выросли":12941,"приведите":12942,"уехал":12943,"участием":12944,"чма":12945,"эфе":12946,"помы":12947,"ранетки":12948,"нькая":12949,"ряют":12950,"высокой":12951,"dol":12952,"летел":12953,"чёрные":12954,"прошлый":12955,"коллекти":12956,"допустим":12957,"нe":12958,"пше":12959,"выходи":12960,"спан":12961,"снятия":12962,"преврати":12963,"дэу":12964,"hyun":12965,"ент":12966,"налог":12967,"неза":12968,"голы":12969,"визи":12970,"равновес":12971,"толпе":12972,"lex":12973,"ставили":12974,"популярная":12975,"брэ":12976,"ждите":12977,"невро":12978,"неприлично":12979,"рани":12980,"чемодан":12981,"моче":12982,"кухо":12983,"скачи":12984,"подде":12985,"суи":12986,"самка":12987,"собачки":12988,"подружиться":12989,"дорогую":12990,"слёз":12991,"юмором":12992,"танцую":12993,"ядер":12994,"беды":12995,"духа":12996,"сводить":12997,"подли":12998,"травы":12999,"зелень":13000,"трудный":13001,"спина":13002,"воспринимать":13003,"совместной":13004,"температуру":13005,"рамки":13006,"сомневаюсь":13007,"передачи":13008,"нижнем":13009,"звёзды":13010,"существование":13011,"аквариуме":13012,"автобусе":13013,"трахаться":13014,"джексон":13015,"дыхание":13016,"крокоди":13017,"павлюченко":13018,"настро":13019,"полюбому":13020,"выдержать":13021,"рес":13022,"детскую":13023,"врага":13024,"клиен":13025,"качественный":13026,"невесты":13027,"испытывает":13028,"системе":13029,"эми":13030,"вымер":13031,"запу":13032,"просро":13033,"нуди":13034,"павел":13035,"крабо":13036,"споре":13037,"влез":13038,"приятным":13039,"длинно":13040,"счету":13041,"ласковый":13042,"любовницей":13043,"безопасности":13044,"икру":13045,"шон":13046,"кадру":13047,"гореть":13048,"мух":13049,"доля":13050,"шаешь":13051,"вопросам":13052,"болел":13053,"холодная":13054,"научила":13055,"задние":13056,"зеленого":13057,"поездки":13058,"чемпионата":13059,"баксов":13060,"потратили":13061,"стремится":13062,"уборку":13063,"воздушный":13064,"вшиеся":13065,"клетки":13066,"тьфу":13067,"полюбила":13068,"пром":13069,"синт":13070,"фом":13071,"легкая":13072,"пессими":13073,"ровке":13074,"идио":13075,"оргазма":13076,"изменяли":13077,"радуйся":13078,"фотография":13079,"суббота":13080,"сметаной":13081,"тэ":13082,"дино":13083,"вету":13084,"термо":13085,"хорошенько":13086,"музыкан":13087,"девка":13088,"серьёзные":13089,"становитесь":13090,"mojno":13091,"ири":13092,"неплохой":13093,"муки":13094,"жец":13095,"тум":13096,"правый":13097,"преле":13098,"трусо":13099,"кормом":13100,"расстались":13101,"гитару":13102,"элементар":13103,"ps":13104,"копить":13105,"ночная":13106,"ливых":13107,"чебура":13108,"тацию":13109,"соком":13110,"шире":13111,"хватить":13112,"изменения":13113,"толкнуть":13114,"обещают":13115,"ждёшь":13116,"уефа":13117,"прикиды":13118,"кажеться":13119,"мота":13120,"воо":13121,"человеческого":13122,"считая":13123,"встречают":13124,"выгляжу":13125,"спортсмен":13126,"китайская":13127,"отмечаете":13128,"sun":13129,"финлянди":13130,"ждой":13131,"привле":13132,"галки":13133,"гуляет":13134,"престу":13135,"человечество":13136,"сывают":13137,"неее":13138,"тайся":13139,"stra":13140,"облада":13141,"исполнении":13142,"туалетной":13143,"sle":13144,"адам":13145,"маха":13146,"чится":13147,"избра":13148,"гуру":13149,"маргари":13150,"племян":13151,"кормит":13152,"олив":13153,"распоря":13154,"дурной":13155,"медведя":13156,"информацию":13157,"увидела":13158,"полюби":13159,"вуд":13160,"подво":13161,"лучшем":13162,"краши":13163,"слаще":13164,"фек":13165,"надцать":13166,"длинная":13167,"английски":13168,"кержа":13169,"рекомендую":13170,"будильник":13171,"юно":13172,"линей":13173,"рекорд":13174,"значить":13175,"первыми":13176,"нравилось":13177,"выез":13178,"уважают":13179,"ногтя":13180,"николай":13181,"опуска":13182,"тком":13183,"договор":13184,"божь":13185,"перчат":13186,"коррек":13187,"скольку":13188,"услуги":13189,"джастин":13190,"bar":13191,"попой":13192,"росто":13193,"разреше":13194,"жары":13195,"хил":13196,"собственную":13197,"положи":13198,"бессон":13199,"глупее":13200,"гормона":13201,"попадает":13202,"подожди":13203,"mazda":13204,"деревен":13205,"уголь":13206,"тенни":13207,"яркий":13208,"пойдём":13209,"михаил":13210,"таблеток":13211,"дкой":13212,"йка":13213,"уделя":13214,"нешься":13215,"рож":13216,"ламина":13217,"излечи":13218,"думаем":13219,"простит":13220,"хозяина":13221,"ищем":13222,"чней":13223,"ноге":13224,"ливым":13225,"всеравно":13226,"ньо":13227,"бят":13228,"компе":13229,"девушках":13230,"лентя":13231,"морде":13232,"ненавидит":13233,"красоте":13234,"кузне":13235,"mitsu":13236,"rit":13237,"пт":13238,"роят":13239,"состо":13240,"проме":13241,"педик":13242,"парься":13243,"спира":13244,"молочные":13245,"замечать":13246,"назовете":13247,"характере":13248,"тёпло":13249,"веселый":13250,"прошёл":13251,"немецкой":13252,"печаль":13253,"проекта":13254,"запомнился":13255,"подобии":13256,"выключить":13257,"секас":13258,"ex":13259,"gle":13260,"win":13261,"жрет":13262,"поре":13263,"серые":13264,"чивые":13265,"сада":13266,"фильмец":13267,"спасение":13268,"летаю":13269,"boy":13270,"айфон":13271,"прощают":13272,"формула":13273,"просыпаться":13274,"гибдд":13275,"определяется":13276,"cer":13277,"сгоре":13278,"кинь":13279,"саться":13280,"мнее":13281,"лысо":13282,"оставля":13283,"остальным":13284,"любителей":13285,"гордиться":13286,"ванных":13287,"забываю":13288,"фигуру":13289,"закону":13290,"сумку":13291,"качествами":13292,"партнё":13293,"menya":13294,"ресторане":13295,"фальши":13296,"прозвище":13297,"макдональ":13298,"land":13299,"ппа":13300,"шш":13301,"насили":13302,"дением":13303,"вика":13304,"жигули":13305,"идёте":13306,"анаста":13307,"прын":13308,"средством":13309,"культура":13310,"ппц":13311,"приготовле":13312,"монитор":13313,"вегета":13314,"синтети":13315,"оду":13316,"эколо":13317,"нажра":13318,"веть":13319,"жажда":13320,"чуток":13321,"скинь":13322,"говой":13323,"плодо":13324,"оставляет":13325,"слабых":13326,"чувстве":13327,"черту":13328,"растений":13329,"передача":13330,"отзыв":13331,"парикмахер":13332,"увлаж":13333,"юрий":13334,"молит":13335,"запя":13336,"ютубе":13337,"совпадают":13338,"писатель":13339,"слышно":13340,"внедоро":13341,"стремятся":13342,"биологи":13343,"стимул":13344,"стадион":13345,"pochemu":13346,"hyundai":13347,"mitsubi":13348,"катя":13349,"ваний":13350,"респу":13351,"беге":13352,"сие":13353,"силе":13354,"цепти":13355,"стерили":13356,"чьего":13357,"троих":13358,"мальчишник":13359,"женились":13360,"носишь":13361,"горячее":13362,"упала":13363,"узнала":13364,"грызу":13365,"благодарить":13366,"определенно":13367,"мёд":13368,"гараж":13369,"гормоны":13370,"осущест":13371,"sja":13372,"толь":13373,"лишить":13374,"роме":13375,"рио":13376,"препода":13377,"вредный":13378,"клипы":13379,"связать":13380,"встретишь":13381,"отпускать":13382,"звезду":13383,"системы":13384,"йоркшир":13385,"ven":13386,"уходите":13387,"моль":13388,"заводит":13389,"руйте":13390,"лыжах":13391,"открыл":13392,"одиноким":13393,"берёт":13394,"двою":13395,"главнее":13396,"безответной":13397,"христи":13398,"дьявол":13399,"выпускной":13400,"as":13401,"lf":13402,"неси":13403,"недорогой":13404,"заплатить":13405,"ходь":13406,"бик":13407,"ктором":13408,"губки":13409,"чужими":13410,"гнев":13411,"эротические":13412,"котёнок":13413,"mon":13414,"мж":13415,"нде":13416,"торов":13417,"необычные":13418,"заходите":13419,"пина":13420,"делами":13421,"чулки":13422,"таков":13423,"втор":13424,"имеем":13425,"учитесь":13426,"чайник":13427,"chno":13428,"пьян":13429,"флирту":13430,"обещали":13431,"японские":13432,"девственница":13433,"аватарке":13434,"находясь":13435,"перечисли":13436,"иммунитет":13437,"нереально":13438,"поворо":13439,"сорок":13440,"ционер":13441,"оставляете":13442,"следовать":13443,"плохому":13444,"ческими":13445,"здоровым":13446,"нахрен":13447,"высоких":13448,"медведи":13449,"эффективный":13450,"обьяснить":13451,"подходящий":13452,"вправду":13453,"уму":13454,"товый":13455,"решают":13456,"веет":13457,"переса":13458,"русское":13459,"золота":13460,"редкость":13461,"sam":13462,"кнопка":13463,"сексуальность":13464,"аудио":13465,"поставле":13466,"чувствие":13467,"авито":13468,"xx":13469,"влюсь":13470,"некрасивых":13471,"воле":13472,"мамо":13473,"быстрая":13474,"бочки":13475,"пасту":13476,"облег":13477,"импотен":13478,"ментом":13479,"чертов":13480,"токси":13481,"убеди":13482,"наказывать":13483,"закрывать":13484,"графия":13485,"физио":13486,"реклам":13487,"заслужить":13488,"пошлые":13489,"суици":13490,"вшим":13491,"йогу":13492,"хвали":13493,"шков":13494,"рари":13495,"даётся":13496,"вился":13497,"сисек":13498,"тирать":13499,"пачка":13500,"обь":13501,"суда":13502,"ney":13503,"красным":13504,"двадцать":13505,"плечи":13506,"салатик":13507,"флир":13508,"шоколадку":13509,"стесняются":13510,"гнез":13511,"десяти":13512,"кристина":13513,"августе":13514,"are":13515,"злить":13516,"осты":13517,"вечной":13518,"готовь":13519,"тайну":13520,"одинокой":13521,"похожий":13522,"преимущества":13523,"республи":13524,"освет":13525,"сля":13526,"неудовлетво":13527,"личку":13528,"провод":13529,"гипер":13530,"желающие":13531,"попали":13532,"органы":13533,"поверишь":13534,"хххх":13535,"шрамы":13536,"фет":13537,"настроить":13538,"ложусь":13539,"шейся":13540,"ree":13541,"важней":13542,"задаете":13543,"получали":13544,"сумма":13545,"украину":13546,"дизайн":13547,"заботли":13548,"сущность":13549,"наступающим":13550,"номером":13551,"намазать":13552,"нескольких":13553,"василь":13554,"рости":13555,"виза":13556,"шев":13557,"батаре":13558,"правом":13559,"стене":13560,"секси":13561,"черным":13562,"использую":13563,"область":13564,"туалетная":13565,"остановиться":13566,"стиральной":13567,"приключений":13568,"клетку":13569,"принципиально":13570,"аду":13571,"еть":13572,"узе":13573,"непредсказу":13574,"проехать":13575,"пур":13576,"помол":13577,"бесконе":13578,"открытие":13579,"бриться":13580,"означают":13581,"заднего":13582,"покажут":13583,"перемены":13584,"запечь":13585,"потенци":13586,"годовщину":13587,"умуд":13588,"неадекват":13589,"косми":13590,"рачи":13591,"целых":13592,"церк":13593,"переез":13594,"летних":13595,"тельном":13596,"драя":13597,"существа":13598,"свободным":13599,"высокого":13600,"постельное":13601,"собрались":13602,"джун":13603,"бляет":13604,"сните":13605,"цкого":13606,"новыми":13607,"выгули":13608,"заказа":13609,"забывают":13610,"сестру":13611,"меняли":13612,"строят":13613,"зубки":13614,"армя":13615,"купишь":13616,"основное":13617,"покупает":13618,"звонят":13619,"половиной":13620,"внутренняя":13621,"отдыхаю":13622,"челкой":13623,"программе":13624,"ложись":13625,"сплошной":13626,"отключить":13627,"пушкина":13628,"om":13629,"взо":13630,"камеди":13631,"носталь":13632,"понадо":13633,"залез":13634,"гигие":13635,"фель":13636,"ствуете":13637,"всюду":13638,"победите":13639,"рождество":13640,"рования":13641,"необходимости":13642,"беременных":13643,"пожертвовать":13644,"юбилей":13645,"абра":13646,"бже":13647,"иско":13648,"смыть":13649,"точные":13650,"рожают":13651,"нива":13652,"кира":13653,"летов":13654,"прочие":13655,"луа":13656,"оружи":13657,"обижаются":13658,"карьеру":13659,"теория":13660,"теорети":13661,"достучаться":13662,"мсти":13663,"тость":13664,"карие":13665,"даме":13666,"залезть":13667,"отшить":13668,"всемир":13669,"сиро":13670,"разным":13671,"понят":13672,"душевного":13673,"веселые":13674,"фантасти":13675,"решению":13676,"обещания":13677,"штамп":13678,"йт":13679,"раскру":13680,"чес":13681,"жевать":13682,"маги":13683,"изма":13684,"делая":13685,"котэ":13686,"сваген":13687,"провода":13688,"высший":13689,"красави":13690,"закусывать":13691,"проснулись":13692,"шампанского":13693,"конфликт":13694,"ип":13695,"нэ":13696,"хлам":13697,"кули":13698,"вуль":13699,"известная":13700,"идеальной":13701,"товарищей":13702,"дзю":13703,"едут":13704,"усом":13705,"копа":13706,"ложе":13707,"кинг":13708,"правде":13709,"украшение":13710,"балконе":13711,"супруга":13712,"перестань":13713,"философи":13714,"укусить":13715,"богатство":13716,"хватало":13717,"впрочем":13718,"ирина":13719,"загоре":13720,"риску":13721,"ныть":13722,"проиграл":13723,"гада":13724,"цирк":13725,"кармли":13726,"занятий":13727,"движет":13728,"зайдите":13729,"кошкам":13730,"угадать":13731,"исполни":13732,"помешать":13733,"интересуют":13734,"спасёт":13735,"ахах":13736,"ввести":13737,"дди":13738,"выхожу":13739,"кина":13740,"чито":13741,"щенки":13742,"сложи":13743,"брату":13744,"спортивные":13745,"получила":13746,"восход":13747,"местами":13748,"октября":13749,"повлиять":13750,"вола":13751,"прох":13752,"старень":13753,"работай":13754,"обою":13755,"важные":13756,"испытывать":13757,"приличная":13758,"незнакомым":13759,"помойму":13760,"мороженное":13761,"лысые":13762,"сектор":13763,"бока":13764,"динами":13765,"развлечь":13766,"денья":13767,"спасать":13768,"одеться":13769,"победи":13770,"болга":13771,"получаешь":13772,"фантази":13773,"достойный":13774,"эроге":13775,"температуры":13776,"возбуждают":13777,"бросает":13778,"подмосковье":13779,"увижу":13780,"рубить":13781,"жам":13782,"правят":13783,"слая":13784,"фары":13785,"смеюсь":13786,"занимаешься":13787,"кричат":13788,"почте":13789,"душевный":13790,"line":13791,"вкусной":13792,"ласковые":13793,"жестоко":13794,"героев":13795,"раствори":13796,"поговорим":13797,"микроволнов":13798,"жья":13799,"уложить":13800,"камаз":13801,"теры":13802,"зак":13803,"татар":13804,"лат":13805,"проце":13806,"бицеп":13807,"служит":13808,"тянется":13809,"позвать":13810,"теряешь":13811,"нервов":13812,"транспорте":13813,"передач":13814,"известные":13815,"образования":13816,"институт":13817,"июля":13818,"последним":13819,"запрещено":13820,"авангард":13821,"сыла":13822,"чёрт":13823,"нейтра":13824,"евгений":13825,"предпочитает":13826,"гуляй":13827,"фигуры":13828,"катастро":13829,"металлу":13830,"крупные":13831,"депресси":13832,"августа":13833,"mitsubishi":13834,"ющего":13835,"заглу":13836,"куни":13837,"мети":13838,"годам":13839,"двум":13840,"хахахаха":13841,"цепля":13842,"пальцев":13843,"превратиться":13844,"узбе":13845,"сматривать":13846,"гаранти":13847,"бальзам":13848,"дождаться":13849,"варю":13850,"нифер":13851,"бочку":13852,"больная":13853,"совпадает":13854,"помнят":13855,"слышит":13856,"полезным":13857,"брюс":13858,"билл":13859,"энерги":13860,"борьбе":13861,"пробег":13862,"тренаже":13863,"бразилия":13864,"тосол":13865,"копче":13866,"погла":13867,"вызывать":13868,"заз":13869,"дипло":13870,"избегать":13871,"помогли":13872,"умными":13873,"совпа":13874,"бесплатные":13875,"пилить":13876,"горячие":13877,"здравый":13878,"лошадей":13879,"предлагать":13880,"реквием":13881,"орехи":13882,"солнечный":13883,"тянутся":13884,"христо":13885,"мотиви":13886,"хем":13887,"поближе":13888,"голые":13889,"чешу":13890,"ченное":13891,"верное":13892,"служить":13893,"мерс":13894,"грустная":13895,"требовать":13896,"лесбия":13897,"картошкой":13898,"говна":13899,"блинчики":13900,"фантастика":13901,"встает":13902,"девочкам":13903,"кормлю":13904,"нижнего":13905,"салют":13906,"экспери":13907,"car":13908,"устав":13909,"увидели":13910,"течет":13911,"значат":13912,"обмо":13913,"геи":13914,"счастливых":13915,"ath":13916,"салават":13917,"измениться":13918,"соответствую":13919,"девственник":13920,"расслабиться":13921,"окончательно":13922,"виктория":13923,"bra":13924,"гнал":13925,"сб":13926,"раско":13927,"робер":13928,"заж":13929,"затащить":13930,"сокрови":13931,"тиях":13932,"миня":13933,"сковоро":13934,"образу":13935,"мят":13936,"плакали":13937,"порождает":13938,"занимайся":13939,"этаже":13940,"ant":13941,"мальчикам":13942,"повторять":13943,"футбольная":13944,"количеством":13945,"когти":13946,"властелин":13947,"mes":13948,"ата":13949,"лана":13950,"быдло":13951,"приу":13952,"гадости":13953,"кримина":13954,"орхи":13955,"радуюсь":13956,"душкой":13957,"теплой":13958,"трахнуть":13959,"смелости":13960,"огород":13961,"ролик":13962,"сено":13963,"бон":13964,"паста":13965,"мужиком":13966,"ano":13967,"средств":13968,"психологу":13969,"брита":13970,"ris":13971,"les":13972,"графию":13973,"олигар":13974,"американская":13975,"активи":13976,"выграет":13977,"повер":13978,"поправиться":13979,"вазе":13980,"матра":13981,"издели":13982,"щении":13983,"подсозна":13984,"чуточку":13985,"имели":13986,"черки":13987,"порошок":13988,"new":13989,"идеале":13990,"толстой":13991,"девча":13992,"берё":13993,"появиться":13994,"восста":13995,"гармони":13996,"сердечко":13997,"площади":13998,"пистолет":13999,"заморачи":14000,"плет":14001,"спереди":14002,"эст":14003,"нажи":14004,"подоро":14005,"пеше":14006,"больнице":14007,"траге":14008,"умении":14009,"нюхать":14010,"пойм":14011,"счастливое":14012,"берёшь":14013,"товарищи":14014,"одеялом":14015,"обалде":14016,"устойчи":14017,"неют":14018,"кун":14019,"сообра":14020,"соус":14021,"прогло":14022,"подгото":14023,"пузо":14024,"страхи":14025,"концов":14026,"тятся":14027,"киеве":14028,"попробо":14029,"достала":14030,"идее":14031,"бывшему":14032,"помеша":14033,"теплое":14034,"сыграет":14035,"повышает":14036,"обманывают":14037,"вчерашний":14038,"stein":14039,"потряса":14040,"оптимальный":14041,"администрации":14042,"мле":14043,"спре":14044,"дени":14045,"доли":14046,"сье":14047,"ряете":14048,"подвес":14049,"гидро":14050,"скин":14051,"близне":14052,"звони":14053,"миллионов":14054,"активно":14055,"невыноси":14056,"младен":14057,"уволи":14058,"бабе":14059,"бакла":14060,"обье":14061,"фов":14062,"завидую":14063,"обоим":14064,"стрель":14065,"мягче":14066,"позволяют":14067,"сфере":14068,"девять":14069,"фитнес":14070,"мня":14071,"схожу":14072,"кази":14073,"щеко":14074,"мнем":14075,"точное":14076,"здоровые":14077,"shto":14078,"объявление":14079,"симпатичные":14080,"шерсти":14081,"нижний":14082,"ахахаха":14083,"посмотрела":14084,"хую":14085,"нон":14086,"равен":14087,"жества":14088,"любиш":14089,"нюха":14090,"бессо":14091,"телеку":14092,"поступаете":14093,"пропала":14094,"обезьяны":14095,"подарков":14096,"изучать":14097,"жрут":14098,"волей":14099,"дожде":14100,"луче":14101,"сьесть":14102,"странное":14103,"холодные":14104,"девочкой":14105,"goo":14106,"защит":14107,"sia":14108,"исключения":14109,"напрягает":14110,"лысый":14111,"каешь":14112,"камеру":14113,"кошкой":14114,"побо":14115,"риса":14116,"лечения":14117,"сое":14118,"пробки":14119,"тику":14120,"щенный":14121,"мужском":14122,"тушка":14123,"больницу":14124,"сделаны":14125,"курил":14126,"добавля":14127,"амкар":14128,"заметил":14129,"прощаете":14130,"стоило":14131,"прогулки":14132,"швед":14133,"рассчиты":14134,"копейки":14135,"len":14136,"незна":14137,"гость":14138,"голый":14139,"выно":14140,"выпла":14141,"выдер":14142,"хождение":14143,"ковский":14144,"триллер":14145,"желают":14146,"смея":14147,"этажа":14148,"ходятся":14149,"извини":14150,"разбираться":14151,"сная":14152,"почер":14153,"постирать":14154,"робин":14155,"заработ":14156,"засыпать":14157,"приносить":14158,"шила":14159,"галь":14160,"подходить":14161,"пухо":14162,"глазу":14163,"помогла":14164,"образе":14165,"золотое":14166,"защищать":14167,"любовный":14168,"ужина":14169,"обрезать":14170,"твёр":14171,"осаго":14172,"блэк":14173,"ночевать":14174,"находить":14175,"рональ":14176,"чистите":14177,"творится":14178,"врожде":14179,"nokia":14180,"дорогах":14181,"огурец":14182,"снегуро":14183,"флей":14184,"ён":14185,"затор":14186,"башке":14187,"детях":14188,"поспи":14189,"глазы":14190,"стекля":14191,"терь":14192,"быстрого":14193,"волки":14194,"ramm":14195,"берётся":14196,"угады":14197,"белору":14198,"зрели":14199,"разговоре":14200,"джор":14201,"шашлыки":14202,"покажу":14203,"ченных":14204,"лазаре":14205,"шеф":14206,"разводи":14207,"браки":14208,"уважает":14209,"жизненная":14210,"привязанность":14211,"мгнове":14212,"нхл":14213,"ненужно":14214,"голыми":14215,"водоро":14216,"сина":14217,"приехать":14218,"керы":14219,"бросит":14220,"отличает":14221,"глубже":14222,"стрел":14223,"домашней":14224,"симпатия":14225,"героя":14226,"принцесса":14227,"lt":14228,"up":14229,"вставля":14230,"редь":14231,"мез":14232,"жаем":14233,"верная":14234,"подозре":14235,"объяснять":14236,"vot":14237,"иисус":14238,"какао":14239,"prosto":14240,"выращивать":14241,"успокаивает":14242,"олег":14243,"сцу":14244,"кагда":14245,"мозо":14246,"пиани":14247,"безуми":14248,"переры":14249,"берег":14250,"ссор":14251,"предложили":14252,"хлоп":14253,"уверенным":14254,"опасный":14255,"сочетается":14256,"ревнуют":14257,"оторваться":14258,"овчарки":14259,"ak":14260,"гле":14261,"свалить":14262,"фрей":14263,"неповтори":14264,"задает":14265,"подни":14266,"пойдут":14267,"средне":14268,"пускаете":14269,"придти":14270,"интеллекту":14271,"сухое":14272,"гольф":14273,"воспа":14274,"разря":14275,"стенку":14276,"добром":14277,"luch":14278,"хоккею":14279,"приедет":14280,"инстинк":14281,"обсуждать":14282,"дополни":14283,"грубость":14284,"потихо":14285,"лицен":14286,"виз":14287,"милой":14288,"редкий":14289,"ванна":14290,"ааааа":14291,"сложное":14292,"получаются":14293,"амби":14294,"сочинение":14295,"обстоятельствах":14296,"em":14297,"mc":14298,"дёр":14299,"свар":14300,"назначение":14301,"нефиг":14302,"копать":14303,"попол":14304,"селя":14305,"стами":14306,"детским":14307,"машинки":14308,"горохо":14309,"свиньи":14310,"найдёт":14311,"качественно":14312,"судья":14313,"мультика":14314,"сняться":14315,"бабам":14316,"километров":14317,"lla":14318,"икра":14319,"катится":14320,"вторым":14321,"концу":14322,"расстраи":14323,"трубку":14324,"греции":14325,"назой":14326,"балкон":14327,"целиком":14328,"тональный":14329,"предпочли":14330,"государство":14331,"дры":14332,"шня":14333,"кажись":14334,"вата":14335,"ранее":14336,"дойти":14337,"ходов":14338,"чаются":14339,"гусе":14340,"скука":14341,"шума":14342,"ином":14343,"chen":14344,"полезней":14345,"ланхо":14346,"скольз":14347,"предложи":14348,"покупал":14349,"счета":14350,"sami":14351,"отдыхаете":14352,"единственное":14353,"iu":14354,"мёр":14355,"умо":14356,"нелов":14357,"погод":14358,"засту":14359,"боимся":14360,"сигна":14361,"разного":14362,"знаний":14363,"жители":14364,"трассе":14365,"ответила":14366,"спеши":14367,"маловато":14368,"дрова":14369,"алкогольный":14370,"сохранять":14371,"фольк":14372,"листо":14373,"выбери":14374,"каку":14375,"дочкой":14376,"лечеб":14377,"меняться":14378,"суки":14379,"встречала":14380,"продажи":14381,"начните":14382,"дождли":14383,"отказывать":14384,"эгоист":14385,"дверью":14386,"бумаги":14387,"мурашки":14388,"ольга":14389,"ft":14390,"накло":14391,"литро":14392,"рождает":14393,"даре":14394,"реке":14395,"регули":14396,"сец":14397,"безал":14398,"придержи":14399,"жуть":14400,"правильнее":14401,"пятый":14402,"слушаться":14403,"петух":14404,"российского":14405,"бельё":14406,"показал":14407,"долгие":14408,"потолстеть":14409,"ромео":14410,"lju":14411,"лор":14412,"купе":14413,"самец":14414,"приди":14415,"суха":14416,"стереть":14417,"крыши":14418,"желанию":14419,"называю":14420,"символи":14421,"живётся":14422,"lea":14423,"изменяете":14424,"практика":14425,"энергия":14426,"охотно":14427,"испытать":14428,"green":14429,"дрю":14430,"утом":14431,"френ":14432,"сера":14433,"рился":14434,"чивают":14435,"рубри":14436,"принес":14437,"трахать":14438,"влению":14439,"пятки":14440,"нахрена":14441,"анальный":14442,"бывшую":14443,"реагирует":14444,"ирония":14445,"сфи":14446,"ушах":14447,"подержа":14448,"ресур":14449,"рический":14450,"вселенная":14451,"творит":14452,"клавиа":14453,"цветочки":14454,"голубая":14455,"расставание":14456,"жирные":14457,"разврат":14458,"наста":14459,"костей":14460,"сения":14461,"привод":14462,"гивать":14463,"сложные":14464,"доброту":14465,"избавить":14466,"днях":14467,"жирная":14468,"ющихся":14469,"замечательно":14470,"употребляете":14471,"уберечь":14472,"топо":14473,"льда":14474,"тапочки":14475,"отнес":14476,"чике":14477,"тигр":14478,"ряются":14479,"конвер":14480,"ответам":14481,"тролли":14482,"сделан":14483,"близкими":14484,"дуракам":14485,"привыкла":14486,"радуетесь":14487,"напишу":14488,"мелочь":14489,"улыбаетесь":14490,"анализы":14491,"fore":14492,"актеры":14493,"зимней":14494,"разглядеть":14495,"кпд":14496,"can":14497,"oo":14498,"абор":14499,"каро":14500,"вожу":14501,"вызыва":14502,"седан":14503,"панк":14504,"шило":14505,"тупи":14506,"летним":14507,"глянь":14508,"ботинки":14509,"главных":14510,"чужому":14511,"памят":14512,"bor":14513,"милого":14514,"начальника":14515,"ближайшие":14516,"трезвый":14517,"виртуального":14518,"задуматься":14519,"размножаются":14520,"йогурт":14521,"емо":14522,"кальян":14523,"рабы":14524,"зашла":14525,"дида":14526,"прису":14527,"обры":14528,"множество":14529,"стоял":14530,"цветка":14531,"береги":14532,"влюблена":14533,"звоните":14534,"психически":14535,"поднимаете":14536,"операцию":14537,"африкан":14538,"завидуете":14539,"жертвы":14540,"гараже":14541,"неж":14542,"попытаться":14543,"ваго":14544,"ватив":14545,"родом":14546,"выле":14547,"телу":14548,"загран":14549,"соски":14550,"духом":14551,"гадать":14552,"стиля":14553,"мальная":14554,"открыли":14555,"новосибир":14556,"угадаете":14557,"способов":14558,"ассоциация":14559,"попку":14560,"иллюзии":14561,"лифте":14562,"растает":14563,"избавляетесь":14564,"бриллиан":14565,"чю":14566,"насо":14567,"понос":14568,"отмени":14569,"вены":14570,"диет":14571,"тупее":14572,"компот":14573,"шорты":14574,"деньгам":14575,"рабочее":14576,"нужные":14577,"игнор":14578,"приветики":14579,"подогре":14580,"берёте":14581,"отказывается":14582,"расставания":14583,"фруктов":14584,"порядочный":14585,"budet":14586,"знаменитостей":14587,"флю":14588,"попла":14589,"поработать":14590,"задержи":14591,"бим":14592,"цикл":14593,"пыли":14594,"кладут":14595,"климат":14596,"открытый":14597,"стартер":14598,"невероят":14599,"заставлять":14600,"прививку":14601,"жертву":14602,"черепаха":14603,"сволочь":14604,"подключить":14605,"ben":14606,"смай":14607,"тнт":14608,"ути":14609,"наполе":14610,"лита":14611,"голым":14612,"перее":14613,"сладень":14614,"горячая":14615,"разрешает":14616,"целуют":14617,"приставать":14618,"искал":14619,"комментарии":14620,"баланс":14621,"акинфеев":14622,"rammstein":14623,"огла":14624,"нехватает":14625,"ночных":14626,"вынести":14627,"лений":14628,"кукла":14629,"лух":14630,"ценно":14631,"губо":14632,"многом":14633,"редкое":14634,"обидел":14635,"идиоты":14636,"бывшими":14637,"высшая":14638,"перестаёт":14639,"здрасти":14640,"мурлы":14641,"ухода":14642,"объект":14643,"длиннее":14644,"худший":14645,"нс":14646,"упорно":14647,"цкие":14648,"кобы":14649,"гоп":14650,"восемь":14651,"левое":14652,"шея":14653,"стадии":14654,"бару":14655,"зовый":14656,"будущий":14657,"обижают":14658,"смешное":14659,"брюне":14660,"возбудить":14661,"бразиль":14662,"президента":14663,"безалкого":14664,"ski":14665,"неизвестно":14666,"лимона":14667,"ничо":14668,"кипе":14669,"чику":14670,"тиву":14671,"приобрете":14672,"паци":14673,"бальной":14674,"сухие":14675,"оставил":14676,"стул":14677,"rock":14678,"психолога":14679,"продаётся":14680,"совершать":14681,"песенки":14682,"завтрашний":14683,"дядьки":14684,"ревнивый":14685,"устранить":14686,"брез":14687,"налить":14688,"кост":14689,"левую":14690,"живого":14691,"пастой":14692,"переделать":14693,"пересту":14694,"грустить":14695,"песней":14696,"советуют":14697,"смеша":14698,"попрошу":14699,"групп":14700,"стервой":14701,"технику":14702,"джип":14703,"отсутствует":14704,"платили":14705,"размеры":14706,"aa":14707,"вт":14708,
[...]
