{"version":"1.0","truncation":null,"padding":null,"added_tokens":[{"id":0,"special":true,"content":"[UNK]","single_word":false,"lstrip":false,"rstrip":false,"normalized":false},{"id":1,"special":true,"content":"[EOS]","single_word":false,"lstrip":false,"rstrip":false,"normalized":false},{"id":2,"special":true,"content":"[BOS]","single_word":false,"lstrip":false,"rstrip":false,"normalized":false},{"id":3,"special":true,"content":"[PAD]","single_word":false,"lstrip":false,"rstrip":false,"normalized":false}],"normalizer":null,"pre_tokenizer":{"type":"Whitespace"},"post_processor":null,"decoder":null,"model":{"type":"BPE","dropout":null,"unk_token":null,"continuing_subword_prefix":null,"end_of_word_suffix":null,"fuse_unk":false,"vocab":{"[UNK]":0,"[EOS]":1,"[BOS]":2,"[PAD]":3,"\b":4,"\u0014":5,"\u001d":6,"!":7,"\"":8,"#":9,"$":10,"%":11,"&":12,"'":13,"(":14,")":15,"*":16,"+":17,",":18,"-":19,".":20,"/":21,"0":22,"1":23,"2":24,"3":25,"4":26,"5":27,"6":28,"7":29,"8":30,"9":31,":":32,";":33,"<":34,"=":35,">":36,"?":37,"@":38,"[":39,"\\":40,"]":41,"^":42,"_":43,"`":44,"a":45,"b":46,"c":47,"d":48,"e":49,"f":50,"g":51,"h":52,"i":53,"j":54,"k":55,"l":56,"m":57,"n":58,"o":59,"p":60,"q":61,"r":62,"s":63,"t":64,"u":65,"v":66,"w":67,"x":68,"y":69,"z":70,"{":71,"|":72,"}":73,"~":74,"":75,"¡":76,"¢":77,"£":78,"¤":79,"¥":80,"¦":81,"§":82,"¨":83,"©":84,"ª":85,"«":86,"¬":87,"­":88,"®":89,"¯":90,"°":91,"±":92,"²":93,"³":94,"´":95,"µ":96,"¶":97,"·":98,"¸":99,"¹":100,"º":101,"»":102,"¼":103,"¿":104,"×":105,"ß":106,"à":107,"á":108,"â":109,"ã":110,"ä":111,"å":112,"æ":113,"ç":114,"è":115,"é":116,"ê":117,"ë":118,"ì":119,"í":120,"î":121,"ï":122,"ð":123,"ñ":124,"ò":125,"ó":126,"ô":127,"õ":128,"ö":129,"÷":130,"ø":131,"ù":132,"ú":133,"û":134,"ü":135,"ý":136,"ā":137,"ă":138,"ą":139,"ć":140,"č":141,"đ":142,"ē":143,"ė":144,"ę":145,"ě":146,"ğ":147,"ħ":148,"ī":149,"ı":150,"ļ":151,"ł":152,"ń":153,"ņ":154,"ň":155,"ō":156,"ŕ":157,"ř":158,"ś":159,"ş":160,"š":161,"ţ":162,"ť":163,"ū":164,"ų":165,"ŵ":166,"ż":167,"ž":168,"ƙ":169,"ƨ":170,"ư":171,"ƴ":172,"ƹ":173,"ǝ":174,"ǿ":175,"ȼ":176,"ɐ":177,"ɑ":178,"ɓ":179,"ɔ":180,"ə":181,"ɜ":182,"ɞ":183,"ɯ":184,"ɹ":185,"ʁ":186,"ʊ":187,"ʌ":188,"ʎ":189,"ʒ":190,"ʖ":191,"ʚ":192,"ʞ":193,"ʰ":194,"ʲ":195,"ʹ":196,"ˆ":197,"ˇ":198,"ˈ":199,"ˍ":200,"ː":201,"˙":202,"˚":203,"˛":204,"˜":205,"˝":206,"́":207,"̃":208,"̄":209,"̅":210,"̆":211,"̇":212,"̉":213,"̡":214,"̨":215,"̮":216,"̯":217,"̲":218,"̵":219,"̶":220,"̾":221,"͜":222,"͠":223,"͡":224,"΄":225,"΅":226,"·":227,"ά":228,"έ":229,"ή":230,"ί":231,"ΰ":232,"α":233,"β":234,"γ":235,"δ":236,"ε":237,"ζ":238,"η":239,"θ":240,"ι":241,"κ":242,"λ":243,"μ":244,"ν":245,"ξ":246,"ο":247,"π":248,"ρ":249,"ς":250,"σ":251,"τ":252,"υ":253,"φ":254,"χ":255,"ω":256,"ό":257,"ύ":258,"ώ":259,"ϟ":260,"ϼ":261,"а":262,"б":263,"в":264,"г":265,"д":266,"е":267,"ж":268,"з":269,"и":270,"й":271,"к":272,"л":273,"м":274,"н":275,"о":276,"п":277,"р":278,"с":279,"т":280,"у":281,"ф":282,"х":283,"ц":284,"ч":285,"ш":286,"щ":287,"ъ":288,"ы":289,"ь":290,"э":291,"ю":292,"я":293,"ё":294,"ђ":295,"ѓ":296,"є":297,"ѕ":298,"і":299,"ї":300,"ј":301,"љ":302,"њ":303,"ћ":304,"ќ":305,"ѝ":306,"ў":307,"џ":308,"ѡ":309,"ѣ":310,"ѳ":311,"ѻ":312,"҂":313,"҉":314,"ґ":315,"ғ":316,"җ":317,"қ":318,"ҡ":319,"ң":320,"ҫ":321,"ү":322,"ұ":323,"һ":324,"ӕ":325,"ӗ":326,"ә":327,"ӝ":328,"ӡ":329,"ӧ":330,"ө":331,"ԋ":332,"ա":333,"բ":334,"գ":335,"ե":336,"է":337,"ը":338,"թ":339,"ի":340,"լ":341,"խ":342,"ծ":343,"կ":344,"հ":345,"ղ":346,"մ":347,"յ":348,"ն":349,"շ":350,"ո":351,"չ":352,"պ":353,"ռ":354,"ս":355,"վ":356,"տ":357,"ր":358,"ց":359,"ւ":360,"փ":361,"ք":362,"և":363,"ְ":364,"ֱ":365,"ֲ":366,"ֳ":367,"ִ":368,"ֶ":369,"ַ":370,"ָ":371,"ֹ":372,"ֻ":373,"ּ":374,"א":375,"ב":376,"ג":377,"ה":378,"ו":379,"ז":380,"ח":381,"י":382,"כ":383,"ל":384,"ם":385,"מ":386,"נ":387,"ס":388,"ע":389,"פ":390,"ץ":391,"ק":392,"ר":393,"ש":394,"ת":395,"ײ":396,"؎":397,"؟":398,"ء":399,"آ":400,"أ":401,"ؤ":402,"إ":403,"ا":404,"ب":405,"ة":406,"ت":407,"ث":408,"ج":409,"ح":410,"خ":411,"د":412,"ذ":413,"ر":414,"ز":415,"س":416,"ش":417,"ص":418,"ط":419,"ع":420,"غ":421,"ف":422,"ق":423,"ك":424,"ل":425,"م":426,"ن":427,"ه":428,"و":429,"ى":430,"ي":431,"ّ":432,"٤":433,"٩":434,"٭":435,"پ":436,"ړ":437,"ڣ":438,"ک":439,"ں":440,"ہ":441,"ی":442,"ے":443,"۞":444,"۩":445,"۶":446,"ܓ":447,"ँ":448,"ं":449,"क":450,"त":451,"द":452,"प":453,"म":454,"य":455,"र":456,"ल":457,"व":458,"स":459,"ह":460,"ा":461,"ि":462,"ी":463,"ु":464,"ू":465,"ृ":466,"े":467,"ै":468,"्":469,"গ":470,"ঙ":471,"ত":472,"ন":473,"ব":474,"ম":475,"য":476,"স":477,"ে":478,"ৌ":479,"্":480,"இ":481,"ஐ":482,"ஜ":483,"ಠ":484,"ง":485,"ๆ":486,"๏":487,"๑":488,"ໂ":489,"ა":490,"ბ":491,"გ":492,"დ":493,"ე":494,"ვ":495,"ზ":496,"თ":497,"ი":498,"კ":499,"ლ":500,"მ":501,"ნ":502,"ო":503,"რ":504,"ს":505,"ტ":506,"უ":507,"ქ":508,"ღ":509,"ყ":510,"შ":511,"ძ":512,"წ":513,"ხ":514,"ჯ":515,"ᅠ":516,"ዙ":517,"ᖇ":518,"ᦕ":519,"ᴍ":520,"ᴑ":521,"ᴵ":522,"ᴷ":523,"ᴸ":524,"ᵰ":525,"ḗ":526,"ḿ":527,"ẵ":528,"ế":529,"ố":530,"ổ":531,"ớ":532,"ợ":533,"ἰ":534,"ὐ":535,"​":536,"‎":537,"‏":538,"‑":539,"‒":540,"–":541,"—":542,"―":543,"‘":544,"’":545,"‚":546,"“":547,"”":548,"„":549,"†":550,"‡":551,"•":552,"…":553,"‧":554,"‰":555,"′":556,"″":557,"‹":558,"›":559,"‿":560,"⁄":561,"⁉":562,"⁠":563,"⁡":564,"ⁿ":565,"₁":566,"₂":567,"₈":568,"₉":569,"ₐ":570,"ₓ":571,"€":572,"₴":573,"₽":574,"℃":575,"℅":576,"№":577,"ℛ":578,"™":579,"ℤ":580,"ℯ":581,"⅝":582,"←":583,"↑":584,"→":585,"↓":586,"↔":587,"↕":588,"↖":589,"↗":590,"↘":591,"↙":592,"↜":593,"↝":594,"↨":595,"↻":596,"⇌":597,"⇓":598,"⇛":599,"∂":600,"∆":601,"∈":602,"∏":603,"∑":604,"−":605,"∓":606,"∔":607,"∕":608,"∗":609,"∘":610,"∙":611,"√":612,"∞":613,"∩":614,"∫":615,"∮":616,"∱":617,"∲":618,"∳":619,"∼":620,"≈":621,"≤":622,"≭":623,"⊙":624,"⊥":625,"⋅":626,"⌐":627,"⌒":628,"⎝":629,"⎠":630,"⏝":631,"⏠":632,"ⓐ":633,"ⓔ":634,"ⓚ":635,"ⓟ":636,"ⓡ":637,"ⓢ":638,"ⓤ":639,"ⓥ":640,"ⓨ":641,"─":642,"━":643,"│":644,"┬":645,"┻":646,"╙":647,"╜":648,"╝":649,"╭":650,"╮":651,"╯":652,"╰":653,"╱":654,"╲":655,"▁":656,"▂":657,"█":658,"▒":659,"■":660,"□":661,"▬":662,"▲":663,"▶":664,"►":665,"▼":666,"▽":667,"◄":668,"○":669,"●":670,"◐":671,"◑":672,"◔":673,"◕":674,"◠":675,"◡":676,"◢":677,"◣":678,"☀":679,"☁":680,"☂":681,"★":682,"☆":683,"☎":684,"☑":685,"☕":686,"☜":687,"☝":688,"☞":689,"☺":690,"☻":691,"☼":692,"☾":693,"♀":694,"♂":695,"♌":696,"♍":697,"♔":698,"♛":699,"♝":700,"♠":701,"♡":702,"♣":703,"♤":704,"♥":705,"♦":706,"♧":707,"♪":708,"♫":709,"♬":710,"♭":711,"⚡":712,"⚽":713,"✊":714,"✋":715,"✌":716,"✍":717,"✓":718,"✔":719,"✜":720,"✝":721,"✨":722,"✪":723,"✫":724,"✴":725,"✿":726,"❀":727,"❃":728,"❄":729,"❇":730,"❈":731,"❉":732,"❓":733,"❔":734,"❕":735,"❣":736,"❤":737,"❥":738,"❦":739,"❧":740,"❶":741,"➕":742,"➜":743,"➝":744,"➡":745,"➥":746,"➨":747,"➪":748,"➽":749,"⬇":750,"、":751,"。":752,"《":753,"》":754,"〖":755,"〗":756,"〰":757,"〴":758,"あ":759,"い":760,"う":761,"お":762,"か":763,"が":764,"き":765,"く":766,"け":767,"ご":768,"さ":769,"し":770,"じ":771,"す":772,"せ":773,"そ":774,"た":775,"だ":776,"っ":777,"て":778,"で":779,"ど":780,"な":781,"ね":782,"の":783,"は":784,"ば":785,"ま":786,"も":787,"ゃ":788,"ゅ":789,"よ":790,"ら":791,"る":792,"れ":793,"わ":794,"ゐ":795,"を":796,"ん":797,"ゝ":798,"ア":799,"イ":800,"キ":801,"ク":802,"ケ":803,"ゲ":804,"ゴ":805,"シ":806,"ジ":807,"ス":808,"セ":809,"タ":810,"ダ":811,"ッ":812,"ツ":813,"ヅ":814,"ニ":815,"ノ":816,"パ":817,"ブ":818,"ヘ":819,"ボ":820,"マ":821,"ム":822,"メ":823,"ャ":824,"ュ":825,"ラ":826,"リ":827,"ル":828,"ロ":829,"ン":830,"ー":831,"ㅠ":832,"㋛":833,"㋡":834,"万":835,"上":836,"不":837,"中":838,"为":839,"之":840,"了":841,"事":842,"于":843,"互":844,"亚":845,"京":846,"人":847,"介":848,"但":849,"作":850,"你":851,"使":852,"俄":853,"保":854,"傳":855,"克":856,"其":857,"円":858,"利":859,"到":860,"勉":861,"勝":862,"化":863,"印":864,"厥":865,"友":866,"反":867,"叫":868,"吃":869,"和":870,"品":871,"哈":872,"員":873,"商":874,"喜":875,"噢":876,"因":877,"国":878,"在":879,"士":880,"夜":881,"天":882,"太":883,"奄":884,"奋":885,"女":886,"好":887,"妖":888,"子":889,"它":890,"守":891,"安":892,"完":893,"密":894,"寫":895,"对":896,"小":897,"屄":898,"屌":899,"山":900,"嵬":901,"川":902,"平":903,"幸":904,"広":905,"店":906,"度":907,"康":908,"廣":909,"強":910,"彡":911,"彼":912,"得":913,"心":914,"必":915,"怕":916,"恐":917,"惡":918,"感":919,"我":920,"戦":921,"戯":922,"所":923,"手":924,"打":925,"払":926,"投":927,"护":928,"拳":929,"挖":930,"挙":931,"摩":932,"撒":933,"支":934,"收":935,"敢":936,"斗":937,"斯":938,"日":939,"明":940,"是":941,"普":942,"會":943,"月":944,"有":945,"本":946,"極":947,"此":948,"武":949,"民":950,"泰":951,"涼":952,"漢":953,"澤":954,"瀬":955,"為":956,"爱":957,"物":958,"狠":959,"猁":960,"猞":961,"猫":962,"球":963,"産":964,"画":965,"的":966,"益":967,"盖":968,"直":969,"真":970,"知":971,"神":972,"票":973,"福":974,"私":975,"秘":976,"空":977,"站":978,"籍":979,"素":980,"統":981,"綾":982,"网":983,"羅":984,"美":985,"翻":986,"者":987,"联":988,"背":989,"能":990,"芥":991,"草":992,"菲":993,"虎":994,"西":995,"要":996,"覆":997,"訳":998,"語":999,"說":1000,"調":1001,"謝":1002,"譯":1003,"记":1004,"谓":1005,"足":1006,"道":1007,"達":1008,"選":1009,"野":1010,"金":1011,"集":1012,"鞋":1013,"音":1014,"駑":1015,"騒":1016,"魏":1017,"鵜":1018,"鹿":1019,"黒":1020,"龍":1021,"ꙁ":1022,"ꙑ":1023,"ꮑ":1024,"가":1025,"나":1026,"녕":1027,"는":1028,"당":1029,"똑":1030,"루":1031,"름":1032,"세":1033,"수":1034,"신":1035,"안":1036,"요":1037,"을":1038,"의":1039,"이":1040,"있":1041,"하":1042,"할":1043,"호":1044,"":1045,"﴾":1046,"︎":1047,"️":1048,"︖":1049,"︶":1050,"︹":1051,"︺":1052,"︿":1053,"﹏":1054,"﻿":1055,"！":1056,"％":1057,"（":1058,"）":1059,"＋":1060,"，":1061,"－":1062,"／":1063,"：":1064,"？":1065,"｡":1066,"･":1067,"ｪ":1068,"ｼ":1069,"ﾟ":1070,"￣":1071,"￥":1072,"￼":1073,"🍅":1074,"🍞":1075,"🍳":1076,"👖":1077,"👘":1078,"👠":1079,"👭":1080,"😉":1081,"🚘":1082,"то":1083,"ка":1084,"на":1085,"ть":1086,"не":1087,"но":1088,"по":1089,"ко":1090,"ра":1091,"ли":1092,"ет":1093,"ро":1094,"ва":1095,"ни":1096,"ст":1097,"го":1098,"да":1099,"че":1100,"во":1101,"мо":1102,"де":1103,"те":1104,"ре":1105,"ль":1106,"вы":1107,"что":1108,"за":1109,"ла":1110,"ло":1111,"се":1112,"та":1113,"ри":1114,"му":1115,"ся":1116,"ки":1117,"ма":1118,"ме":1119,"ве":1120,"до":1121,"ны":1122,"же":1123,"бо":1124,"лю":1125,"как":1126,"ле":1127,"хо":1128,"бы":1129,"ви":1130,"чи":1131,"от":1132,"ес":1133,"ку":1134,"со":1135,"ди":1136,"про":1137,"ше":1138,"ру":1139,"жи":1140,"это":1141,"ну":1142,"ча":1143,"ми":1144,"си":1145,"бе":1146,"ти":1147,"?)":1148,"са":1149,"па":1150,"ду":1151,"лу":1152,"мож":1153,"ля":1154,"ня":1155,"все":1156,"би":1157,"при":1158,"нь":1159,"сто":1160,"пе":1161,"гда":1162,"ста":1163,"сь":1164,"ты":1165,"ете":1166,"или":1167,"бу":1168,"пи":1169,"ши":1170,"га":1171,"зна":1172,"мы":1173,"кой":1174,"если":1175,"чем":1176,"раз":1177,"ву":1178,"тся":1179,"кто":1180,"ться":1181,"ба":1182,"можно":1183,"чему":1184,"нет":1185,"ще":1186,"ска":1187,"муж":1188,"из":1189,"щи":1190,"шь":1191,"лько":1192,"ры":1193,"когда":1194,"сти":1195,"почему":1196,"дела":1197,"об":1198,"люби":1199,"ние":1200,"жен":1201,"ша":1202,"ско":1203,"вас":1204,"сть":1205,"ту":1206,"жа":1207,"ют":1208,"ря":1209,"ги":1210,"бя":1211,"льно":1212,"вам":1213,"ный":1214,"вет":1215,"так":1216,"ется":1217,"сво":1218,"для":1219,"ке":1220,"чно":1221,"мужчи":1222,"под":1223,"мне":1224,"есть":1225,"кие":1226,"це":1227,"луч":1228,"меня":1229,"су":1230,"чу":1231,"дет":1232,"ния":1233,"ные":1234,"вать":1235,"нно":1236,"гу":1237,"чего":1238,"кра":1239,"женщи":1240,"ком":1241,"пра":1242,"фи":1243,"ха":1244,"он":1245,"лове":1246,":)":1247,"какой":1248,"где":1249,"делать":1250,"дру":1251,"пу":1252,"пре":1253,"лучше":1254,"деву":1255,"челове":1256,"ци":1257,"ды":1258,"кого":1259,"дно":1260,"боль":1261,"может":1262,"только":1263,"девуш":1264,"лы":1265,"жиз":1266,"любо":1267,"вь":1268,"дь":1269,"лет":1270,"ная":1271,"ин":1272,"зы":1273,"дума":1274,"смо":1275,"жно":1276,"вер":1277,"мно":1278,"хоро":1279,"сы":1280,"сте":1281,"кое":1282,"уже":1283,"без":1284,"кая":1285,"нра":1286,"мя":1287,"сле":1288,"надо":1289,"сколько":1290,"гла":1291,"пере":1292,"люб":1293,"быть":1294,"спо":1295,"вре":1296,"ца":1297,"вно":1298,"смот":1299,"пер":1300,"его":1301,"оче":1302,"ски":1303,"сло":1304,"ят":1305,".)":1306,"ходи":1307,"вот":1308,"гра":1309,"она":1310,"какие":1311,"очень":1312,"сно":1313,"любовь":1314,"зо":1315,"стра":1316,"жите":1317,"вс":1318,"воз":1319,"ешь":1320,"ут":1321,"вст":1322,"дол":1323,"шо":1324,"фо":1325,"тебя":1326,"рабо":1327,"больше":1328,"нима":1329,"их":1330,"зи":1331,"ей":1332,"вает":1333,"нрави":1334,"кото":1335,"ща":1336,"будет":1337,"вопро":1338,"ск":1339,"том":1340,"ем":1341,"день":1342,"себя":1343,"вый":1344,"чита":1345,"рить":1346,"нее":1347,"год":1348,"всегда":1349,"йте":1350,"пла":1351,"пар":1352,"сек":1353,"гово":1354,"инте":1355,"скажите":1356,"ит":1357,"просто":1358,"филь":1359,"само":1360,"ных":1361,"они":1362,"нужно":1363,"стро":1364,"тебе":1365,"ге":1366,"всё":1367,"какая":1368,"много":1369,"ной":1370,"жизни":1371,"бра":1372,"((":1373,"00":1374,"куда":1375,"вто":1376,"зачем":1377,"после":1378,"ваше":1379,"слу":1380,"ство":1381,"еще":1382,"краси":1383,"коне":1384,"прав":1385,"пло":1386,"чтобы":1387,"чь":1388,"мужчины":1389,"кон":1390,"!)":1391,"тя":1392,"отно":1393,"мужчина":1394,"мер":1395,"чё":1396,"помо":1397,"рма":1398,"ным":1399,"тво":1400,"час":1401,"там":1402,"тра":1403,"спа":1404,"мый":1405,"жить":1406,"люди":1407,"пы":1408,"сей":1409,"ую":1410,"всего":1411,"гру":1412,"доб":1413,"йти":1414,"стве":1415,"чит":1416,"стоя":1417,"обще":1418,"вя":1419,"рас":1420,"будь":1421,"нравится":1422,"пить":1423,"себе":1424,"кому":1425,"человек":1426,"каж":1427,"сла":1428,"мен":1429,"ней":1430,"стоит":1431,"такое":1432,"зе":1433,"каки":1434,"кро":1435,"сейчас":1436,"доро":1437,"сча":1438,"жизнь":1439,"мой":1440,"вить":1441,"зя":1442,"тому":1443,"ются":1444,"жу":1445,"ан":1446,"женщина":1447,"ное":1448,"хоч":1449,"ков":1450,"лся":1451,"ром":1452,"девушки":1453,"ответ":1454,"конечно":1455,"вопрос":1456,"интере":1457,"ску":1458,"лись":1459,"нка":1460,"которы":1461,"тель":1462,"хочу":1463,"время":1464,"ник":1465,"оди":1466,"име":1467,"нибудь":1468,"пол":1469,"дей":1470,"сси":1471,"дя":1472,"было":1473,"юсь":1474,"уме":1475,"сту":1476,"ную":1477,"сер":1478,"чка":1479,"им":1480,"шу":1481,"аа":1482,"ний":1483,"=)":1484,"одно":1485,"могу":1486,"кла":1487,"вой":1488,"любви":1489,"тельно":1490,"пока":1491,"всем":1492,"женщины":1493,"ему":1494,"пода":1495,"учи":1496,"гото":1497,"тесь":1498,"фото":1499,"тоже":1500,"потому":1501,"зыва":1502,"ее":1503,"люблю":1504,"оста":1505,"нить":1506,"хи":1507,"тре":1508,"чать":1509,"чки":1510,"чувст":1511,"подскажите":1512,"тер":1513,"ню":1514,"сама":1515,"пред":1516,"значит":1517,"знаю":1518,"фе":1519,"дать":1520,"хоте":1521,"сказа":1522,"сегод":1523,"работа":1524,"ху":1525,"кру":1526,"сегодня":1527,"три":1528,"авто":1529,"вля":1530,"мет":1531,"часто":1532,"норма":1533,"полу":1534,"зу":1535,"лось":1536,"игра":1537,"человека":1538,"хорошо":1539,"нии":1540,"дом":1541,"вра":1542,"кры":1543,"кар":1544,"какое":1545,"нас":1546,"любите":1547,"бывает":1548,"вая":1549,"голо":1550,"вые":1551,"даже":1552,"дер":1553,"тут":1554,"ёт":1555,"счита":1556,"прави":1557,"совет":1558,"ваш":1559,"бой":1560,"вообще":1561,"вку":1562,"ский":1563,"род":1564,"девушка":1565,"рт":1566,"бли":1567,"цы":1568,"фильм":1569,"вле":1570,"рет":1571,"спи":1572,"ший":1573,"щё":1574,"\"?":1575,"думаете":1576,"ничего":1577,"зде":1578,"гля":1579,"лась":1580,"маши":1581,"деть":1582,"нуть":1583,"сделать":1584,"цвет":1585,"реа":1586,"такой":1587,"дете":1588,"ья":1589,"смотре":1590,"дома":1591,"од":1592,"ум":1593,"боле":1594,"дите":1595,"ещё":1596,".?":1597,"дра":1598,"шка":1599,"ции":1600,"поня":1601,"сты":1602,"жела":1603,"тру":1604,"фа":1605,"самый":1606,"них":1607,"соба":1608,"всех":1609,"бле":1610,"лег":1611,"ваши":1612,"пес":1613,"сли":1614,"нуж":1615,"чер":1616,"найти":1617,"плохо":1618,"?!":1619,"правда":1620,"буду":1621,"зави":1622,"есь":1623,"обы":1624,"года":1625,"поло":1626,"него":1627,"хва":1628,"-)":1629,"стви":1630,"отноше":1631,"какого":1632,"вают":1633,"бес":1634,"такие":1635,"ства":1636,"какую":1637,"шки":1638,"любить":1639,"обо":1640,"ман":1641,"точно":1642,"смотря":1643,"жде":1644,"счасть":1645,"рите":1646,"ал":1647,"нный":1648,"сить":1649,"моло":1650,"?.":1651,"сме":1652,"вз":1653,"холо":1654,"ход":1655,"был":1656,"нача":1657,"дели":1658,"сов":1659,"--":1660,"вали":1661,"сс":1662,"друго":1663,"сам":1664,"тем":1665,"ваться":1666,"пря":1667,"10":1668,"ходит":1669,"таки":1670,"соб":1671,"уу":1672,"ров":1673,"сит":1674,"ак":1675,"росси":1676,"навер":1677,"того":1678,"пой":1679,"поз":1680,"нем":1681,"бро":1682,"рит":1683,"эти":1684,"наз":1685,"дить":1686,"ино":1687,"пожа":1688,"ез":1689,"хочется":1690,"любя":1691,"дит":1692,"ред":1693,"спе":1694,"аль":1695,"думаю":1696,"рой":1697,"стать":1698,"цу":1699,"мени":1700,"называ":1701,"купить":1702,"нию":1703,"разу":1704,"рю":1705,"совету":1706,"чтоб":1707,"кем":1708,"чём":1709,"глу":1710,"уда":1711,"понима":1712,"ству":1713,"здесь":1714,"ника":1715,"свою":1716,"вное":1717,"гре":1718,"людей":1719,"тив":1720,"?:)":1721,"бор":1722,"етесь":1723,"бере":1724,"этом":1725,"посовету":1726,"рят":1727,"отли":1728,"чить":1729,"луй":1730,"ним":1731,"мар":1732,"писа":1733,"вро":1734,"чку":1735,"вод":1736,"ция":1737,"мм":1738,"самое":1739,"знать":1740,"никогда":1741,"похо":1742,"бира":1743,"этого":1744,"кор":1745,"чина":1746,"шать":1747,"один":1748,"тор":1749,"рез":1750,"нормально":1751,"смотреть":1752,"жду":1753,"ис":1754,"глаза":1755,"потом":1756,"ребе":1757,"возможно":1758,"кре":1759,"вари":1760,"тно":1761,"вну":1762,"секс":1763,"стре":1764,"кий":1765,"лен":1766,"сказать":1767,"её":1768,"меч":1769,"ить":1770,"жать":1771,"любит":1772,"ская":1773,"вое":1774,"пом":1775,"каких":1776,"друг":1777,"оо":1778,"каком":1779,"нок":1780,"пси":1781,"знает":1782,"рок":1783,"ном":1784,"любят":1785,"други":1786,"жда":1787,"знако":1788,"нель":1789,"воло":1790,"привет":1791,"фут":1792,"мые":1793,"музы":1794,"относи":1795,"каза":1796,"рен":1797,"to":1798,"смы":1799,"обычно":1800,"случа":1801,"брать":1802,"свои":1803,"нки":1804,"поро":1805,"такая":1806,"ваша":1807,"своей":1808,"оби":1809,"вятся":1810,"кни":1811,"ток":1812,"теле":1813,"можете":1814,"цо":1815,"тов":1816,"пор":1817,"ночь":1818,"тро":1819,"главное":1820,"чет":1821,"ньше":1822,"20":1823,"дой":1824,"ар":1825,"хочет":1826,"шая":1827,"лень":1828,"вести":1829,"сами":1830,"спать":1831,"каким":1832,"нку":1833,"интересно":1834,"пь":1835,"сом":1836,"жо":1837,"лек":1838,"поле":1839,"гор":1840,"нельзя":1841,"меся":1842,"зло":1843,"этот":1844,"ющи":1845,"лё":1846,"иногда":1847,"сем":1848,"нег":1849,"льный":1850,"шно":1851,"добро":1852,"хороше":1853,"строе":1854,"занима":1855,"серд":1856,"деньги":1857,"чается":1858,"ница":1859,"вание":1860,"отношения":1861,"настоя":1862,"отве":1863,"рень":1864,";)":1865,"осо":1866,"ками":1867,"которые":1868,"клю":1869,"шие":1870,"пожалуй":1871,"оно":1872,"обра":1873,"нт":1874,"стно":1875,"послед":1876,")?":1877,"вую":1878,"прият":1879,"ские":1880,"счаст":1881,"слы":1882,"зав":1883,"самая":1884,"друз":1885,"ne":1886,"нные":1887,"правильно":1888,"сдела":1889,"гли":1890,"встре":1891,"моск":1892,"крас":1893,"нам":1894,"перед":1895,"новый":1896,"слова":1897,"начина":1898,"ственно":1899,"er":1900,"хать":1901,"ках":1902,"любимо":1903,"возра":1904,"вай":1905,"рот":1906,"свет":1907,"была":1908,"через":1909,"шек":1910,"вым":1911,"дево":1912,"моя":1913,"лом":1914,"пя":1915,"настрое":1916,"стить":1917,"доста":1918,"ор":1919,"пожалуйста":1920,"жена":1921,"футбо":1922,"ники":1923,"парня":1924,"хотели":1925,"мужи":1926,"ской":1927,"знаете":1928,"изме":1929,"посоветуйте":1930,"нравятся":1931,"счастли":1932,"долго":1933,"лей":1934,"чаще":1935,"сви":1936,"тот":1937,"ходить":1938,"завтра":1939,"горо":1940,"той":1941,"мужчин":1942,"см":1943,"любимый":1944,"гите":1945,"свой":1946,"виде":1947,"легко":1948,"пробле":1949,"попро":1950,"лично":1951,"взя":1952,"кажды":1953,"теря":1954,"шко":1955,"щу":1956,"нов":1957,"научи":1958,"ного":1959,"слово":1960,"испо":1961,"живот":1962,"хоче":1963,"долж":1964,"вес":1965,"ными":1966,"тогда":1967,"стью":1968,"женщин":1969,"бло":1970,"интер":1971,"здоро":1972,"ните":1973,"чный":1974,"ведь":1975,"вар":1976,"хоть":1977,"месте":1978,"тить":1979,"помогите":1980,"вол":1981,"нер":1982,"быстро":1983,"вого":1984,"мая":1985,"мир":1986,"ём":1987,"нять":1988,"кри":1989,"оде":1990,"рак":1991,"маль":1992,"вкус":1993,"тает":1994,"мало":1995,"вне":1996,"поку":1997,"могут":1998,"относитесь":1999,"были":2000,"согла":2001,"ch":2002,"счастье":2003,"an":2004,"сильно":2005,"вал":2006,"моз":2007,"in":2008,"жение":2009,"поль":2010,"ваете":2011,"сразу":2012,"дово":2013,"мной":2014,"пример":2015,"наде":2016,"говорят":2017,"дли":2018,"нит":2019,"буде":2020,"каждый":2021,"вут":2022,"шку":2023,"собой":2024,"наверное":2025,"ского":2026,"должен":2027,"уве":2028,"считаете":2029,"нужен":2030,"обя":2031,"тите":2032,").":2033,"зависит":2034,"одна":2035,"место":2036,"мол":2037,"суще":2038,"над":2039,"пове":2040,"тол":2041,"работать":2042,"туа":2043,"мужчину":2044,"вами":2045,"ок":2046,"гает":2047,"вых":2048,"своих":2049,"льные":2050,"говорить":2051,"денег":2052,"равно":2053,"пли":2054,"интерес":2055,"спро":2056,"одино":2057,"опа":2058,"эта":2059,"разве":2060,"иде":2061,"сим":2062,"чай":2063,"жешь":2064,"иг":2065,"ран":2066,"ье":2067,"пле":2068,"душе":2069,"груп":2070,"понять":2071,"кол":2072,"хочешь":2073,"хе":2074,"ваю":2075,"подру":2076,"призна":2077,"называется":2078,"обяза":2079,"мор":2080,"парень":2081,"en":2082,"рус":2083,"радо":2084,"который":2085,"15":2086,"st":2087,"детей":2088,"кот":2089,"дове":2090,"ставить":2091,"сен":2092,"чик":2093,"нете":2094,"тай":2095,"готовить":2096,"побе":2097,"реально":2098,"плю":2099,"заня":2100,"кли":2101,"лит":2102,"дети":2103,"вопросы":2104,"хороший":2105,"дают":2106,"взгля":2107,":-)":2108,"добры":2109,"россии":2110,"нная":2111,"давно":2112,"менно":2113,"сердце":2114,"вся":2115,"шла":2116,"лый":2117,"вашей":2118,"людя":2119,"мечта":2120,"никто":2121,"секса":2122,"кроме":2123,"мину":2124,"кам":2125,"нужна":2126,"роди":2127,"шает":2128,"человеку":2129,"све":2130,"тан":2131,"хватает":2132,"рее":2133,"дель":2134,"знакоми":2135,"любишь":2136,"вете":2137,"хра":2138,"дев":2139,"сторо":2140,"мат":2141,"ское":2142,"ях":2143,"лия":2144,"подарить":2145,"аааа":2146,"дает":2147,"дня":2148,"((((":2149,"лучший":2150,"улы":2151,"чески":2152,"рожде":2153,"ой":2154,"кан":2155,"мужа":2156,"два":2157,"объ":2158,"девушку":2159,"имя":2160,"ровать":2161,"смотри":2162,"стано":2163,"нг":2164,"между":2165,"утра":2166,"коро":2167,"почита":2168,"рая":2169,"вом":2170,"чает":2171,"шли":2172,"нием":2173,"думать":2174,"поч":2175,"ro":2176,"лые":2177,"12":2178,"100":2179,"более":2180,"замуж":2181,"особе":2182,"пти":2183,"ссо":2184,"отды":2185,"праз":2186,"рь":2187,"уби":2188,"ради":2189,"li":2190,"шься":2191,"дро":2192,"вается":2193,"ra":2194,"наше":2195,"най":2196,"чера":2197,"\".":2198,"явля":2199,"моби":2200,"свобо":2201,"изба":2202,"полез":2203,"откуда":2204,"фильма":2205,"льше":2206,"работу":2207,"первый":2208,"сол":2209,"посмотреть":2210,"спра":2211,"рка":2212,"мужчине":2213,"хот":2214,"своего":2215,"кт":2216,"кажется":2217,"уж":2218,"дов":2219,"лки":2220,"никак":2221,"опре":2222,"попа":2223,"женщине":2224,"пят":2225,"фор":2226,"мым":2227,"хотите":2228,"откры":2229,"времени":2230,"дёт":2231,"лан":2232,"спор":2233,"сред":2234,"сва":2235,"способ":2236,"образ":2237,"стой":2238,"лять":2239,"дят":2240,"свя":2241,"пиши":2242,"хотя":2243,"шло":2244,"чат":2245,"кую":2246,"коло":2247,"вни":2248,"чество":2249,"малень":2250,"язы":2251,"ван":2252,"особенно":2253,"настроение":2254,"бои":2255,"вашему":2256,"моро":2257,"смер":2258,"обе":2259,"получи":2260,"постоя":2261,"боя":2262,"нена":2263,"влюб":2264,"виться":2265,"большо":2266,"мага":2267,"меньше":2268,"скоро":2269,"лета":2270,"стер":2271,"чувство":2272,"ально":2273,"психоло":2274,"именно":2275,"мина":2276,"эк":2277,"лить":2278,"женщину":2279,"самые":2280,"зем":2281,"слуша":2282,"сери":2283,"город":2284,"заме":2285,"бывают":2286,"начала":2287,"мире":2288,"купи":2289,"гать":2290,"it":2291,"ужа":2292,"ствует":2293,"дело":2294,"вез":2295,"этой":2296,"клу":2297,"ыы":2298,"укра":2299,"силь":2300,"друзья":2301,"внима":2302,"on":2303,"родите":2304,"ka":2305,"девушке":2306,"оши":2307,"дре":2308,"сл":2309,"пора":2310,"сни":2311,"делаете":2312,"празд":2313,"нной":2314,"мент":2315,"внутри":2316,"дви":2317,"чные":2318,"мира":2319,"кофе":2320,"этим":2321,"подо":2322,"бла":2323,"ага":2324,"покупа":2325,"ma":2326,"sh":2327,"стри":2328,"уго":2329,"доволь":2330,"спаси":2331,"такого":2332,"мысли":2333,"щь":2334,"et":2335,"чная":2336,"тех":2337,"взять":2338,"вроде":2339,"бога":2340,"бал":2341,"ули":2342,"нность":2343,"давать":2344,"ходят":2345,"дут":2346,"успе":2347,"назвать":2348,"посту":2349,"скорее":2350,"совсем":2351,"всю":2352,"узнать":2353,"ких":2354,"ев":2355,"скать":2356,"должна":2357,"200":2358,"la":2359,"no":2360,"парни":2361,"знаешь":2362,"ах":2363,"души":2364,"друж":2365,"ново":2366,"говори":2367,"фф":2368,"понрави":2369,"нах":2370,"сне":2371,"зад":2372,"ехать":2373,"съ":2374,"бер":2375,"тит":2376,"кти":2377,"дё":2378,"хаха":2379,"жем":2380,"гно":2381,"ребенка":2382,"песня":2383,",,":2384,"шком":2385,"нужны":2386,"рядом":2387,"встреча":2388,"любимая":2389,"ших":2390,"смысл":2391,"запа":2392,"14":2393,"перь":2394,"рост":2395,"теперь":2396,"жале":2397,"вите":2398,"чек":2399,"друга":2400,"страш":2401,"вели":2402,"потеря":2403,"рую":2404,"цев":2405,"роман":2406,"людям":2407,"пусть":2408,"обязательно":2409,"рия":2410,"знаком":2411,"зай":2412,"либо":2413,"po":2414,"влюби":2415,"щий":2416,"сут":2417,"прин":2418,"16":2419,"цию":2420,"da":2421,"счастья":2422,"иск":2423,"гри":2424,"спасибо":2425,"!?":2426,"году":2427,"реб":2428,"своим":2429,"против":2430,"боро":2431,"две":2432,"будут":2433,"человеком":2434,"еди":2435,"выра":2436,"вится":2437,"дура":2438,"поху":2439,"нное":2440,"позво":2441,"тур":2442,"харак":2443,"написа":2444,"руки":2445,"re":2446,"деле":2447,"гар":2448,"ненави":2449,"мои":2450,"обща":2451,"na":2452,"фу":2453,"ствие":2454,"мнение":2455,"чо":2456,"вен":2457,"хотят":2458,"трудно":2459,"душа":2460,"поце":2461,"работе":2462,"ана":2463,"бар":2464,"30":2465,"ru":2466,"карти":2467,"сай":2468,"кг":2469,"верите":2470,"сса":2471,"дох":2472,"шим":2473,"ува":2474,"автомоби":2475,"уста":2476,"тери":2477,"мальчи":2478,"лов":2479,"(((":2480,"тобой":2481,"полови":2482,"верить":2483,"види":2484,"серь":2485,"ждать":2486,"привы":2487,"дво":2488,"лли":2489,"сексу":2490,"выгля":2491,"зать":2492,"соз":2493,"ском":2494,"рова":2495,"гада":2496,"других":2497,"вместе":2498,"вла":2499,"стя":2500,"сю":2501,"чувству":2502,"туда":2503,"пет":2504,"будете":2505,"спокой":2506,"18":2507,"таких":2508,"льное":2509,"пять":2510,"др":2511,"тия":2512,"машина":2513,"блю":2514,"находи":2515,"пыта":2516,"ряд":2517,"эмо":2518,"влека":2519,"закон":2520,"ешься":2521,"шить":2522,"честно":2523,"волосы":2524,"нке":2525,"этому":2526,"сон":2527,"отпу":2528,"важно":2529,"вид":2530,"орга":2531,"будешь":2532,"иди":2533,"продол":2534,"рать":2535,"ума":2536,"держи":2537,"уууу":2538,"дере":2539,"утро":2540,"класс":2541,"красивая":2542,"тера":2543,"красно":2544,"нди":2545,"евро":2546,"ko":2547,"йся":2548,"любимого":2549,"кола":2550,"близ":2551,"москве":2552,"каждо":2553,"играет":2554,"сила":2555,"фильмы":2556,"лка":2557,"действи":2558,"нда":2559,"тё":2560,"щая":2561,"пара":2562,"низ":2563,"гие":2564,"кино":2565,"постоянно":2566,"жени":2567,"свое":2568,"поя":2569,"дальше":2570,"произ":2571,"шел":2572,"наверно":2573,"домаш":2574,"ставля":2575,"спорт":2576,"музыка":2577,"лья":2578,"цве":2579,"льная":2580,"мом":2581,".?)":2582,"лая":2583,"познакоми":2584,"ность":2585,"твой":2586,"лку":2587,"бри":2588,"скаж":2589,"квар":2590,"судь":2591,"попу":2592,"уди":2593,"50":2594,"назо":2595,"сят":2596,"сложно":2597,"приготовить":2598,"сны":2599,"помогает":2600,"вза":2601,"бки":2602,"__":2603,"рко":2604,"бить":2605,"делает":2606,"пью":2607,"важ":2608,"логи":2609,"корми":2610,"верь":2611,"умеете":2612,"вания":2613,"19":2614,"играть":2615,"проще":2616,"оце":2617,"осно":2618,"скучно":2619,"ских":2620,"дорого":2621,"говорит":2622,"кури":2623,"фиг":2624,"тяже":2625,"кс":2626,"рии":2627,"море":2628,"песни":2629,"глупо":2630,"цвета":2631,"ден":2632,"взгляд":2633,"чувства":2634,"должно":2635,"май":2636,"девушек":2637,"можешь":2638,"ии":2639,"психологи":2640,"дож":2641,"нету":2642,"ид":2643,"фот":2644,"вредно":2645,"бен":2646,"сро":2647,"прода":2648,"отличается":2649,"at":2650,"предпочита":2651,"легче":2652,"супер":2653,"приятно":2654,"например":2655,"de":2656,"вайте":2657,"машину":2658,"тик":2659,"гло":2660,"сказ":2661,"весе":2662,"нес":2663,"рр":2664,"ваз":2665,"свида":2666,"ноги":2667,"тый":2668,"вино":2669,"жал":2670,"семь":2671,"менять":2672,"бук":2673,"щей":2674,"se":2675,"собира":2676,"ребё":2677,"скажи":2678,"больно":2679,"глаз":2680,"которо":2681,"порода":2682,"слад":2683,"попробу":2684,"кварти":2685,"коле":2686,"объя":2687,"терпе":2688,"скачать":2689,"++":2690,"зада":2691,"чке":2692,"хотелось":2693,"слишком":2694,"здоровь":2695,"народ":2696,"быв":2697,"хуже":2698,"жки":2699,"золо":2700,"принима":2701,"ина":2702,"яя":2703,"избавиться":2704,"пыт":2705,"жив":2706,"ног":2707,"моей":2708,"le":2709,"вечер":2710,"сове":2711,"нравиться":2712,"ствен":2713,"сосе":2714,"скую":2715,"является":2716,"дву":2717,"жаю":2718,"причи":2719,"стали":2720,"мых":2721,"mo":2722,"желание":2723,"раньше":2724,"почти":2725,"lo":2726,"ri":2727,"столько":2728,"фан":2729,"надое":2730,"прости":2731,"зовут":2732,"жения":2733,"ат":2734,"высо":2735,"видеть":2736,"нал":2737,"убе":2738,"пры":2739,"ночью":2740,"17":2741,"мон":2742,"мери":2743,"посте":2744,"красиво":2745,"вкусно":2746,"яй":2747,"делают":2748,"твоя":2749,"стара":2750,"няя":2751,"прико":2752,"видно":2753,"ваются":2754,"13":2755,"бь":2756,"меди":2757,"спраши":2758,"шую":2759,"кле":2760,"выход":2761,"кур":2762,"название":2763,"тать":2764,"семе":2765,"голову":2766,"воду":2767,"которая":2768,"вала":2769,"блин":2770,"выбира":2771,"зво":2772,"рут":2773,"парню":2774,"щее":2775,"искать":2776,"каче":2777,"моему":2778,"предло":2779,"дале":2780,"приходи":2781,"пья":2782,"жает":2783,"жин":2784,"музыку":2785,"зывать":2786,"городе":2787,"мое":2788,"раза":2789,"рей":2790,"сра":2791,"магази":2792,"рождения":2793,"красивые":2794,"сил":2795,"11":2796,"гро":2797,"поли":2798,"идти":2799,"эту":2800,"девушкой":2801,"здра":2802,"разные":2803,"вчера":2804,"go":2805,"летом":2806,"помощь":2807,"приро":2808,"стей":2809,"сна":2810,"рки":2811,"страшно":2812,"фон":2813,"зывает":2814,"кошка":2815,"хорошие":2816,"кло":2817,"мама":2818,"проти":2819,"води":2820,"совер":2821,"ил":2822,"тие":2823,"большой":2824,"слабо":2825,"выше":2826,"чение":2827,"друзей":2828,"скры":2829,"свадь":2830,"собаки":2831,"ночи":2832,"давай":2833,"оборот":2834,"тые":2835,"пишите":2836,"лишь":2837,"щать":2838,"тами":2839,"собака":2840,"красо":2841,"хорошая":2842,"волос":2843,"нами":2844,"лето":2845,"хорошего":2846,"пера":2847,"вода":2848,"воспи":2849,"одной":2850,"жит":2851,"ответы":2852,"цеп":2853,"шей":2854,"ников":2855,"дной":2856,"бок":2857,"ожи":2858,"ситуа":2859,"мужчиной":2860,"мешает":2861,"тон":2862,"имеет":2863,"добрый":2864,"тки":2865,"бом":2866,"нор":2867,"увере":2868,"удоволь":2869,"реди":2870,"последний":2871,"мужчинам":2872,"курить":2873,"беременно":2874,"забыть":2875,"исто":2876,"ети":2877,"кать":2878,"цветы":2879,"романти":2880,"игры":2881,"кошки":2882,"тен":2883,"утром":2884,"мора":2885,"существует":2886,"сан":2887,"цен":2888,"эт":2889,"нья":2890,"россия":2891,"конец":2892,"ni":2893,"паль":2894,"расте":2895,"уни":2896,"ревно":2897,"любимым":2898,"нности":2899,"состоя":2900,"ассо":2901,"типа":2902,"удоб":2903,"верю":2904,"другу":2905,"нут":2906,"учить":2907,"бка":2908,"другой":2909,"воро":2910,"случае":2911,"чемпи":2912,"заниматься":2913,"мать":2914,"весь":2915,"встрет":2916,"сексом":2917,"полно":2918,"вариан":2919,"вспо":2920,"получается":2921,"работы":2922,"бог":2923,"графи":2924,"щие":2925,"симпа":2926,"циа":2927,"бля":2928,"вашем":2929,"ческий":2930,"прогно":2931,"лез":2932,"ап":2933,";-)":2934,"ске":2935,"гом":2936,"ёте":2937,"доверя":2938,"ёл":2939,"дже":2940,"прове":2941,"похудеть":2942,"звез":2943,"сказал":2944,"мак":2945,"вред":2946,"клуб":2947,"одного":2948,"al":2949,"бросить":2950,"щего":2951,"лицо":2952,"ощу":2953,"иметь":2954,"проф":2955,"женщиной":2956,"муль":2957,"любой":2958,"наве":2959,"ким":2960,"наоборот":2961,"возь":2962,"взро":2963,"пиво":2964,"ответах":2965,"хозя":2966,"ходя":2967,"памя":2968,"тере":2969,"влия":2970,"ними":2971,"отношениях":2972,"ницы":2973,"ницу":2974,"сыпа":2975,"шокола":2976,"пита":2977,"сну":2978,"изменя":2979,"любимой":2980,"\",":2981,"жь":2982,"обма":2983,"лиш":2984,"следу":2985,"кова":2986,"кота":2987,"шке":2988,"обла":2989,"боюсь":2990,"подарок":2991,"разно":2992,"тура":2993,"ot":2994,"вка":2995,"неде":2996,"чей":2997,"зин":2998,"момент":2999,"доме":3000,"такую":3001,"напи":3002,"тока":3003,"преда":3004,"алкого":3005,"начать":3006,"готовы":3007,"сала":3008,"тая":3009,"бол":3010,"стар":3011,"ета":3012,"быстре":3013,"отда":3014,"шут":3015,"вече":3016,"опять":3017,"придума":3018,"пое":3019,"чения":3020,":):)":3021,"ват":3022,"ar":3023,"**":3024,"смотрите":3025,"сколь":3026,"?.)":3027,"пробо":3028,"дел":3029,"вос":3030,"слушать":3031,"бре":3032,"доброго":3033,"немного":3034,"40":3035,"карто":3036,"раст":3037,"нк":3038,"гуля":3039,"раду":3040,"самой":3041,"другое":3042,"гов":3043,"голове":3044,"обходи":3045,"живут":3046,"любов":3047,"зре":3048,"определи":3049,"зву":3050,"сили":3051,"которых":3052,"профес":3053,"изве":3054,"второй":3055,"аб":3056,"цело":3057,"хорошее":3058,"док":3059,"блонди":3060,"стави":3061,"случай":3062,"ya":3063,"жды":3064,"разница":3065,"коман":3066,"доба":3067,"заняться":3068,"носить":3069,"читать":3070,"исполь":3071,"усло":3072,"детстве":3073,"сначала":3074,"разо":3075,"спар":3076,"месяц":3077,"стал":3078,"солн":3079,"ki":3080,"шан":3081,"пля":3082,"редко":3083,"глав":3084,"живу":3085,"душу":3086,"англи":3087,"пили":3088,"ётся":3089,"футбол":3090,"суп":3091,"станет":3092,"чуть":3093,"беспла":3094,"песню":3095,"do":3096,"неё":3097,"футболи":3098,"держа":3099,"воды":3100,"нд":3101,"мини":3102,"отвеча":3103,"нного":3104,"девочки":3105,"жка":3106,"000":3107,"зара":3108,"сок":3109,"держать":3110,"сень":3111,"озна":3112,"vi":3113,"закры":3114,"фанта":3115,"рый":3116,"взаи":3117,"21":3118,"научиться":3119,"дней":3120,"тар":3121,"ори":3122,"нали":3123,"ником":3124,"пуска":3125,"стру":3126,"круг":3127,"прошло":3128,"правду":3129,"возрасте":3130,"el":3131,"нечего":3132,"комп":3133,"вижу":3134,"дружба":3135,"опасно":3136,"дный":3137,"боитесь":3138,"рай":3139,"оне":3140,"посмотри":3141,"ава":3142,"улице":3143,"мужем":3144,"симпати":3145,"гами":3146,"помню":3147,"идет":3148,"нач":3149,"цей":3150,"интернете":3151,"?!)":3152,"нику":3153,"зерка":3154,"хожу":3155,"похоже":3156,"матери":3157,"лер":3158,"исти":3159,"измени":3160,"везде":3161,"потре":3162,"чкой":3163,"смет":3164,"живет":3165,"бело":3166,"грудь":3167,"дне":3168,"насту":3169,"професси":3170,"уро":3171,"серьез":3172,"наи":3173,"жие":3174,"испол":3175,"зеле":3176,"оч":3177,"вашего":3178,"ющий":3179,"расста":3180,"голу":3181,"цска":3182,"закончи":3183,"хле":3184,"рубле":3185,"язык":3186,"ности":3187,"жалко":3188,"тю":3189,"амери":3190,"каждого":3191,"слыша":3192,"срочно":3193,"деше":3194,"доброе":3195,"писать":3196,"находится":3197,"гают":3198,"рано":3199,"оооо":3200,"хватит":3201,"проблемы":3202,"am":3203,"мужики":3204,"компа":3205,"своё":3206,"забо":3207,"посоветуете":3208,"ств":3209,"готов":3210,"ёз":3211,"?(":3212,"места":3213,"пель":3214,"ваешь":3215,"защи":3216,"нос":3217,"ребенок":3218,"лем":3219,"лечить":3220,"зар":3221,"шам":3222,"полезно":3223,"бабу":3224,"ям":3225,"своему":3226,"внимание":3227,"di":3228,"внешно":3229,"некоторые":3230,"краса":3231,"пойти":3232,"группа":3233,"вечно":3234,"реши":3235,"пей":3236,"чен":3237,"жены":3238,"раздра":3239,"красота":3240,"горя":3241,"слов":3242,"никому":3243,"игру":3244,"ходите":3245,"носи":3246,"стом":3247,"дар":3248,"созда":3249,"насколько":3250,"узна":3251,"дина":3252,"дж":3253,"зенит":3254,"двух":3255,"действительно":3256,"сожале":3257,"желания":3258,"назовите":3259,"проис":3260,"пать":3261,"красивый":3262,"брю":3263,"какими":3264,"умею":3265,"женщинам":3266,"!.":3267,"пки":3268,"выбрать":3269,"прям":3270,"нике":3271,"ищ":3272,"si":3273,"необходи":3274,"подой":3275,"став":3276,"книги":3277,"далеко":3278,"чие":3279,"ющие":3280,"наши":3281,"секрет":3282,"25":3283,"болез":3284,"моде":3285,"бороться":3286,"должны":3287,"будем":3288,"попробуй":3289,"мыс":3290,"полне":3291,"рублей":3292,"сомне":3293,"поздра":3294,"физ":3295,"мыш":3296,"рий":3297,"видел":3298,"ффе":3299,"пах":3300,"мати":3301,"дам":3302,"нака":3303,"вин":3304,"малы":3305,"вление":3306,"первого":3307,"ктор":3308,"пару":3309,"похож":3310,"машины":3311,"мечты":3312,"окру":3313,"bo":3314,"спроси":3315,"простить":3316,"менты":3317,"скажу":3318,"зимой":3319,"девочка":3320,"боятся":3321,"другие":3322,"неделю":3323,"проду":3324,"обу":3325,"дости":3326,"вн":3327,"th":3328,"сня":3329,"ген":3330,"думаешь":3331,"означает":3332,"масло":3333,"зависи":3334,"вном":3335,"зага":3336,"привлека":3337,"твои":3338,"чных":3339,"кате":3340,"смерти":3341,"щас":3342,"зм":3343,"невозможно":3344,"любовью":3345,"теля":3346,"ожида":3347,"зон":3348,"изменить":3349,"навея":3350,"ам":3351,"одни":3352,"!?)":3353,"дка":3354,"забы":3355,"душ":3356,"принци":3357,"сильнее":3358,"поздно":3359,"бур":3360,"книгу":3361,"неа":3362,"пози":3363,"улыба":3364,"снима":3365,"сбор":3366,"хов":3367,"голова":3368,"верну":3369,"фир":3370,"двига":3371,"становится":3372,"глупы":3373,"достаточно":3374,"альный":3375,"ен":3376,"плать":3377,"быстрее":3378,"прямо":3379,"назад":3380,"мед":3381,"многие":3382,"нако":3383,"оба":3384,"временно":3385,"кадр":3386,"пола":3387,"предпочитаете":3388,"говари":3389,"ёр":3390,"жают":3391,"вдруг":3392,"уча":3393,"девст":3394,"пользу":3395,"нежно":3396,"зака":3397,"кормить":3398,"лин":3399,"семье":3400,"другого":3401,"сидеть":3402,"вир":3403,"дай":3404,"отка":3405,"мясо":3406,"льник":3407,"жный":3408,"семей":3409,"проблема":3410,"пит":3411,"интернет":3412,"мыть":3413,"тепло":3414,"болит":3415,"емся":3416,"молча":3417,"счет":3418,"стыдно":3419,"лени":3420,"неве":3421,"девушкам":3422,"лица":3423,"вещи":3424,"вной":3425,"отдыха":3426,"грам":3427,"vo":3428,"форма":3429,"чёр":3430,"тяжело":3431,"право":3432,"ган":3433,"другим":3434,"тах":3435,"пр":3436,"казать":3437,"ян":3438,"пот":3439,"прой":3440,"оли":3441,"фли":3442,"дали":3443,"виду":3444,"лете":3445,"комеди":3446,"собак":3447,"ления":3448,"дешь":3449,"гости":3450,"одну":3451,"подари":3452,"прово":3453,"пропа":3454,"оте":3455,"поме":3456,"ищи":3457,"лечи":3458,"чисто":3459,"бку":3460,"мую":3461,"замет":3462,"шен":3463,"спосо":3464,"любимые":3465,"недель":3466,"пригла":3467,"угада":3468,"иначе":3469,"примерно":3470,"лучшая":3471,"es":3472,"хотел":3473,"согласны":3474,"мозг":3475,"семья":3476,"своими":3477,"210":3478,"диа":3479,"стране":3480,"упа":3481,"фигу":3482,"свете":3483,"лай":3484,"парнем":3485,"эффе":3486,"рецеп":3487,"таким":3488,"пути":3489,"ээ":3490,"стес":3491,"вич":3492,"вее":3493,"нару":3494,"зап":3495,"приходит":3496,"льта":3497,"общаться":3498,"кушать":3499,"co":3500,"нец":3501,"мость":3502,"беремен":3503,"нется":3504,"иску":3505,"эй":3506,"грани":3507,"страи":3508,"чая":3509,"любим":3510,"гря":3511,"минут":3512,"льных":3513,"ляет":3514,"людь":3515,"работает":3516,"отра":3517,"сма":3518,"помочь":3519,"мело":3520,"вечера":3521,"получить":3522,"ваших":3523,"ww":3524,"практи":3525,"вери":3526,"познакомиться":3527,"биз":3528,"льной":3529,"ужели":3530,"людьми":3531,"смысле":3532,"фру":3533,"фран":3534,"жир":3535,"цель":3536,"дки":3537,"начинается":3538,"рома":3539,"машине":3540,"мов":3541,"вей":3542,"образо":3543,"бель":3544,"поможет":3545,"милли":3546,"нера":3547,"сериал":3548,"замеча":3549,"люсь":3550,"элек":3551,"горе":3552,"лым":3553,"моего":3554,"отсут":3555,"домой":3556,"оты":3557,"зарпла":3558,"стов":3559,"лон":3560,"давайте":3561,"определить":3562,"выйти":3563,"зер":3564,"бери":3565,"часов":3566,"офи":3567,"коли":3568,"характер":3569,"край":3570,"возраст":3571,"ик":3572,"тран":3573,"опыт":3574,"кровь":3575,"самом":3576,"ек":3577,"самого":3578,"ёшь":3579,"---":3580,"блу":3581,"съе":3582,"али":3583,"пись":3584,"чужо":3585,"отношений":3586,"важнее":3587,"коно":3588,"клас":3589,"лам":3590,"праздник":3591,"месяцев":3592,"группы":3593,"ление":3594,"тали":3595,"дни":3596,"нему":3597,"анге":3598,"похожи":3599,"враща":3600,"яйца":3601,"ja":3602,"часа":3603,"вит":3604,"проблем":3605,"?;)":3606,"щем":3607,"строй":3608,"мото":3609,"катего":3610,"смотрю":3611,"чел":3612,"заставить":3613,"сайт":3614,"стая":3615,"старо":3616,"bi":3617,"?).":3618,"тельный":3619,"баты":3620,"вечером":3621,"неужели":3622,"первую":3623,"света":3624,"спросить":3625,"лучшее":3626,"печат":3627,"спартак":3628,"охо":3629,"шта":3630,"креп":3631,"поря":3632,"ve":3633,"ус":3634,"руб":3635,"вернуть":3636,"живо":3637,"месяца":3638,"прогноз":3639,"подели":3640,"пен":3641,"зла":3642,"значно":3643,"радость":3644,"чон":3645,"думает":3646,"первое":3647,"мец":3648,"меру":3649,"дные":3650,"получится":3651,"сожалению":3652,"собственно":3653,"сор":3654,"коль":3655,"дное":3656,"кали":3657,"человеке":3658,"бесплатно":3659,"жену":3660,"ссы":3661,"недо":3662,"вста":3663,"гром":3664,"автомобиль":3665,"влюбиться":3666,"депре":3667,"умные":3668,"чной":3669,"интересу":3670,"ющих":3671,"руете":3672,"ti":3673,".:)":3674,"твоей":3675,"тара":3676,"другом":3677,"большая":3678,"противо":3679,"отдох":3680,"нюю":3681,"тело":3682,"мур":3683,"пан":3684,"шёл":3685,"поми":3686,"тым":3687,"эго":3688,"ским":3689,"выми":3690,"которого":3691,"проща":3692,"реше":3693,"очере":3694,"мужу":3695,"дорога":3696,"кты":3697,"возраста":3698,"хом":3699,"первая":3700,"рик":3701,"досто":3702,"гулять":3703,"получа":3704,"ура":3705,"угодно":3706,"строить":3707,"ческие":3708,"животное":3709,"ищу":3710,"ствия":3711,"мужик":3712,"часть":3713,"прекрас":3714,"солнце":3715,"ябло":3716,"кана":3717,"рые":3718,"города":3719,"шают":3720,"комна":3721,"называют":3722,"однозначно":3723,"физи":3724,"ездить":3725,"дайте":3726,"выглядит":3727,"учиться":3728,"поэтому":3729,"поп":3730,"рыба":3731,"чёт":3732,"ката":3733,"пон":3734,"руга":3735,"мента":3736,"объяс":3737,"саха":3738,"обожаю":3739,"шин":3740,"фами":3741,"рэ":3742,"ребенку":3743,"чным":3744,"еты":3745,"мере":3746,"нём":3747,"даю":3748,"добра":3749,"доби":3750,"есте":3751,"похожа":3752,"услови":3753,"мся":3754,"любимое":3755,"ce":3756,"вались":3757,"зь":3758,"тка":3759,"недоста":3760,"умный":3761,"нау":3762,"обре":3763,"чий":3764,"никого":3765,"дость":3766,"носит":3767,"собаку":3768,"щение":3769,"нения":3770,"происходит":3771,"нных":3772,"умер":3773,"време":3774,"фри":3775,"разви":3776,"делаю":3777,"внутре":3778,"тики":3779,"умне":3780,"книга":3781,"тей":3782,"lu":3783,"сих":3784,"ta":3785,"цес":3786,"me":3787,"чества":3788,"нят":3789,"крови":3790,"желательно":3791,"поставить":3792,"руках":3793,"мера":3794,"газ":3795,"шту":3796,"надеюсь":3797,"зато":3798,"права":3799,"нень":3800,"покупать":3801,"резу":3802,"вклю":3803,"гры":3804,"ответить":3805,"пользо":3806,"зом":3807,"родители":3808,"конце":3809,"!:)":3810,"кух":3811,"нарко":3812,"корот":3813,"мости":3814,"ассоциа":3815,"верх":3816,"сах":3817,"пусти":3818,"кке":3819,"которой":3820,"эн":3821,"психи":3822,"рует":3823,"заработать":3824,"бана":3825,"няет":3826,"впечат":3827,"приз":3828,"ужин":3829,"ребя":3830,"нешь":3831,"be":3832,"думают":3833,"чную":3834,"твор":3835,"китай":3836,"зор":3837,"вству":3838,"выпить":3839,"правля":3840,"смерть":3841,"разговари":3842,"отдыхать":3843,"фотографи":3844,"комплек":3845,"мум":3846,"удачи":3847,"гия":3848,"гей":3849,"мяг":3850,"дется":3851,"влюбля":3852,"школе":3853,"sa":3854,"дения":3855,"рекла":3856,"зная":3857,"ай":3858,"первом":3859,"гай":3860,"влияет":3861,"ческая":3862,"жку":3863,"зов":3864,"матч":3865,"первые":3866,"тянет":3867,"джа":3868,"выбор":3869,"мальчик":3870,"стало":3871,"йтесь":3872,"русский":3873,"девчон":3874,"хво":3875,"mu":3876,"думы":3877,"считать":3878,"этих":3879,"обеща":3880,"сюда":3881,"здоровье":3882,"любовни":3883,"реть":3884,"уче":3885,"чувствуете":3886,"испа":3887,"осень":3888,"увидеть":3889,"спит":3890,"рисо":3891,"родителей":3892,"чики":3893,"mi":3894,"посе":3895,"беременности":3896,"результа":3897,"za":3898,"сижу":3899,"лых":3900,"земле":3901,"огу":3902,"сексе":3903,"среди":3904,"отвечать":3905,"какому":3906,"сига":3907,"\"?)":3908,"тела":3909,"запах":3910,"чное":3911,"размер":3912,"сия":3913,"знают":3914,"бин":3915,"пиро":3916,"помни":3917,"va":3918,"вашу":3919,"мнению":3920,"совме":3921,"животных":3922,"эро":3923,"скажет":3924,"сделали":3925,"повто":3926,"вокруг":3927,"помните":3928,"новые":3929,"здравству":3930,"пече":3931,"джи":3932,"наро":3933,"водить":3934,"жай":3935,"хокке":3936,"строи":3937,"уха":3938,"ством":3939,"переста":3940,"сп":3941,"энер":3942,".,":3943,"лой":3944,"рие":3945,"фило":3946,"деля":3947,"ственный":3948,"гам":3949,"сись":3950,"отношение":3951,"организ":3952,"внутрен":3953,"убить":3954,"поцелу":3955,"23":3956,"видимо":3957,"лик":3958,"второ":3959,"остро":3960,"пережи":3961,"понимаю":3962,"циона":3963,"причина":3964,"воспита":3965,"испор":3966,"ав":3967,"сет":3968,"лес":3969,"смети":3970,"мин":3971,"ани":3972,"бил":3973,"обраща":3974,"един":3975,"недели":3976,"канчи":3977,"щения":3978,"тора":3979,"жизне":3980,"60":3981,"ееее":3982,"смеш":3983,"конф":3984,"весна":3985,"прекрасно":3986,"самому":3987,"сайте":3988,"мона":3989,"хомя":3990,"телефон":3991,"чере":3992,"совесть":3993,"фантази":3994,"ляр":3995,"мою":3996,"космети":3997,"появи":3998,"риться":3999,"жениться":4000,"магазине":4001,"ыыыы":4002,"москва":4003,"метал":4004,"стые":4005,"вица":4006,"солю":4007,"сади":4008,"чудо":4009,"поко":4010,"жё":4011,"прожить":4012,"стороны":4013,"ситуации":4014,"тим":4015,"нового":4016,"части":4017,"льным":4018,"сной":4019,"мозги":4020,"вопросов":4021,"уверен":4022,"лок":4023,"понимаете":4024,"or":4025,"ложи":4026,"рина":4027,"стати":4028,"снова":4029,"выбра":4030,"спорта":4031,"жрать":4032,"зубы":4033,"шкой":4034,"инди":4035,"кнуть":4036,"уй":4037,"другому":4038,"90":4039,"вили":4040,"ребёнка":4041,"благода":4042,"лоша":4043,"мене":4044,"смогли":4045,"лаз":4046,"взрослы":4047,"говорите":4048,"щему":4049,"выс":4050,"компью":4051,"снять":4052,"ужас":4053,"стараюсь":4054,"печа":4055,"тика":4056,"сать":4057,"слож":4058,"умира":4059,"одиночество":4060,"рам":4061,"вспом":4062,"альная":4063,"вки":4064,"завести":4065,"могли":4066,"отдохнуть":4067,"кошек":4068,"нкой":4069,"льного":4070,"ква":4071,"породы":4072,"буты":4073,"англий":4074,"лучшие":4075,"времен":4076,"лее":4077,"детям":4078,"целу":4079,"которую":4080,"требу":4081,"нове":4082,"тяги":4083,"достой":4084,"свидание":4085,"платье":4086,"хм":4087,"пута":4088,"понятно":4089,"ох":4090,"многи":4091,"класси":4092,"растение":4093,"ствуют":4094,"вато":4095,"продолжите":4096,"всему":4097,"остальное":4098,"зам":4099,"глазами":4100,"пери":4101,"уто":4102,"тихо":4103,"выходные":4104,"il":4105,"новую":4106,"откро":4107,"уходит":4108,"ого":4109,"ваетесь":4110,"поехать":4111,"ваюсь":4112,"скре":4113,"заканчи":4114,"дамы":4115,"кара":4116,"што":4117,"смотрел":4118,"поцелуй":4119,"te":4120,"шего":4121,"можна":4122,"успо":4123,"годи":4124,"нул":4125,"абсолю":4126,"помина":4127,"просну":4128,"парней":4129,"отказа":4130,"случи":4131,"шах":4132,"бые":4133,"вати":4134,"ций":4135,"данный":4136,"хотела":4137,"уйти":4138,"россий":4139,"перестать":4140,"сохра":4141,"холоди":4142,"настоящий":4143,"гина":4144,"герма":4145,"сердца":4146,"ближе":4147,"дку":4148,"гах":4149,"беру":4150,"вления":4151,"дая":4152,"около":4153,"ад":4154,"основном":4155,"еду":4156,"розо":4157,"гна":4158,"реаги":4159,"красивой":4160,"возду":4161,"пил":4162,"уши":4163,"умеют":4164,"брак":4165,"темпера":4166,"дю":4167,"чаю":4168,"случаях":4169,"которым":4170,"дение":4171,"пошли":4172,"ложь":4173,"баба":4174,"внимания":4175,"полюбить":4176,"труд":4177,"незнаю":4178,"круче":4179,"депресси":4180,"одним":4181,"видели":4182,"кай":4183,"разгово":4184,"модель":4185,"цветок":4186,"страх":4187,"настоящая":4188,"умеет":4189,"ласко":4190,"вные":4191,"улыб":4192,"одинако":4193,"чного":4194,"щих":4195,"рису":4196,"гал":4197,"роль":4198,"дал":4199,"искрен":4200,"жаль":4201,"адре":4202,"руку":4203,"филосо":4204,"so":4205,"женская":4206,"напишите":4207,"марта":4208,"бояться":4209,"кер":4210,"кет":4211,"убрать":4212,"жесто":4213,"баб":4214,"умеешь":4215,"ассоциации":4216,"нета":4217,"любом":4218,"плиз":4219,"вли":4220,"новая":4221,"видео":4222,"молоко":4223,"голос":4224,"коте":4225,"цца":4226,"стный":4227,"написать":4228,"кин":4229,"куль":4230,"сум":4231,"вполне":4232,"годы":4233,"скро":4234,"клады":4235,"исклю":4236,"поте":4237,"любимому":4238,"водит":4239,"несколько":4240,"актри":4241,"вость":4242,"ммм":4243,"постели":4244,"сходить":4245,"коше":4246,"разли":4247,"хорошую":4248,"номер":4249,"хх":4250,"потерять":4251,"считаю":4252,"ваще":4253,"тату":4254,"путь":4255,"снег":4256,"разному":4257,"слышать":4258,"дан":4259,"стесня":4260,"мут":4261,"аааааааа":4262,"внешность":4263,"молоды":4264,"the":4265,"рение":4266,"стан":4267,"очередь":4268,"маме":4269,"цена":4270,"бан":4271,"зывают":4272,"хло":4273,"прош":4274,"белый":4275,"сигарет":4276,"мудро":4277,"словом":4278,"жил":4279,"судьба":4280,"лице":4281,"способны":4282,"поез":4283,"начало":4284,"изви":4285,"терпеть":4286,"нормальный":4287,"нести":4288,"тыся":4289,"первой":4290,"скольки":4291,"лят":4292,"дождь":4293,"ногти":4294,"ho":4295,"che":4296,"лежит":4297,"отчего":4298,"лети":4299,"наш":4300,"устраи":4301,"видела":4302,"крет":4303,"бабы":4304,"пиш":4305,"живе":4306,"ово":4307,"дил":4308,"внеш":4309,"кал":4310,"тых":4311,"чуде":4312,"старше":4313,"отме":4314,"капу":4315,"дон":4316,"нашей":4317,"стиль":4318,"бред":4319,"чко":4320,"заслу":4321,"цов":4322,"скор":4323,"тный":4324,"разоча":4325,"расска":4326,"ору":4327,"жало":4328,"алек":4329,"пива":4330,"боли":4331,"тое":4332,"грустно":4333,"квартире":4334,"погода":4335,"стала":4336,"хит":4337,"любимых":4338,"гой":4339,"новогод":4340,"средство":4341,"бей":4342,"ов":4343,"людях":4344,"ut":4345,"достоин":4346,"шее":4347,"жили":4348,"рию":4349,"компли":4350,"украи":4351,"навсегда":4352,"нин":4353,"зве":4354,"хре":4355,"инете":4356,"осталось":4357,"лена":4358,"ствовать":4359,"пп":4360,"дверь":4361,"пойду":4362,"удовольствие":4363,"kak":4364,"увели":4365,"сходи":4366,"зовать":4367,"ждает":4368,"жене":4369,"моё":4370,"сало":4371,"дная":4372,"вало":4373,"дец":4374,"мысле":4375,"бай":4376,"чнее":4377,"бря":4378,"жан":4379,"отлича":4380,"удобно":4381,"кошку":4382,"представля":4383,"первым":4384,"понравился":4385,"русс":4386,"бая":4387,"сыгра":4388,"чья":4389,"щую":4390,"возбу":4391,"остано":4392,"еха":4393,"видите":4394,"ответов":4395,"яр":4396,"окружа":4397,"80":4398,"наме":4399,"эмоции":4400,"плани":4401,"нным":4402,"делаешь":4403,"сериа":4404,"тина":4405,"обижа":4406,"магазин":4407,"носят":4408,"вался":4409,"выхо":4410,"созна":4411,"вместо":4412,"ото":4413,"льную":4414,"сексуально":4415,"подруга":4416,"соблаз":4417,"семьи":4418,"напря":4419,"фига":4420,"зуб":4421,"щим":4422,"естественно":4423,"еш":4424,"витами":4425,"красить":4426,"руками":4427,"качество":4428,"память":4429,"дур":4430,"здоровья":4431,"интересный":4432,"бара":4433,"джин":4434,"лями":4435,"стый":4436,"вариант":4437,"делали":4438,"конца":4439,"арми":4440,"титься":4441,"пау":4442,"парт":4443,"сда":4444,"таре":4445,"?=)":4446,"здравствуйте":4447,"рези":4448,"муд":4449,"норм":4450,"измену":4451,"динамо":4452,"руют":4453,"тельные":4454,"хозяй":4455,"подходит":4456,"понял":4457,"пох":4458,"суб":4459,"ухо":4460,"22":4461,"зако":4462,"масса":4463,"подоб":4464,"заве":4465,"свер":4466,"умно":4467,"распо":4468,"тему":4469,"гаю":4470,"темно":4471,"зарабаты":4472,"восто":4473,"показа":4474,"гол":4475,"дороже":4476,"вело":4477,"водки":4478,"ss":4479,"цели":4480,"туалет":4481,"побольше":4482,"гер":4483,"женой":4484,"пусто":4485,"контак":4486,"+)":4487,"?)?)":4488,"едят":4489,"пира":4490,"связа":4491,"специ":4492,"горь":4493,"последнее":4494,"настроения":4495,"дарить":4496,"надоело":4497,"править":4498,"проходит":4499,"состояние":4500,"друзьями":4501,"употре":4502,"страна":4503,"ревность":4504,"черный":4505,"макси":4506,"анти":4507,"кака":4508,"расскажите":4509,"спокойно":4510,"весело":4511,"треть":4512,"ствием":4513,"рецепт":4514,"бов":4515,"нном":4516,"плохой":4517,"ждение":4518,"словами":4519,"ими":4520,"считается":4521,"фина":4522,"смысла":4523,"серьёз":4524,"стили":4525,"будущее":4526,"животные":4527,"порт":4528,"уметь":4529,"нью":4530,"опти":4531,"утрам":4532,"поговорить":4533,"жел":4534,"стоят":4535,"чистить":4536,"тели":4537,"холодно":4538,"заставля":4539,"неж":4540,"сочи":4541,"тельство":4542,"пои":4543,"реал":4544,"ческой":4545,"нуться":4546,"большие":4547,"бизнес":4548,"бю":4549,"муже":4550,"любили":4551,"бежать":4552,"нье":4553,"контро":4554,"гут":4555,"красивее":4556,"жим":4557,"стол":4558,"путе":4559,"добрые":4560,"лад":4561,"плакать":4562,"скажете":4563,"мас":4564,"головой":4565,"случайно":4566,"груди":4567,"подарки":4568,"лог":4569,"----":4570,"блюдо":4571,"благо":4572,"живать":4573,"разум":4574,"ловать":4575,"pa":4576,"силы":4577,"днем":4578,"папа":4579,"переда":4580,"\")":4581,"чок":4582,"согласна":4583,"прили":4584,"электро":4585,"домашних":4586,"дия":4587,"км":4588,"приходится":4589,"сном":4590,"водите":4591,"сот":4592,"пка":4593,"искус":4594,"реги":4595,"отдых":4596,"абсолютно":4597,"ba":4598,"вная":4599,"победит":4600,"сказали":4601,"зма":4602,"пок":4603,"ненавижу":4604,"тр":4605,"предла":4606,"обез":4607,"рек":4608,"смотрит":4609,"ест":4610,"выиграет":4611,"отпуск":4612,"юю":4613,"тельная":4614,"како":4615,"ческое":4616,"чам":4617,"съесть":4618,"самым":4619,"кончи":4620,"ступ":4621,"школу":4622,"девчонки":4623,"хорошим":4624,"пуга":4625,"говорю":4626,"американ":4627,"мысль":4628,"воли":4629,"своя":4630,"небо":4631,"сын":4632,"нько":4633,"счастливым":4634,"назвали":4635,"рази":4636,"шок":4637,"дари":4638,"сона":4639,"хими":4640,"вок":4641,"кило":4642,".!":4643,"чувствовать":4644,"госпо":4645,"воде":4646,"програм":4647,"еда":4648,"красивых":4649,"дишь":4650,"метро":4651,"круто":4652,"гни":4653,"500":4654,"сделал":4655,"лант":4656,"соверше":4657,"вспомина":4658,"куса":4659,"водят":4660,"еги":4661,"понравилось":4662,"мимо":4663,"телеви":4664,"сой":4665,"дую":4666,"умнее":4667,"начинать":4668,"точки":4669,"наша":4670,"своем":4671,"хер":4672,"карма":4673,"мужской":4674,"марка":4675,"повод":4676,"бегать":4677,"пыты":4678,"ааа":4679,"эм":4680,"миро":4681,"боится":4682,"соль":4683,"хотеть":4684,"жет":4685,"чают":4686,"ведли":4687,"лям":4688,"геро":4689,"детства":4690,"дружить":4691,"su":4692,"идёт":4693,"красивое":4694,"ставь":4695,"реша":4696,"гы":4697,"посу":4698,"влечь":4699,"сказки":4700,"оригина":4701,"хая":4702,"девствен":4703,"лома":4704,"вае":4705,"дёте":4706,"умная":4707,"полностью":4708,"посла":4709,"выбо":4710,"переди":4711,"яи":4712,"глазах":4713,"ck":4714,"шоколад":4715,"ниже":4716,"занимаетесь":4717,"люзи":4718,"доверие":4719,"мило":4720,"натура":4721,"модно":4722,"сына":4723,"плохое":4724,"рожда":4725,"чками":4726,"пахнет":4727,"зме":4728,"поводу":4729,"кл":4730,"обманы":4731,"справедли":4732,"прощать":4733,"бит":4734,"локо":4735,"шаг":4736,"приветик":4737,"земля":4738,"нком":4739,"честве":4740,"альные":4741,"растут":4742,"ющим":4743,"бовать":4744,"тря":4745,"богу":4746,"пригото":4747,"твое":4748,"стные":4749,"стихи":4750,"тупы":4751,"ахаха":4752,"проверя":4753,"вера":4754,"вил":4755,"сии":4756,"колба":4757,"pro":4758,"немец":4759,"повы":4760,"мень":4761,"зую":4762,"поднима":4763,"плачу":4764,"популяр":4765,"отлично":4766,"преле":4767,"страда":4768,"трени":4769,"условиях":4770,"тиши":4771,"возвраща":4772,"вирту":4773,"кредит":4774,"коз":4775,"пает":4776,"крем":4777,"разде":4778,"одном":4779,"иду":4780,"систе":4781,"аватар":4782,"мальчика":4783,"подро":4784,"скром":4785,"поднять":4786,":(":4787,"вызывает":4788,"оре":4789,"эх":4790,"странно":4791,"гр":4792,"продать":4793,"порядо":4794,"дор":4795,"стран":4796,"отучить":4797,"зить":4798,"завтрак":4799,"стю":4800,"шер":4801,"становятся":4802,"дорогой":4803,"навеяло":4804,"ето":4805,"конкрет":4806,"рети":4807,"нашли":4808,"большин":4809,"положите":4810,"зали":4811,"расстоя":4812,"шеб":4813,"свидании":4814,"сплю":4815,"собра":4816,"летки":4817,"играют":4818,"рах":4819,"ктив":4820,"паца":4821,"мммм":4822,"вляю":4823,"ом":4824,"спу":4825,"дешевле":4826,"подума":4827,"испыты":4828,"ревну":4829,"ладно":4830,"спите":4831,"глупость":4832,"слушаю":4833,"зда":4834,"плох":4835,"шусь":4836,"пойдет":4837,"яяяя":4838,"кает":4839,"соли":4840,"мороз":4841,"взаимно":4842,"тные":4843,"хие":4844,"поменять":4845,"начинает":4846,"дем":4847,"февра":4848,"любил":4849,"согласен":4850,"молчать":4851,"ver":4852,"фер":4853,"волшеб":4854,"повезло":4855,"девче":4856,"сторону":4857,"зеркало":4858,"огур":4859,"раздражает":4860,"выйдет":4861,"тупо":4862,"is":4863,"воспо":4864,"кция":4865,"ответа":4866,"понимать":4867,"поса":4868,"футболист":4869,"net":4870,"туре":4871,"угадайте":4872,"35":4873,"целоваться":4874,"корм":4875,"берут":4876,"хой":4877,"((((((((":4878,"качества":4879,"имени":4880,"руется":4881,"сми":4882,"эконо":4883,"даль":4884,"принимать":4885,"ита":4886,"доверять":4887,"спря":4888,"советую":4889,"болезнь":4890,"броса":4891,"ничем":4892,"чета":4893,"влюбле":4894,"комен":4895,"оказа":4896,"понимание":4897,"неш":4898,"долла":4899,"платить":4900,"маленький":4901,"вного":4902,"подойдет":4903,"хам":4904,"взгляда":4905,"измена":4906,"увы":4907,"конья":4908,"выпи":4909,"общение":4910,"написано":4911,"умереть":4912,"гне":4913,"некоторых":4914,"бесе":4915,"24":4916,"потра":4917,"лекар":4918,"цем":4919,"другую":4920,"нормальные":4921,"трусы":4922,"заболе":4923,"необходимо":4924,"гоня":4925,"просыпа":4926,"сша":4927,"вещь":4928,"пройдет":4929,"купа":4930,"использу":4931,"видишь":4932,"след":4933,"вина":4934,"тую":4935,"бби":4936,"вный":4937,"разных":4938,"взаимо":4939,"многое":4940,"сезон":4941,"питер":4942,"помощью":4943,"ите":4944,"проек":4945,"тус":4946,"отсутствие":4947,"общения":4948,"рис":4949,"зима":4950,"показать":4951,"рил":4952,"тится":4953,"узнаешь":4954,"моих":4955,"коллек":4956,"фана":4957,"играл":4958,"хрен":4959,"дного":4960,"брат":4961,"),":4962,"летать":4963,"лина":4964,"выро":4965,"чувствую":4966,"сможет":4967,"яться":4968,"милая":4969,"старый":4970,":).":4971,"почитать":4972,"хлеб":4973,"водку":4974,"оту":4975,"тива":4976,"правило":4977,"ошиба":4978,"какова":4979,"насла":4980,"телефо":4981,"зли":4982,"кость":4983,"считают":4984,"челси":4985,"дурак":4986,"выки":4987,"влять":4988,"заклю":4989,"тили":4990,"значение":4991,"понимают":4992,"инсти":4993,"одному":4994,"довать":4995,"уууууууу":4996,"шлы":4997,"шими":4998,"инстру":4999,"вяза":5000,"причины":5001,"еды":5002,"дёшь":5003,"особо":5004,"щик":5005,"тин":5006,"нице":5007,"ньки":5008,"прежде":5009,"парням":5010,"скому":5011,"зелё":5012,"минимум":5013,"нули":5014,"билет":5015,"идут":5016,"тельное":5017,"аниме":5018,"прикольно":5019,"поделитесь":5020,"член":5021,"45":5022,"фона":5023,"ca":5024,"сказала":5025,"научить":5026,"щен":5027,"выражение":5028,"позна":5029,"судя":5030,"питере":5031,"началь":5032,"доброй":5033,"провести":5034,"шой":5035,"врачу":5036,"нек":5037,"спят":5038,"современ":5039,"yo":5040,"ложить":5041,"дочь":5042,"рами":5043,"опас":5044,"ассоции":5045,"70":5046,"опера":5047,"село":5048,"францу":5049,"прошлое":5050,"хороших":5051,"дек":5052,"разби":5053,"шлю":5054,"нен":5055,"пари":5056,"лях":5057,"водка":5058,"вляет":5059,"дороги":5060,"также":5061,"шампу":5062,"запре":5063,"шашлы":5064,"ниж":5065,"чник":5066,"спортом":5067,"наших":5068,"фильме":5069,"семью":5070,"желу":5071,"двор":5072,"расти":5073,"остаться":5074,"фар":5075,"самим":5076,"понедель":5077,"тельства":5078,"заку":5079,"мамы":5080,"врать":5081,"чика":5082,"слушаете":5083,"глубо":5084,"талант":5085,"тек":5086,"гармо":5087,"причем":5088,"нение":5089,"ока":5090,"сипе":5091,"точку":5092,"мари":5093,"еться":5094,"звать":5095,"порно":5096,"убий":5097,"зз":5098,"наконец":5099,"которое":5100,"временем":5101,"вряд":5102,"мить":5103,"мес":5104,"возника":5105,"ошибки":5106,"делай":5107,"запи":5108,"одежды":5109,"салат":5110,"свадьбы":5111,"варе":5112,"процес":5113,"тарака":5114,"зря":5115,"ию":5116,"живёт":5117,"москвы":5118,"иль":5119,"неуда":5120,"стери":5121,"ing":5122,"уважение":5123,"сможете":5124,"япон":5125,"страны":5126,"зен":5127,"согласи":5128,"ужасно":5129,"джо":5130,"пку":5131,"водой":5132,"следует":5133,"рода":5134,"маму":5135,"сиськи":5136,"заменить":5137,"постель":5138,"встретить":5139,"ваем":5140,"кстати":5141,"вторая":5142,"главный":5143,"роз":5144,"хах":5145,"рассла":5146,"рук":5147,"суббо":5148,"прия":5149,"сегодняш":5150,"иллюзи":5151,"встречаться":5152,"сос":5153,"простой":5154,"удовольствием":5155,"кризи":5156,"веро":5157,"открыть":5158,"тв":5159,"даёт":5160,"настоящему":5161,"круп":5162,"очки":5163,"пома":5164,"вец":5165,"рррр":5166,"чесно":5167,"скромно":5168,"ждения":5169,"тащи":5170,"дри":5171,"рем":5172,"хобби":5173,"жизнью":5174,"поряд":5175,"велосипе":5176,"телей":5177,"тет":5178,"варить":5179,"зал":5180,"любу":5181,"головы":5182,"известно":5183,"сети":5184,"вши":5185,"чужие":5186,"us":5187,"наль":5188,"вкуснее":5189,"пробовал":5190,"порой":5191,"пуль":5192,"гнать":5193,"прилично":5194,"любимую":5195,"знакомства":5196,"обед":5197,"женское":5198,"медве":5199,"пожела":5200,"товари":5201,"смешно":5202,"совершенно":5203,"тыс":5204,"работаю":5205,"алкоголь":5206,"никуда":5207,"оке":5208,"сбы":5209,"мок":5210,"уважа":5211,"плюсы":5212,"глупости":5213,"женские":5214,"мато":5215,"вкусный":5216,"слава":5217,"возьми":5218,"юмора":5219,"чаете":5220,"пласти":5221,"попасть":5222,"плане":5223,"ответственно":5224,"реале":5225,"шанс":5226,"носите":5227,"практически":5228,"мужика":5229,"русские":5230,"роли":5231,"чна":5232,"дд":5233,"рожать":5234,"ьер":5235,"зажи":5236,"купили":5237,"приня":5238,"волну":5239,"свобода":5240,"ужи":5241,"www":5242,"смотрели":5243,"знакомиться":5244,"степе":5245,"существуют":5246,"гии":5247,"зиму":5248,"верит":5249,"летво":5250,"ждет":5251,"чемпиона":5252,"эль":5253,"поменя":5254,"кора":5255,"зим":5256,"одновременно":5257,"рекомен":5258,"сик":5259,"гаи":5260,"бак":5261,"запрет":5262,"плохого":5263,"приме":5264,"eto":5265,"бесит":5266,"рых":5267,"никаких":5268,"сидит":5269,"шили":5270,"близких":5271,"дому":5272,"винова":5273,"знамени":5274,"таб":5275,"шар":5276,"весной":5277,"удов":5278,"мит":5279,"пс":5280,"руко":5281,"вашим":5282,"сравни":5283,"щенка":5284,"льность":5285,"тник":5286,"жих":5287,"петь":5288,"моря":5289,"лежа":5290,"вперед":5291,"пришла":5292,"выпу":5293,"цом":5294,"ребёнок":5295,"комедию":5296,"тная":5297,"рады":5298,"бега":5299,"точка":5300,"белые":5301,"коты":5302,"цами":5303,"серьезно":5304,"прока":5305,"всеми":5306,"стира":5307,"выпа":5308,"приве":5309,"нова":5310,"мура":5311,"ственная":5312,"онов":5313,"радости":5314,"изм":5315,"маленькая":5316,"ur":5317,"……":5318,"силу":5319,"наблю":5320,"честь":5321,"носки":5322,"попробовать":5323,"планы":5324,"рование":5325,"буд":5326,"понравится":5327,"ждут":5328,"дорогу":5329,"интересует":5330,"пила":5331,"охота":5332,"правды":5333,"апте":5334,"сыр":5335,"щает":5336,"завиду":5337,"счастливы":5338,"аж":5339,"таком":5340,"куша":5341,"спер":5342,"нервы":5343,"бами":5344,"лке":5345,"задума":5346,"музыки":5347,"мё":5348,"кими":5349,"буль":5350,"нормальная":5351,"новое":5352,"молодой":5353,"дого":5354,"лев":5355,"кожа":5356,"соля":5357,"ищет":5358,"рено":5359,"выго":5360,"дива":5361,"шит":5362,"заг":5363,"насе":5364,"разру":5365,"ga":5366,"рождение":5367,"зв":5368,"вопроса":5369,"купил":5370,"многих":5371,"ету":5372,"бума":5373,"такими":5374,"произо":5375,"нрав":5376,"тельность":5377,"дорогие":5378,"марки":5379,"подруги":5380,"напомина":5381,"красоты":5382,"жут":5383,"футболь":5384,"виноват":5385,"пая":5386,"мето":5387,"родился":5388,"каждому":5389,"новой":5390,"удовлетво":5391,"губы":5392,"pe":5393,"лую":5394,"пользуетесь":5395,"даете":5396,"солны":5397,"водо":5398,"звучит":5399,"беременность":5400,"дик":5401,"форму":5402,"фотка":5403,"ссе":5404,"сков":5405,"мульт":5406,"мака":5407,"дим":5408,"лл":5409,"ограни":5410,"кости":5411,"рука":5412,"ключи":5413,"фы":5414,"приста":5415,"придумать":5416,"улыбка":5417,"глядя":5418,"страшный":5419,"300":5420,"шед":5421,"использовать":5422,"99":5423,"опы":5424,"рад":5425,"ева":5426,"хорошей":5427,"рица":5428,"рку":5429,"фин":5430,"результат":5431,"влюблен":5432,"забере":5433,"виа":5434,"футболу":5435,"детство":5436,"обычный":5437,"злые":5438,"способен":5439,"действия":5440,"мали":5441,"мел":5442,"поняли":5443,"клад":5444,"мальчики":5445,"правила":5446,"успоко":5447,"ооо":5448,"срок":5449,"выходить":5450,"сиби":5451,"ер":5452,"прези":5453,"вайся":5454,"февраля":5455,"тывать":5456,"нька":5457,"грамм":5458,"плюс":5459,"природе":5460,"путеше":5461,"тяну":5462,"спокойной":5463,"ясно":5464,"полный":5465,"жур":5466,"объяснить":5467,"дным":5468,"оцени":5469,"вален":5470,"зая":5471,"шение":5472,"син":5473,"имею":5474,"лго":5475,"чком":5476,"спаса":5477,"2012":5478,"ly":5479,"диться":5480,"гле":5481,"шками":5482,"жий":5483,"настоящие":5484,"du":5485,"форт":5486,"жные":5487,"ссс":5488,"приче":5489,"крылья":5490,"барсело":5491,"изменяют":5492,"девстве":5493,"подрост":5494,"рога":5495,"заба":5496,"ась":5497,"хто":5498,"воскре":5499,"живете":5500,"рк":5501,"мах":5502,"чия":5503,"хуа":5504,"брюнет":5505,"квартиру":5506,"мю":5507,"дока":5508,"видит":5509,"бия":5510,"нашла":5511,"стная":5512,"забыл":5513,"присут":5514,"жено":5515,"страсть":5516,"оти":5517,"кисло":5518,"поду":5519,"подумать":5520,"+++":5521,"исче":5522,"вик":5523,"уз":5524,"дается":5525,"лесу":5526,"стои":5527,"плохая":5528,"заканчивается":5529,"проверить":5530,"цент":5531,"наказа":5532,"понимает":5533,"сделай":5534,"рения":5535,"бое":5536,"реальность":5537,"мечтать":5538,"пала":5539,"милые":5540,"понравиться":5541,"сере":5542,"информа":5543,"всей":5544,"женской":5545,"чках":5546,"новым":5547,"радоваться":5548,"знак":5549,"поступки":5550,"чувств":5551,"вень":5552,"кия":5553,"мыми":5554,"счастлив":5555,"жается":5556,"гражда":5557,"факт":5558,"гляды":5559,"поет":5560,"фразу":5561,"паро":5562,"четы":5563,"фамили":5564,"пожале":5565,"нё":5566,"\"!":5567,"секу":5568,"ошиб":5569,"тят":5570,"прочита":5571,"второе":5572,"родствен":5573,"вовремя":5574,"ресто":5575,"кля":5576,"торо":5577,"постави":5578,"ветер":5579,"картинка":5580,"классно":5581,"усы":5582,"пир":5583,"пользую":5584,"характера":5585,"языке":5586,"кура":5587,"космо":5588,"определе":5589,"сад":5590,"актер":5591,"никакой":5592,"вье":5593,"посмотрите":5594,"двое":5595,"тож":5596,"домо":5597,"маленькие":5598,"танце":5599,"душой":5600,"дак":5601,"каждой":5602,"лье":5603,"пользоваться":5604,"дала":5605,"рин":5606,"хай":5607,"холодиль":5608,"ора":5609,"мотоци":5610,"даст":5611,"вторую":5612,"ощущения":5613,"борщ":5614,"she":5615,"рять":5616,"лёг":5617,"супру":5618,"лле":5619,"жаре":5620,"довольны":5621,"пройти":5622,"чужой":5623,"уку":5624,"ищут":5625,"часы":5626,"устраивает":5627,"отличаются":5628,"надолго":5629,"недавно":5630,"счёт":5631,"любому":5632,"нил":5633,"покаж":5634,"девочку":5635,"анали":5636,"ели":5637,"принять":5638,"заранее":5639,"впереди":5640,"цио":5641,",.":5642,"пошла":5643,"льном":5644,"считает":5645,"растет":5646,"ческого":5647,"болеть":5648,"признак":5649,"большое":5650,"спирт":5651,"ииии":5652,"отре":5653,"спрашивать":5654,"пец":5655,"грех":5656,"ждете":5657,"бабо":5658,"туи":5659,"мани":5660,"никам":5661,"обувь":5662,"un":5663,"отдать":5664,"библи":5665,"жей":5666,"бус":5667,"стика":5668,"тип":5669,"мужья":5670,"вдох":5671,"встрети":5672,"почки":5673,"мета":5674,"смотрят":5675,"задавать":5676,"пятница":5677,"сё":5678,"чаться":5679,"добрым":5680,"юр":5681,"зрения":5682,"верно":5683,"ситуация":5684,"едите":5685,"тема":5686,"шампан":5687,"категории":5688,"добавить":5689,"тона":5690,"существо":5691,"стик":5692,"грибы":5693,"тку":5694,"сятся":5695,"цией":5696,"цените":5697,"духов":5698,"одиночества":5699,"хвост":5700,"лист":5701,"задумы":5702,"случилось":5703,"отличить":5704,"ходу":5705,"гая":5706,"гиб":5707,"привычка":5708,"начинают":5709,"пл":5710,"влюбилась":5711,"кну":5712,"жая":5713,"аппет":5714,"явно":5715,"тест":5716,"баллов":5717,"фю":5718,"средства":5719,"чувствуешь":5720,"зависимости":5721,"плы":5722,"слышал":5723,"men":5724,"мпи":5725,"тером":5726,"тормо":5727,"and":5728,"совето":5729,"проя":5730,"твою":5731,"дерево":5732,"сочета":5733,"веришь":5734,"мужская":5735,"план":5736,"осозна":5737,"двоих":5738,"услышать":5739,"шля":5740,"правлять":5741,"пробовали":5742,"готова":5743,"алексан":5744,"деду":5745,"оптими":5746,"женский":5747,"ребята":5748,"ke":5749,"умение":5750,"нитель":5751,"микро":5752,"няк":5753,"чьи":5754,"слабы":5755,"ческих":5756,"нский":5757,"засыпа":5758,"крити":5759,"ночам":5760,"банк":5761,"цены":5762,"черно":5763,"признаться":5764,"выпол":5765,"уверенность":5766,"мыслей":5767,"стят":5768,"мастер":5769,"однако":5770,"обезья":5771,"лево":5772,"извра":5773,"нятся":5774,"лость":5775,"my":5776,"ух":5777,"нега":5778,"покой":5779,"нную":5780,"bu":5781,"телем":5782,"стит":5783,"здорово":5784,"лут":5785,"придумал":5786,"трети":5787,"твоё":5788,"избавится":5789,"фотки":5790,"намного":5791,"француз":5792,"неожида":5793,"духи":5794,"стоять":5795,"птица":5796,"ая":5797,"принципе":5798,"валась":5799,"сапо":5800,"растения":5801,"правиться":5802,"ауди":5803,"замужем":5804,"чивать":5805,"зеленый":5806,"имена":5807,"кровать":5808,"леди":5809,"мили":5810,"рели":5811,"одеть":5812,"dd":5813,"двигатель":5814,"злой":5815,"куро":5816,"скока":5817,"вяз":5818,"воль":5819,"дили":5820,"мороже":5821,"тысяч":5822,"звёз":5823,"красный":5824,"гряз":5825,"рым":5826,"рыбал":5827,"зит":5828,"желе":5829,"туры":5830,"мну":5831,"пошло":5832,"сильный":5833,"мужиков":5834,"гали":5835,"борь":5836,"zh":5837,"лечит":5838,"пуши":5839,"превра":5840,"детьми":5841,"поняла":5842,"кухне":5843,"подроб":5844,"рыбу":5845,"вернуться":5846,"обман":5847,"____":5848,"надежда":5849,"хоккей":5850,"позволя":5851,"милый":5852,"росте":5853,"пов":5854,"фффф":5855,".\"":5856,"радио":5857,"влади":5858,"тупой":5859,"граду":5860,"половинку":5861,"гл":5862,"рулем":5863,"бах":5864,"гули":5865,"интуи":5866,"обратно":5867,"осторо":5868,"комфорт":5869,"придет":5870,"дядь":5871,"страшная":5872,"красивым":5873,"сказка":5874,"ятся":5875,"вале":5876,"моим":5877,"мог":5878,"солне":5879,"собы":5880,"природа":5881,"миллион":5882,"мам":5883,"чность":5884,"минус":5885,"блондинки":5886,"лайн":5887,"опреде":5888,"придумали":5889,"pi":5890,"уют":5891,"твоих":5892,"сладкое":5893,"враг":5894,"пофиг":5895,"помнить":5896,"овча":5897,"сердцу":5898,"любую":5899,"заби":5900,"кир":5901,"жерт":5902,"меняется":5903,"жок":5904,"счастливой":5905,"предела":5906,"шпи":5907,"арсе":5908,"раздо":5909,"агре":5910,"кок":5911,"роста":5912,"короле":5913,"продукты":5914,"гон":5915,"окна":5916,"тыми":5917,"кало":5918,"каков":5919,"валя":5920,"ремо":5921,"штука":5922,"одо":5923,"отзы":5924,"грамо":5925,".:":5926,"жид":5927,"минусы":5928,"слома":5929,"любая":5930,"относится":5931,"розы":5932,"изобра":5933,"сможешь":5934,"третий":5935,"напиши":5936,"навли":5937,"слабость":5938,"обстоя":5939,"подъ":5940,"врут":5941,"толсте":5942,"фей":5943,"сложнее":5944,"прогнозы":5945,"котё":5946,"компании":5947,"девченки":5948,"набрать":5949,"1000":5950,"любила":5951,"еже":5952,"ронал":5953,"совершен":5954,"дед":5955,"gi":5956,"стую":5957,"похме":5958,"приклю":5959,"водится":5960,"сюр":5961,"слове":5962,"найди":5963,"актё":5964,"наиболее":5965,"мужские":5966,"простите":5967,"кош":5968,"жди":5969,"немно":5970,"груз":5971,"впечатления":5972,"назна":5973,"жении":5974,"стях":5975,"сборной":5976,"фамилия":5977,"ческую":5978,"шения":5979,"руба":5980,"падает":5981,"бензин":5982,"уга":5983,"родить":5984,"дороге":5985,"классный":5986,"ната":5987,"конча":5988,"пьют":5989,"сму":5990,"теп":5991,"?:":5992,"отмет":5993,"плохие":5994,"ственные":5995,"неплохо":5996,"лости":5997,"черепа":5998,"per":5999,"зади":6000,"мей":6001,"компьютер":6002,"воспомина":6003,"кома":6004,"остались":6005,"мешь":6006,"идиот":6007,"глупые":6008,"тии":6009,"вылечить":6010,"жер":6011,"вов":6012,"любого":6013,"гнуть":6014,"адрес":6015,"умным":6016,"био":6017,"получилось":6018,",,,":6019,"ровки":6020,"боишься":6021,"боже":6022,"думал":6023,":):):).":6024,"широ":6025,"цам":6026,"фраза":6027,"фильмов":6028,"купила":6029,"знакомств":6030,"ищите":6031,"vse":6032,"ницей":6033,"пресс":6034,"профессия":6035,"совмести":6036,"сел":6037,"биться":6038,"помогают":6039,"нада":6040,"умных":6041,"интересные":6042,"идеальный":6043,"тивно":6044,"аллер":6045,"обрести":6046,"chto":6047,"кроли":6048,"дорогая":6049,"приносит":6050,"мнения":6051,"одежду":6052,"нче":6053,"деся":6054,"сосед":6055,"олимпи":6056,"вании":6057,"парфю":6058,"предложение":6059,"скла":6060,"браке":6061,"прелесть":6062,"няют":6063,"свадьбу":6064,"афри":6065,"согре":6066,"пого":6067,"курю":6068,"жима":6069,"арша":6070,"рф":6071,"попробуйте":6072,"поздравляю":6073,"эл":6074,"делом":6075,"ходили":6076,"sto":6077,"психологически":6078,"разговаривать":6079,"ge":6080,"еру":6081,"иска":6082,"никами":6083,"убор":6084,"(+)":6085,"кафе":6086,"имеют":6087,"япо":6088,"твоего":6089,"верят":6090,"реакция":6091,"рев":6092,"проси":6093,"отношусь":6094,"говорили":6095,"каса":6096,"сахар":6097,"рисовать":6098,"ришь":6099,"образи":6100,"ист":6101,"вывести":6102,"золото":6103,"яйцо":6104,"ju":6105,"чак":6106,"желаю":6107,"фигня":6108,"приви":6109,"сутки":6110,"ничто":6111,"хал":6112,"цветов":6113,"автомобиля":6114,"твер":6115,"тил":6116,"каблу":6117,"дятся":6118,"понятие":6119,"всём":6120,"трех":6121,"советы":6122,"противополо":6123,"диагно":6124,"лыми":6125,"костю":6126,"литера":6127,"ньте":6128,"фирмы":6129,"упра":6130,"ровно":6131,"лак":6132,"длинные":6133,"напиток":6134,"разобра":6135,"ниц":6136,"риф":6137,"группу":6138,"млад":6139,"етер":6140,"рада":6141,"рим":6142,"жж":6143,"жная":6144,"стреми":6145,"месси":6146,"готовите":6147,"радует":6148,"понятия":6149,"поступ":6150,"оставить":6151,"взяли":6152,"конфет":6153,"виртуа":6154,"ry":6155,"котором":6156,"гент":6157,"мозга":6158,"держит":6159,"зоне":6160,"тае":6161,"котенка":6162,"попросить":6163,"курсе":6164,"эле":6165,"новых":6166,"называются":6167,"родов":6168,"хри":6169,"прекра":6170,"смотрела":6171,"уходят":6172,"предательство":6173,"слё":6174,"начали":6175,"лкой":6176,"уров":6177,"ревни":6178,"идеально":6179,"отор":6180,"двой":6181,"нили":6182,"трез":6183,"дружбу":6184,"ленно":6185,"вший":6186,"ношу":6187,"ужасов":6188,"дольше":6189,"джинсы":6190,"везет":6191,"состоянии":6192,"пережить":6193,"тивный":6194,"отом":6195,"актриса":6196,"нина":6197,"йор":6198,"возможность":6199,"ями":6200,"верность":6201,"слушай":6202,"искре":6203,"дэ":6204,"таться":6205,"собствен":6206,"рубин":6207,"убира":6208,"карье":6209,"оча":6210,"пление":6211,"ктов":6212,"2010":6213,"зверь":6214,"рд":6215,"просить":6216,"мудрость":6217,"запомни":6218,"чемпион":6219,"кризис":6220,"ун":6221,"лька":6222,"судьбы":6223,"дии":6224,"понимаешь":6225,"породу":6226,"кно":6227,"собесе":6228,"скри":6229,"wa":6230,"количество":6231,"такси":6232,"самооце":6233,"ухаживать":6234,"живает":6235,"лук":6236,"бам":6237,"нула":6238,"мв":6239,"прошлом":6240,"одея":6241,"йо":6242,"стями":6243,"собираюсь":6244,"град":6245,"гордость":6246,"шем":6247,"природы":6248,"отец":6249,"добиться":6250,"рете":6251,"сверху":6252,"bm":6253,"любое":6254,"of":6255,"просит":6256,"изменяет":6257,"каль":6258,"коша":6259,"лиф":6260,"отрица":6261,"арбу":6262,"остается":6263,"разме":6264,"объе":6265,"процен":6266,"пото":6267,"влюблё":6268,"страха":6269,"маз":6270,"жке":6271,"посы":6272,"любы":6273,"мужское":6274,"незнако":6275,"чите":6276,"гара":6277,"едет":6278,"покупаете":6279,"гораздо":6280,"удивить":6281,"фк":6282,"заго":6283,"ответь":6284,"мяса":6285,"война":6286,"следую":6287,"fi":6288,"рон":6289,"причине":6290,"зывается":6291,"стен":6292,"окно":6293,"чм":6294,"рыб":6295,"смс":6296,"о_":6297,"шите":6298,"терпение":6299,"отде":6300,"жусь":6301,"транс":6302,"заберемене":6303,"рав":6304,"остальные":6305,"ланд":6306,"деви":6307,"чиков":6308,"даче":6309,"выглядеть":6310,"индивиду":6311,"ибо":6312,"вопросом":6313,"фотографии":6314,"пробе":6315,"короче":6316,"являются":6317,"робо":6318,"пишут":6319,"курица":6320,"грыз":6321,"жест":6322,"выходной":6323,"национа":6324,"подви":6325,"любопыт":6326,"проститут":6327,"блондинка":6328,"благодар":6329,"ясь":6330,"вере":6331,"скорость":6332,"понедельник":6333,"опу":6334,"казах":6335,"бывать":6336,"приятное":6337,"вайтесь":6338,"делал":6339,"суток":6340,"судьбу":6341,"упраж":6342,"бру":6343,"мете":6344,"выйгра":6345,"ворот":6346,"работают":6347,"размера":6348,"уснуть":6349,"лада":6350,"рэп":6351,"ассоциируется":6352,"кровати":6353,"зона":6354,"врач":6355,"заключается":6356,"пик":6357,"цену":6358,"произве":6359,"нашел":6360,"определя":6361,"спорте":6362,"нар":6363,"своло":6364,"летают":6365,"мате":6366,"ремонт":6367,"воть":6368,"взаим":6369,"ia":6370,"мс":6371,"разбира":6372,"послать":6373,"влюбился":6374,"молчание":6375,"порядок":6376,"чительно":6377,"макия":6378,"армии":6379,"умом":6380,"мого":6381,"слышала":6382,"доку":6383,"атр":6384,"банке":6385,"презер":6386,"заставляет":6387,"лап":6388,"гг":6389,"терпи":6390,"холод":6391,"четыре":6392,"чувствует":6393,"бл":6394,"пю":6395,"пало":6396,"помощи":6397,"оскор":6398,"рукой":6399,"целый":6400,"сестра":6401,"били":6402,"понимании":6403,"злош":6404,"бьет":6405,"питом":6406,"перечи":6407,"сидите":6408,"думала":6409,"2008":6410,"моем":6411,"варианты":6412,"хороши":6413,"игрок":6414,"закончится":6415,"тупые":6416,"кожи":6417,"роваться":6418,"сию":6419,"урод":6420,"трах":6421,"рассказать":6422,"подарили":6423,"слышу":6424,"приходилось":6425,")!":6426,"ku":6427,"волю":6428,"отпуска":6429,"эроти":6430,"нравлюсь":6431,"солнышко":6432,"воб":6433,"fo":6434,"снится":6435,"страшнее":6436,"рё":6437,"бросил":6438,"нынче":6439,"получать":6440,"вспомнить":6441,"звезда":6442,"зоо":6443,"начале":6444,"герой":6445,"однокласс":6446,"команда":6447,"польза":6448,"ссср":6449,"27":6450,"пинг":6451,"безответ":6452,"выбирать":6453,"начи":6454,"пусты":6455,"продают":6456,"навеяно":6457,"лечится":6458,"туру":6459,"сентя":6460,"меша":6461,"льности":6462,"дыха":6463,"порядке":6464,"мик":6465,"срав":6466,"тли":6467,"пас":6468,"разуме":6469,"летит":6470,"ангел":6471,"страсти":6472,"образом":6473,"ау":6474,"послушать":6475,"слезы":6476,"говоря":6477,"аквари":6478,"ота":6479,"маски":6480,"менее":6481,"игро":6482,"man":6483,"ванной":6484,"испыта":6485,"ребенком":6486,"ллек":6487,"нож":6488,"бас":6489,"возможна":6490,"остров":6491,"заму":6492,"придется":6493,"смеяться":6494,"дря":6495,"петер":6496,"интереснее":6497,"никах":6498,"уверены":6499,"зови":6500,"окном":6501,"лого":6502,"внешности":6503,"витамины":6504,"соответ":6505,"самую":6506,"стари":6507,"мыло":6508,"пришли":6509,"направ":6510,"дья":6511,"молчит":6512,"чест":6513,"сики":6514,"аку":6515,"диета":6516,"старые":6517,"сохранить":6518,"ржу":6519,"украине":6520,"читаете":6521,"мерз":6522,"ребят":6523,"интеллек":6524,"лимо":6525,"лучшим":6526,"жира":6527,"бург":6528,"дова":6529,"останется":6530,"зарплату":6531,"контакте":6532,"вон":6533,"белая":6534,"удалить":6535,"живем":6536,"26":6537,"соседи":6538,"перво":6539,"интересо":6540,"свекровь":6541,"универ":6542,"решение":6543,"нагло":6544,"сидя":6545,"пушки":6546,"пру":6547,"укре":6548,"зии":6549,"отвечаю":6550,"джон":6551,"взял":6552,"листь":6553,"сывать":6554,"дию":6555,"самых":6556,"общего":6557,"реали":6558,"обес":6559,"леты":6560,"обидеть":6561,"агресси":6562,".(":6563,"напа":6564,"нев":6565,"глупый":6566,"обид":6567,"ненависть":6568,"гим":6569,"хру":6570,"приду":6571,"история":6572,"жко":6573,"истери":6574,"целью":6575,"вора":6576,"маты":6577,"лететь":6578,"тий":6579,".?:):):).":6580,"нара":6581,".).":6582,"разговор":6583,"будущем":6584,"испортить":6585,"клей":6586,"смогу":6587,"улицу":6588,"области":6589,"пин":6590,"обсу":6591,"199":6592,"старости":6593,"ано":6594,"любые":6595,"профессиона":6596,"юмор":6597,"траха":6598,"лопа":6599,"звали":6600,"приез":6601,"неть":6602,"режи":6603,"жила":6604,"живи":6605,"сидят":6606,"мила":6607,"привычки":6608,"iz":6609,"эр":6610,"разре":6611,"ива":6612,"жарко":6613,"молодец":6614,"нду":6615,"уми":6616,"пишет":6617,"вшись":6618,"тд":6619,"прики":6620,"хранить":6621,"марку":6622,"ала":6623,"прос":6624,"проявляется":6625,"шоу":6626,"двери":6627,"прогу":6628,"зависть":6629,"фаль":6630,"подруге":6631,"жра":6632,"речь":6633,"ктора":6634,"форме":6635,"домашние":6636,"брака":6637,"дано":6638,"специально":6639,"наслажда":6640,"ушла":6641,"метров":6642,"аз":6643,"небес":6644,"зача":6645,"страхо":6646,"зарплата":6647,"фотку":6648,"любовница":6649,"читаю":6650,"предпоч":6651,"унита":6652,"оцените":6653,"дека":6654,"возможности":6655,"est":6656,"аро":6657,"воздух":6658,"духо":6659,"персона":6660,"тельным":6661,"рта":6662,"беременна":6663,"север":6664,"пам":6665,"интим":6666,"сторон":6667,"недостатки":6668,"выбрали":6669,"счастью":6670,"танцу":6671,"сигареты":6672,"поры":6673,"привлекает":6674,"начал":6675,"сделала":6676,"занятие":6677,"красав":6678,"лицу":6679,"фрукты":6680,"хл":6681,"льки":6682,"родителям":6683,"приходят":6684,"скорей":6685,"берет":6686,"разы":6687,"долг":6688,"0000":6689,"одиночестве":6690,"собираетесь":6691,"джу":6692,"эпи":6693,"дерь":6694,"электри":6695,"стка":6696,"бизне":6697,"бесконечно":6698,"предложить":6699,"похва":6700,"тратить":6701,"пьете":6702,"познакомится":6703,"бке":6704,"дила":6705,"минет":6706,"торт":6707,"показывать":6708,"ууу":6709,"обидно":6710,"куку":6711,"серде":6712,"век":6713,"картинке":6714,"поддержи":6715,"эффектив":6716,"требует":6717,"танцевать":6718,"кори":6719,"мозгов":6720,"мороза":6721,"другая":6722,"высоко":6723,"забудь":6724,"штаны":6725,"вероят":6726,"гита":6727,"оном":6728,"огонь":6729,"hot":6730,"жной":6731,"спорить":6732,"фотошо":6733,"сексуаль":6734,"красоту":6735,"литься":6736,"ходил":6737,"образование":6738,"большинство":6739,"танец":6740,"мужчинами":6741,"массаж":6742,"тош":6743,"альбом":6744,"*)":6745,"изна":6746,"своём":6747,"парк":6748,"исправить":6749,"оправда":6750,"вор":6751,"подка":6752,"помидо":6753,"манья":6754,"шала":6755,"создать":6756,"полезен":6757,"написал":6758,"накачать":6759,"тт":6760,"хз":6761,"ter":6762,"варень":6763,"веду":6764,"дётся":6765,"необычно":6766,"потен":6767,"раство":6768,"мешают":6769,"снуть":6770,"хороша":6771,"страну":6772,"одежда":6773,"игно":6774,"впервые":6775,"окружающих":6776,"лжи":6777,"красавица":6778,"ногами":6779,"ровка":6780,"лекарство":6781,"встречи":6782,"мышцы":6783,"дится":6784,"праздники":6785,"барселона":6786,"лец":6787,"свадьба":6788,"for":6789,"дочка":6790,"доче":6791,"предпочитаю":6792,"усту":6793,"детский":6794,"худож":6795,"положить":6796,"золотой":6797,"ада":6798,"рыбы":6799,"мерт":6800,"ite":6801,"ному":6802,"отвечаете":6803,"видят":6804,"мода":6805,"бели":6806,"ктивно":6807,"живешь":6808,"28":6809,"котов":6810,"саду":6811,"рили":6812,"конфеты":6813,"отказаться":6814,"хро":6815,"забыли":6816,"играли":6817,"безопасно":6818,"четвер":6819,"почка":6820,"удиви":6821,"нежность":6822,"посовето":6823,"содержа":6824,"хорош":6825,"гарри":6826,"звезды":6827,"труднее":6828,"зываете":6829,"сердцем":6830,"джек":6831,"рится":6832,"чили":6833,"глазки":6834,"kto":6835,"чим":6836,"няка":6837,"сказо":6838,"хозяин":6839,"рубе":6840,"евре":6841,"уте":6842,"проте":6843,"возвра":6844,"мечтаете":6845,"mail":6846,"расстоянии":6847,"хали":6848,"ряется":6849,"днём":6850,"всякие":6851,"среднем":6852,"извест":6853,"вкусное":6854,"период":6855,"спло":6856,"мони":6857,"гламур":6858,"пивом":6859,"эффект":6860,"песе":6861,"брить":6862,"занимается":6863,"je":6864,"опла":6865,"носу":6866,"встречу":6867,"pri":6868,"странный":6869,"забыла":6870,"тони":6871,"доступ":6872,"другими":6873,"экономи":6874,"посуду":6875,"ливо":6876,"локомо":6877,"деб":6878,"стрем":6879,"украин":6880,"тишь":6881,"гени":6882,"египет":6883,"выходит":6884,"ходишь":6885,"ара":6886,"ственное":6887,"щают":6888,"покло":6889,"снегу":6890,"истина":6891,"клет":6892,"гос":6893,"важен":6894,"дык":6895,"автор":6896,"столе":6897,"mp":6898,"форд":6899,"потерял":6900,"сель":6901,"принцес":6902,"буквы":6903,"you":6904,"относятся":6905,"прое":6906,"разбу":6907,"жалеть":6908,"осенью":6909,"майоне":6910,"жую":6911,"искренне":6912,"ha":6913,"бры":6914,"русских":6915,"стирать":6916,"сматри":6917,"кат":6918,"шутка":6919,"седе":6920,"фио":6921,"шею":6922,"развод":6923,"увеличить":6924,"наказание":6925,"решать":6926,"селе":6927,"подня":6928,"горы":6929,"предо":6930,"расши":6931,"ксе":6932,"деда":6933,"дуры":6934,"чны":6935,"лига":6936,"земли":6937,"веж":6938,"занимаются":6939,"степени":6940,"хорошем":6941,"нис":6942,"картошку":6943,"бутер":6944,"чужих":6945,"устано":6946,"вак":6947,"заблу":6948,"чиком":6949,">>":6950,"миром":6951,"офици":6952,"дём":6953,"тное":6954,"ваешься":6955,"таблетки":6956,"чиво":6957,"полного":6958,"зану":6959,"жат":6960,"творо":6961,"полной":6962,"убивает":6963,"половинка":6964,"фигура":6965,"появляется":6966,"отклю":6967,"серии":6968,"цать":6969,"щаете":6970,"фантазии":6971,"gda":6972,"бмв":6973,"ржа":6974,"ниче":6975,"стики":6976,"бензи":6977,"стры":6978,"диете":6979,"зуе":6980,"bmw":6981,"масла":6982,"загадка":6983,"соле":6984,"знания":6985,"обья":6986,"джен":6987,"разницы":6988,"стиле":6989,"квадра":6990,"арсенал":6991,"рва":6992,"магазинах":6993,"сре":6994,"матом":6995,"цион":6996,"порту":6997,"громко":6998,"аф":6999,"мамой":7000,"хан":7001,"рассу":7002,"молоком":7003,"современно":7004,"сите":7005,"холодильник":7006,"чне":7007,"терять":7008,"личность":7009,"решил":7010,"девушками":7011,"скажут":7012,"love":7013,"шся":7014,"прием":7015,"утвер":7016,"трав":7017,"худеть":7018,"школа":7019,"лягу":7020,"ушел":7021,"совести":7022,"оле":7023,"нафиг":7024,"настоящее":7025,"кала":7026,"кача":7027,"тако":7028,"стоить":7029,"научится":7030,"оса":7031,"штра":7032,"возникает":7033,"au":7034,"кают":7035,"спишь":7036,"иму":7037,"лировать":7038,"ничать":7039,"заказать":7040,"кад":7041,"шай":7042,"чувстви":7043,"госу":7044,"лоб":7045,"алкоголи":7046,"вах":7047,"темы":7048,"безразли":7049,"каждая":7050,"сильная":7051,"поти":7052,"бывало":7053,"выгодно":7054,"ас":7055,"гию":7056,"сказку":7057,"профессии":7058,"охот":7059,"именем":7060,"худ":7061,"ствую":7062,"сесть":7063,"полная":7064,"макаро":7065,"mer":7066,"ила":7067,"точнее":7068,"par":7069,"кубок":7070,"тянуть":7071,"действует":7072,"пьет":7073,"второго":7074,"деньгами":7075,"або":7076,"била":7077,"работаете":7078,"зависимость":7079,"уша":7080,"понимания":7081,"памяти":7082,"малыш":7083,"станда":7084,"обрати":7085,"дея":7086,"бух":7087,"собесед":7088,"ногу":7089,"регуля":7090,"максимум":7091,"преду":7092,"тной":7093,"годом":7094,"ощущение":7095,"поста":7096,"чусь":7097,"позволяет":7098,"нкт":7099,"нится":7100,"белье":7101,"проекте":7102,"суши":7103,"ставят":7104,"блять":7105,"вышла":7106,"справля":7107,"сау":7108,"вру":7109,"поддер":7110,"прошу":7111,"пев":7112,"меняет":7113,"хари":7114,"смех":7115,"говоришь":7116,"ресни":7117,"подряд":7118,"зия":7119,"отвра":7120,"гран":7121,"зале":7122,"красивую":7123,"shi":7124,"ребёнку":7125,"очи":7126,"увлека":7127,"признаки":7128,"блюда":7129,"евровиде":7130,"оп":7131,"употребля":7132,"нигде":7133,"превраща":7134,"чудеса":7135,"угу":7136,"тури":7137,"пришел":7138,"россию":7139,"берете":7140,"канику":7141,"прочитать":7142,"площа":7143,"позитив":7144,"сборная":7145,"внешне":7146,"стых":7147,"мят":7148,"победа":7149,"опишите":7150,"уг":7151,"хала":7152,"морожен":7153,"зрение":7154,"выпуска":7155,"птицы":7156,"сомнения":7157,"берутся":7158,"честву":7159,"руль":7160,"ментов":7161,"маслом":7162,"аппетит":7163,"даются":7164,"скажешь":7165,"подар":7166,"играю":7167,"поцеловать":7168,"внутренний":7169,"пойму":7170,"скрывать":7171,"пошел":7172,"никакого":7173,"выспа":7174,"ведет":7175,"коньяк":7176,"большим":7177,"минуту":7178,"устрои":7179,"поверь":7180,"пробу":7181,"способна":7182,"лятор":7183,"телевизор":7184,"аха":7185,"логу":7186,"шему":7187,"==":7188,"большую":7189,"това":7190,"телефона":7191,"прожи":7192,"серви":7193,"доброта":7194,"объясните":7195,"заводить":7196,"миф":7197,"150":7198,"ошибок":7199,"германии":7200,"плачут":7201,"интересного":7202,"встречать":7203,"реагируете":7204,"вариантов":7205,"снимать":7206,"мороженое":7207,"уговорить":7208,"раста":7209,"дарят":7210,"пельмени":7211,"нови":7212,"рынке":7213,"конь":7214,"добрая":7215,"господа":7216,"огром":7217,"прошла":7218,"кольцо":7219,"дность":7220,"сравнить":7221,"собчак":7222,"конкретно":7223,"моменты":7224,"развра":7225,"свеже":7226,"пробовала":7227,"халя":7228,"водитель":7229,"мочки":7230,"плачет":7231,"ближай":7232,"удивля":7233,"финан":7234,"31":7235,"повыше":7236,"поступок":7237,"55":7238,"оз":7239,"ью":7240,"каи":7241,"зени":7242,"называть":7243,"знаем":7244,"хвати":7245,"льян":7246,"открове":7247,"сный":7248,"доказать":7249,"кефир":7250,"колле":7251,"зет":7252,"заряд":7253,"найдешь":7254,"поёт":7255,"пишу":7256,"хами":7257,"надё":7258,"***":7259,"лили":7260,"жы":7261,"покажи":7262,"температура":7263,"сдох":7264,"ножки":7265,"теа":7266,"государ":7267,"пад":7268,"жару":7269,"думай":7270,"заметно":7271,"вида":7272,"кусо":7273,"организм":7274,"жаться":7275,"fa":7276,"несчаст":7277,"устал":7278,"торы":7279,"узнаете":7280,"сахара":7281,"ране":7282,"нравишься":7283,"худе":7284,"апель":7285,"попе":7286,"печень":7287,"растя":7288,"лука":7289,"шве":7290,"идеал":7291,"испания":7292,"измены":7293,"русская":7294,"комплимент":7295,"оны":7296,"мала":7297,"бокс":7298,"годами":7299,"ёё":7300,"жек":7301,"жали":7302,"вязать":7303,"достать":7304,"вицы":7305,"говорил":7306,"порадо":7307,"чее":7308,"марш":7309,"процесс":7310,"рно":7311,"молодые":7312,"проз":7313,"пило":7314,"сука":7315,"театр":7316,"дворе":7317,"веру":7318,"виш":7319,"молоде":7320,"жопу":7321,"вообра":7322,"муз":7323,"нках":7324,"одинаково":7325,"рту":7326,"курс":7327,"топ":7328,"сканда":7329,"вкусные":7330,"моно":7331,"андре":7332,"ведут":7333,"правильный":7334,"поесть":7335,"женского":7336,"жара":7337,"интернета":7338,"девочке":7339,"надеж":7340,"ище":7341,"цкий":7342,"риск":7343,"захочет":7344,"бура":7345,"о_о":7346,"предмет":7347,"уровень":7348,"женщинами":7349,"одоле":7350,"ногах":7351,"генера":7352,"любовник":7353,"список":7354,"квартиры":7355,"медленно":7356,"авгу":7357,"коры":7358,"гриб":7359,"решения":7360,"nu":7361,"уехать":7362,"фия":7363,"землю":7364,"начинаю":7365,"слушает":7366,"by":7367,"зайди":7368,"логика":7369,"тачка":7370,"аген":7371,"прика":7372,"безумно":7373,"поспать":7374,"дева":7375,"помой":7376,"рождаются":7377,"лох":7378,"курит":7379,"свободное":7380,"чков":7381,"шё":7382,"доктор":7383,"подальше":7384,"двумя":7385,"футболиста":7386,"лла":7387,"стым":7388,"счастливый":7389,"игре":7390,"кус":7391,"старая":7392,"гине":7393,"обычная":7394,"идеальная":7395,"пак":7396,"кен":7397,"ссия":7398,"счи":7399,"числа":7400,"трогать":7401,"последняя":7402,"однажды":7403,"уверена":7404,"вызвать":7405,"одежде":7406,"давление":7407,"викто":7408,"примет":7409,"знал":7410,"финал":7411,"найдет":7412,"туфли":7413,"суль":7414,"помоему":7415,"ключ":7416,"украина":7417,"мальчику":7418,"кайф":7419,"ласково":7420,"fe":7421,"рочка":7422,"хлеба":7423,"''":7424,"говор":7425,"чемпионов":7426,"воспоминания":7427,"lin":7428,"уны":7429,"уважать":7430,"ог":7431,"зан":7432,"отца":7433,"зель":7434,"готови":7435,"девочек":7436,"телевизо":7437,"приводит":7438,"диагноз":7439,"cha":7440,"каждом":7441,"ste":7442,"тором":7443,"запе":7444,"сухо":7445,"скромность":7446,"опыта":7447,"перё":7448,"тради":7449,"умень":7450,"германия":7451,"сильные":7452,"трол":7453,"поезд":7454,"вреден":7455,"половину":7456,"чёрный":7457,"соблазнить":7458,"егип":7459,"ел":7460,"песен":7461,"последние":7462,"услу":7463,"вось":7464,"личности":7465,"свобод":7466,"мультик":7467,"ехал":7468,"нишь":7469,"утрен":7470,"свидания":7471,"решили":7472,"сделает":7473,"недостаток":7474,"комплименты":7475,"стакан":7476,"танцы":7477,"краше":7478,"возле":7479,"неее":7480,"века":7481,"типо":7482,"купите":7483,"дадут":7484,"задать":7485,"замени":7486,"притяги":7487,"озе":7488,"улуч":7489,"хрень":7490,"ремон":7491,"паспорт":7492,"пряч":7493,"глуби":7494,"занимаюсь":7495,"подругу":7496,"связи":7497,"продолжение":7498,"вовсе":7499,"можем":7500,"куча":7501,"выходных":7502,"качестве":7503,"авата":7504,"дав":7505,"суть":7506,"ci":7507,"каприз":7508,"соци":7509,"планет":7510,"длин":7511,"зами":7512,"доверяете":7513,"главная":7514,"игрушки":7515,"построить":7516,"лучшему":7517,"ходятся":7518,"талии":7519,"напоминает":7520,"буха":7521,"обои":7522,"фла":7523,"цар":7524,"чью":7525,"мерседе":7526,"пления":7527,"будто":7528,"уходить":7529,"умной":7530,"ням":7531,"гаран":7532,"обнима":7533,"светло":7534,"пригоди":7535,"научились":7536,"поверить":7537,"пятницу":7538,"сплет":7539,"gu":7540,"od":7541,"тельной":7542,"оку":7543,"меха":7544,"жного":7545,"страдать":7546,"ито":7547,"копи":7548,"решить":7549,"тировать":7550,"принимаете":7551,"неприятно":7552,"самостоя":7553,"женат":7554,"вкуснень":7555,"ук":7556,"щенок":7557,"устала":7558,"оргазм":7559,"отзывы":7560,"кари":7561,"желез":7562,"милан":7563,"пова":7564,"тепла":7565,"бою":7566,"пош":7567,"соси":7568,"тельны":7569,"красная":7570,"счастлива":7571,"романтика":7572,"картинки":7573,"летие":7574,"гаиш":7575,"жанр":7576,"насеко":7577,"пределах":7578,"(((((":7579,"лишний":7580,"декват":7581,"женщинах":7582,"ладо":7583,"слову":7584,"свали":7585,"доказа":7586,"гады":7587,"снятся":7588,"калорий":7589,"поймешь":7590,"кнове":7591,"чений":7592,"миру":7593,"работ":7594,"идеа":7595,"отмечать":7596,"оружие":7597,"бавари":7598,"пишется":7599,"зды":7600,"платят":7601,"агент":7602,"гну":7603,"чах":7604,"татуи":7605,"gh":7606,"беда":7607,"стите":7608,"отличие":7609,"стерва":7610,"понравилась":7611,"слышали":7612,"голь":7613,"дачу":7614,"боло":7615,"изю":7616,"эмоций":7617,"поде":7618,"zna":7619,"мл":7620,"2011":7621,"пользуюсь":7622,"-\"":7623,"варя":7624,"бие":7625,"коля":7626,"лера":7627,"дности":7628,"вр":7629,"пке":7630,"ставит":7631,"града":7632,"карты":7633,"чтоли":7634,"приятнее":7635,"подскажет":7636,"которому":7637,"мусор":7638,"дин":7639,"чном":7640,"тность":7641,"сайты":7642,"вдво":7643,"ввиду":7644,"психо":7645,"русски":7646,"вобще":7647,"кожу":7648,"свадеб":7649,"тельств":7650,"тельности":7651,"оборо":7652,"рекоменду":7653,"плен":7654,"дум":7655,"лысы":7656,"брали":7657,"кроко":7658,"друзьям":7659,"киев":7660,"молока":7661,"каковы":7662,"пугает":7663,"прекрасна":7664,"лечь":7665,"обру":7666,"смог":7667,"обычные":7668,"xd":7669,"турции":7670,"неу":7671,"крат":7672,"делить":7673,"тишина":7674,"последствия":7675,"забеременеть":7676,"кавка":7677,"волоса":7678,"классная":7679,"наступа":7680,"бабушка":7681,"состоит":7682,"коем":7683,"встрече":7684,"врача":7685,"будущего":7686,"ковы":7687,"бесполезно":7688,"интересное":7689,"мечтаю":7690,"ээээ":7691,"осторожно":7692,"аршавин":7693,"гари":7694,"подругой":7695,"эмоциона":7696,"выя":7697,"онлайн":7698,"черта":7699,"алка":7700,"бабушки":7701,"ili":7702,"проявля":7703,"спасти":7704,"настоящего":7705,"чемпионом":7706,"ься":7707,"гладить":7708,"праздником":7709,"офиге":7710,"куря":7711,"губ":7712,"мля":7713,"пче":7714,"горит":7715,"снов":7716,"боги":7717,"избе":7718,"щики":7719,"восхи":7720,"op":7721,"ноя":7722,"завое":7723,"древ":7724,"поступа":7725,"предска":7726,"када":7727,"некуда":7728,"гостей":7729,"врата":7730,"пота":7731,"читал":7732,"полное":7733,",,,,":7734,"шансы":7735,"взрослые":7736,"аромат":7737,"синг":7738,"биат":7739,"ственной":7740,"целовать":7741,"малыша":7742,"посадить":7743,"дора":7744,"приобрести":7745,"идеаль":7746,"времена":7747,"сзади":7748,"нала":7749,"наду":7750,"мощ":7751,"женятся":7752,"гора":7753,"рыв":7754,"оставаться":7755,"станови":7756,"холодильнике":7757,"ходила":7758,"лём":7759,"шампунь":7760,"33":7761,"класса":7762,"приятного":7763,"родила":7764,"солнца":7765,"тел":7766,"хотим":7767,"коммента":7768,"впечатление":7769,"зажига":7770,"знакомых":7771,"сегодняшний":7772,"фло":7773,"кашу":7774,"крым":7775,"коф":7776,"диету":7777,"видим":7778,"умирает":7779,"хла":7780,"узи":7781,"пойдёт":7782,"качать":7783,"дами":7784,"певица":7785,"смета":7786,"мужского":7787,"картофе":7788,"днев":7789,"верный":7790,"локомотив":7791,"рован":7792,"зает":7793,"дочку":7794,"словах":7795,"лошадь":7796,"овощи":7797,"сплош":7798,"толку":7799,"фили":7800,"привести":7801,"изо":7802,"ждают":7803,"обрет":7804,"наверняка":7805,"остановить":7806,"сериала":7807,"вк":7808,"говно":7809,"кула":7810,"языка":7811,"морально":7812,"ики":7813,"грубо":7814,"пяти":7815,"бороть":7816,"любовника":7817,"ур":7818,"друже":7819,"перестали":7820,"зываю":7821,"победить":7822,"философ":7823,"серьёзно":7824,"чаем":7825,"слез":7826,"офор":7827,"тео":7828,"пиц":7829,"делается":7830,"стере":7831,"непо":7832,"гадость":7833,"отвечает":7834,"девчё":7835,"77":7836,"ровали":7837,"возрастом":7838,"поступить":7839,"курт":7840,"туал":7841,"жарить":7842,"октя":7843,"комнате":7844,"цах":7845,"месячные":7846,"=(":7847,"дружбы":7848,"держаться":7849,"ll":7850,"гель":7851,"мудре":7852,"общем":7853,"спится":7854,"близко":7855,"*?":7856,"сках":7857,"щины":7858,"контра":7859,"здоровый":7860,"кама":7861,"капита":7862,"просят":7863,"мное":7864,"вской":7865,"метр":7866,"свечи":7867,"попугай":7868,"важна":7869,"потреб":7870,"поют":7871,"загля":7872,"жишь":7873,"тушь":7874,"увле":7875,"размно":7876,"перепи":7877,"беспоко":7878,"улыбаться":7879,"весит":7880,"акте":7881,"отличный":7882,"gt":7883,"сезоне":7884,"изменять":7885,"родилась":7886,"зеркале":7887,"родной":7888,"многим":7889,"наг":7890,"значи":7891,"цвето":7892,"уроки":7893,"футболе":7894,"чом":7895,"we":7896,"ответьте":7897,"презервати":7898,"коту":7899,"ливер":7900,"молод":7901,"позже":7902,"представляете":7903,"упражнения":7904,"ьь":7905,"удар":7906,"загадо":7907,"разочарова":7908,"зации":7909,"чих":7910,"горды":7911,"животным":7912,"дат":7913,"низм":7914,"живой":7915,"балу":7916,"манче":7917,"взросло":7918,"av":7919,"аэро":7920,"сбросить":7921,"теми":7922,"дух":7923,"жар":7924,"беречь":7925,"решила":7926,"шет":7927,"ногтей":7928,"отметить":7929,"чными":7930,"ночка":7931,"подойдёт":7932,"организма":7933,"поход":7934,"зарабатывать":7935,"тень":7936,"хочеться":7937,"бьют":7938,"поклон":7939,"дови":7940,"ждешь":7941,"относиться":7942,"нашего":7943,"ревности":7944,"классе":7945,"уе":7946,"руке":7947,"близкие":7948,"парик":7949,"ненависти":7950,"команды":7951,"пройдёт":7952,"засу":7953,"берите":7954,"фотке":7955,"св":7956,"мест":7957,"плевать":7958,"психолог":7959,"психологии":7960,"телефону":7961,"недорого":7962,"желаний":7963,"личной":7964,"симпатичная":7965,"депрессия":7966,"гвоз":7967,"развлека":7968,"деревне":7969,"кошмар":7970,"житься":7971,"аптеке":7972,"тельна":7973,"2000":7974,"код":7975,"ниться":7976,"ишь":7977,"гад":7978,"2007":7979,"перёд":7980,"кона":7981,"нила":7982,"разлюбить":7983,"запу":7984,"сток":7985,"букву":7986,"левой":7987,"he":7988,"быст":7989,"деревь":7990,"тащить":7991,"депрессии":7992,"высту":7993,"лова":7994,"лога":7995,"успеть":7996,"органи":7997,"кции":7998,"запросто":7999,"грусть":8000,"питание":8001,"середи":8002,"пав":8003,"приятный":8004,"цене":8005,"стричь":8006,"живёте":8007,"шивать":8008,"вчераш":8009,"37":8010,"нама":8011,"вышел":8012,"отстой":8013,"прими":8014,"считаешь":8015,"правил":8016,"спир":8017,"лоп":8018,"сварить":8019,"выклю":8020,"буди":8021,"поведение":8022,"минуты":8023,"индивидуально":8024,"оконча":8025,"чали":8026,"ссылку":8027,"ani":8028,"займи":8029,"носа":8030,"рито":8031,"прие":8032,"ent":8033,"слю":8034,"заинтересо":8035,"ческим":8036,"рур":8037,"спец":8038,"книг":8039,"спя":8040,"сус":8041,"черная":8042,"апре":8043,"гети":8044,"чип":8045,"учится":8046,"бывший":8047,"ревновать":8048,"пога":8049,"погулять":8050,"дама":8051,"зае":8052,"диване":8053,"привяза":8054,"буть":8055,"гип":8056,"учитель":8057,"найду":8058,"вность":8059,"весё":8060,"психология":8061,"шикар":8062,"рабочий":8063,"ваясь":8064,"взросле":8065,"ориен":8066,"связь":8067,"обмануть":8068,"соеди":8069,"стям":8070,"слабости":8071,"патри":8072,"одиноко":8073,"группе":8074,"выпуск":8075,"поиграть":8076,"заря":8077,"сыну":8078,"eni":8079,"ять":8080,"ствии":8081,"годов":8082,"щина":8083,"сдать":8084,"рулит":8085,"дорог":8086,"всяких":8087,"крепче":8088,"серо":8089,"//":8090,"?:-)":8091,"гаете":8092,"число":8093,"букв":8094,"лутше":8095,"допусти":8096,"специа":8097,"нись":8098,"магни":8099,"пойм":8100,"марк":8101,"жопа":8102,"валь":8103,"переме":8104,"чушь":8105,"терьер":8106,"нечем":8107,"диско":8108,"лучших":8109,"пригласить":8110,"поиско":8111,"ловить":8112,"привлечь":8113,"пух":8114,"чье":8115,"раздражают":8116,"козлы":8117,"отвер":8118,"просту":8119,"машинка":8120,"настоящей":8121,"длится":8122,"оооооооо":8123,"ровы":8124,"пипец":8125,"берешь":8126,"довольно":8127,"молчу":8128,"способы":8129,"жкой":8130,"ост":8131,"диван":8132,"названия":8133,"творчество":8134,"тесто":8135,"руби":8136,"стомато":8137,"нн":8138,"покры":8139,"читься":8140,"интернету":8141,"комедии":8142,"ждёт":8143,"ука":8144,"шари":8145,"стараться":8146,"расстаться":8147,"животе":8148,"желудок":8149,"аде":8150,"забить":8151,"ленной":8152,"жалу":8153,"предел":8154,"позволить":8155,"com":8156,"хол":8157,"стану":8158,"терпения":8159,"глю":8160,"каби":8161,"мане":8162,"бори":8163,"стену":8164,"родителями":8165,"брит":8166,"влюбить":8167,"ковый":8168,"русского":8169,"матче":8170,"ый":8171,"сменить":8172,"здрасти":8173,"зала":8174,"hotel":8175,"твоем":8176,"ждем":8177,"пытаюсь":8178,"истории":8179,"хода":8180,"бела":8181,"крутой":8182,"детки":8183,"мужчинах":8184,"следующий":8185,"поймать":8186,"ревнует":8187,"аккура":8188,"грей":8189,"кристи":8190,"богат":8191,"джей":8192,"вную":8193,"заки":8194,"тараканы":8195,"хим":8196,"знали":8197,"вляют":8198,"бег":8199,"бала":8200,"36":8201,"компом":8202,"стрипти":8203,"английский":8204,"сознание":8205,"топли":8206,"зубов":8207,"sti":8208,"мель":8209,"судить":8210,"собаке":8211,"обыкнове":8212,"извините":8213,"вкусная":8214,"симпоти":8215,"сравне":8216,"посыла":8217,"ленин":8218,"успокаи":8219,"имуще":8220,"вьте":8221,"произошло":8222,"лови":8223,"руси":8224,"костюм":8225,"гинеколо":8226,"чле":8227,"мучает":8228,"праздно":8229,"белое":8230,"сели":8231,"чивость":8232,"сбе":8233,"зация":8234,"дочки":8235,"реклама":8236,"еде":8237,"ллер":8238,"соску":8239,"пыль":8240,"молодости":8241,"выбирают":8242,"процентов":8243,"устро":8244,"прине":8245,"жала":8246,"стервы":8247,"характери":8248,"спарта":8249,"канеш":8250,"культур":8251,"тал":8252,"месть":8253,"богом":8254,"предложения":8255,"свадьбе":8256,"покоя":8257,"38":8258,"кане":8259,"планете":8260,"тивные":8261,"личное":8262,"снега":8263,"фее":8264,"нравя":8265,"ченко":8266,"32":8267,"счас":8268,"готовит":8269,"весну":8270,"прошлого":8271,"тации":8272,"волк":8273,"звонит":8274,"лимон":8275,"риан":8276,"весны":8277,"2009":8278,"рный":8279,"чувством":8280,"худы":8281,")?)":8282,"емые":8283,"маска":8284,"нному":8285,"салон":8286,"сергей":8287,"начни":8288,"стной":8289,"принад":8290,"хирур":8291,"медици":8292,"дню":8293,"клы":8294,"осе":8295,"река":8296,"месячных":8297,"наступает":8298,"футбольный":8299,"почку":8300,"совпа":8301,"колго":8302,"букет":8303,"осен":8304,"ковые":8305,"баль":8306,"цара":8307,"болеет":8308,"клеить":8309,"развести":8310,"имеете":8311,"вышли":8312,"клип":8313,"числе":8314,"остальных":8315,"мечтает":8316,"вставать":8317,"son":8318,"лч":8319,"зат":8320,"жечь":8321,"конфли":8322,"тного":8323,"спросите":8324,"ливый":8325,"наря":8326,"погоду":8327,"почи":8328,"жик":8329,"dy":8330,"чено":8331,"сумер":8332,"лету":8333,"скло":8334,"свободу":8335,"бары":8336,"крой":8337,"крайней":8338,"wo":8339,"зама":8340,"стиму":8341,"29":8342,"zi":8343,"каю":8344,"тельного":8345,"обойти":8346,"дент":8347,"старе":8348,"ценить":8349,"спон":8350,"фоль":8351,"обиды":8352,"портит":8353,"дерьмо":8354,":-":8355,"засо":8356,"гугл":8357,"справа":8358,"мега":8359,"угол":8360,"энергети":8361,"моги":8362,"фик":8363,"зова":8364,"обоих":8365,"поки":8366,"пришло":8367,"хорошему":8368,"грудью":8369,"описа":8370,"неделе":8371,"дима":8372,"доверия":8373,"убедить":8374,"сериалы":8375,"det":8376,"ran":8377,"сфе":8378,"родные":8379,"удовольствия":8380,"зделать":8381,"поля":8382,"похоро":8383,"дания":8384,"видать":8385,"машин":8386,"стрижка":8387,"женится":8388,"долларов":8389,"жник":8390,"мясом":8391,"свободы":8392,"бассей":8393,"козе":8394,"сеть":8395,"долги":8396,"болею":8397,"соблю":8398,"ночки":8399,"гается":8400,"простран":8401,"логия":8402,"александр":8403,"стаби":8404,"первых":8405,"нормальное":8406,"нашем":8407,"узнали":8408,"твоему":8409,"глазам":8410,"котёнка":8411,"называет":8412,"рока":8413,"приучить":8414,"начальник":8415,"подобрать":8416,"выраст":8417,"болезни":8418,"уходя":8419,"пиз":8420,"налево":8421,"сова":8422,"отпустить":8423,"моско":8424,"игнори":8425,"чил":8426,"пугать":8427,"страшные":8428,"возбуждает":8429,"нях":8430,"мян":8431,"хищ":8432,"проект":8433,"манчестер":8434,"чивый":8435,"барса":8436,"сенье":8437,"новому":8438,"европе":8439,"тс":8440,"личный":8441,"лошади":8442,"стандарт":8443,"qu":8444,"отвлека":8445,"сладкий":8446,"связано":8447,"листья":8448,"рож":8449,"няться":8450,"подходя":8451,"детские":8452,"трудо":8453,"инопланет":8454,"классика":8455,"трена":8456,"искренность":8457,"номера":8458,"призы":8459,"участ":8460,"немножко":8461,"кта":8462,"москов":8463,"бова":8464,"сумас":8465,"цветом":8466,"библиоте":8467,"занять":8468,"сал":8469,"сталь":8470,"ina":8471,"прошел":8472,"каково":8473,"общий":8474,"выгод":8475,"бага":8476,"баню":8477,"плавать":8478,"kio":8479,"кирпи":8480,"лучшего":8481,"ноль":8482,"летний":8483,"дера":8484,"ласка":8485,"звонок":8486,"брюнетки":8487,"вене":8488,"сказано":8489,"ota":8490,"95":8491,"тиру":8492,"ктом":8493,".)?":8494,"скет":8495,"общении":8496,"интуиция":8497,"ится":8498,"сойти":8499,"храните":8500,"let":8501,"спал":8502,"met":8503,"тира":8504,"тормоз":8505,"ффф":8506,"бюдж":8507,"оттуда":8508,"черные":8509,"тюрь":8510,"чемпионат":8511,"деби":8512,"остался":8513,"лежать":8514,"нутри":8515,"пыле":8516,"картинку":8517,"планируете":8518,"чивает":8519,"пал":8520,"хуй":8521,"шампанское":8522,"реже":8523,"вины":8524,"будите":8525,"подходят":8526,"прощения":8527,"обли":8528,"родина":8529,"познакомились":8530,"помидоры":8531,"мал":8532,"борода":8533,"ссан":8534,"появляются":8535,"дис":8536,"разреша":8537,"сладкого":8538,"отдавать":8539,"дизай":8540,"трам":8541,"футбола":8542,"злая":8543,"признавайтесь":8544,"бывших":8545,"прикольный":8546,"опытом":8547,"пообщаться":8548,"никола":8549,"смотришь":8550,"даешь":8551,"зик":8552,"красные":8553,"хватило":8554,"могло":8555,"бухать":8556,"интересная":8557,"взрослых":8558,"скуки":8559,"держится":8560,"живота":8561,"кататься":8562,"набира":8563,"скучать":8564,"бросила":8565,"собственной":8566,"праве":8567,"называете":8568,"оправды":8569,"плом":8570,"мечтают":8571,"буква":8572,"появился":8573,"делала":8574,"общи":8575,"родных":8576,"шпа":8577,"краска":8578,"автобу":8579,"летает":8580,"угро":8581,"весить":8582,"дворня":8583,"кошке":8584,"ляют":8585,"встретили":8586,"памятник":8587,"жаете":8588,"подда":8589,"tokio":8590,"велосипед":8591,"ссу":8592,"поставь":8593,"сопер":8594,"прибли":8595,"москви":8596,"реальности":8597,"несет":8598,"подарите":8599,"гороско":8600,"важное":8601,"ставлю":8602,"маг":8603,"украшает":8604,"пьяный":8605,"команду":8606,"ини":8607,"учат":8608,"пони":8609,"коре":8610,"одинаковые":8611,"ростом":8612,"курите":8613,"ненавидеть":8614,"воскресенье":8615,"правы":8616,"лезть":8617,"роналду":8618,"тошнит":8619,"аве":8620,"вперёд":8621,"роды":8622,"чьей":8623,"великий":8624,"!.)":8625,"небе":8626,"покор":8627,"прийти":8628,"блины":8629,"января":8630,"чудес":8631,"очереди":8632,"настоящую":8633,"декс":8634,"тяжё":8635,"обстоятельства":8636,"инет":8637,"опоз":8638,"вопросе":8639,"брови":8640,"бурге":8641,"зах":8642,"слом":8643,"сека":8644,"белом":8645,"комедия":8646,"предсказуе":8647,"камень":8648,"попал":8649,"ждёте":8650,"колы":8651,"литра":8652,"скле":8653,"чишь":8654,"старость":8655,"склады":8656,"талан":8657,"вшие":8658,"тём":8659,"чте":8660,"сур":8661,"чур":8662,"бывшего":8663,"трё":8664,"тп":8665,"завидуют":8666,"65":8667,"чники":8668,"морко":8669,"осу":8670,"станешь":8671,"vu":8672,"пасса":8673,"новом":8674,"король":8675,"мия":8676,"баш":8677,"перемен":8678,"каждую":8679,"двигателя":8680,"выйграет":8681,"встать":8682,"говя":8683,"?!.":8684,"актуа":8685,"уважаю":8686,"звук":8687,"мазо":8688,"маник":8689,"вила":8690,"шоке":8691,"?!?":8692,"выпе":8693,"красное":8694,"максим":8695,"теме":8696,"сити":8697,"инти":8698,"стенько":8699,"спиной":8700,"клубе":8701,"дураков":8702,"живется":8703,"армию":8704,"шашлык":8705,"нато":8706,"обиде":8707,"дважды":8708,"all":8709,"макияж":8710,"разума":8711,"отвечу":8712,"местах":8713,"отомстить":8714,"макароны":8715,"ценят":8716,"метра":8717,"коктей":8718,"приключения":8719,"?\"":8720,"поис":8721,"раб":8722,"деревя":8723,"соседей":8724,"воспитание":8725,"востор":8726,"нав":8727,"тута":8728,"дышать":8729,"весен":8730,"стику":8731,"настой":8732,"дураки":8733,"иван":8734,"сбер":8735,"развле":8736,"чут":8737,"рыбалку":8738,"щет":8739,"!:":8740,"сереб":8741,"стекло":8742,"школы":8743,"нашу":8744,"чтоль":8745,"тиков":8746,"сара":8747,"косметика":8748,"мч":8749,"бездель":8750,"каникулы":8751,"юмо":8752,"страшное":8753,"исключительно":8754,"выбора":8755,"удержать":8756,"тяга":8757,"европы":8758,"водятся":8759,"ручки":8760,"йа":8761,"модели":8762,"кипе":8763,"вредные":8764,"рулём":8765,"летней":8766,"успели":8767,"клё":8768,"рты":8769,"выигры":8770,"служ":8771,"ищешь":8772,"вным":8773,"ёк":8774,"допол":8775,"папу":8776,"граф":8777,"резать":8778,"цел":8779,"модера":8780,"mne":8781,"браз":8782,"посо":8783,"гений":8784,"эгоизм":8785,"банально":8786,"кормите":8787,"щается":8788,"врагов":8789,"равнове":8790,"девки":8791,"бьёт":8792,"условно":8793,"чении":8794,"етен":8795,"фици":8796,"студен":8797,"субботу":8798,"поиске":8799,"пост":8800,"нынеш":8801,"псих":8802,"sha":8803,"устроить":8804,"непри":8805,"тени":8806,"заработа":8807,"идея":8808,"хитро":8809,"400":8810,"вверх":8811,"поверишь":8812,"жалею":8813,"позвонить":8814,"ответственность":8815,"одет":8816,"вани":8817,"скими":8818,"литров":8819,"дерев":8820,"изра":8821,"нафига":8822,"лучшей":8823,"бессмысле":8824,"попало":8825,"прическа":8826,"поищи":8827,"сладкая":8828,"единственный":8829,"молодым":8830,"потомучто":8831,"яблоки":8832,"хреново":8833,"шный":8834,"церко":8835,"стены":8836,"мотоцикл":8837,"нётся":8838,"яз":8839,"мотор":8840,"сою":8841,"почитай":8842,"сайтах":8843,"чувак":8844,"парке":8845,"скучаю":8846,"вляете":8847,"проверено":8848,"растёт":8849,"пенси":8850,"ласки":8851,"идеи":8852,"звезд":8853,"сение":8854,"циф":8855,"твоим":8856,"ругаться":8857,"sko":8858,"ровку":8859,"крутить":8860,"близо":8861,"большого":8862,"поделиться":8863,"психиа":8864,"положительно":8865,"фиолето":8866,"bit":8867,"управлять":8868,"ляция":8869,"италия":8870,"иться":8871,"слева":8872,"красне":8873,"мальчиков":8874,"санкт":8875,"проигры":8876,"прикол":8877,"воздуш":8878,"учителя":8879,"искусство":8880,"аре":8881,"изу":8882,"расчет":8883,"принц":8884,"помнишь":8885,"президен":8886,"сумерки":8887,"яро":8888,"алкоголя":8889,"sya":8890,"мами":8891,"шали":8892,"пустить":8893,"останавли":8894,"радостью":8895,"съездить":8896,"довести":8897,"душие":8898,"\"-":8899,"sp":8900,"посвя":8901,"шель":8902,"сгу":8903,"знала":8904,"инже":8905,"крос":8906,"власть":8907,"поту":8908,"помнит":8909,"регистра":8910,"зарубе":8911,"лаге":8912,"чужую":8913,"устали":8914,"кладби":8915,"зайти":8916,"возник":8917,"рман":8918,"плохих":8919,"силой":8920,"ленная":8921,"концерт":8922,"ber":8923,"токи":8924,"rav":8925,"находиться":8926,"++++":8927,"достоинство":8928,"raz":8929,"проводите":8930,"2109":8931,"фантазия":8932,"некогда":8933,"утю":8934,"полоса":8935,"некоторым":8936,"меры":8937,"придумы":8938,"каба":8939,"больших":8940,"акти":8941,"удобнее":8942,"esli":8943,"справедливо":8944,"причём":8945,"путин":8946,"охра":8947,"симп":8948,"встречаются":8949,"слёзы":8950,"расто":8951,"притво":8952,"луд":8953,"сложный":8954,"улыбкой":8955,"быт":8956,"анжи":8957,"отвечают":8958,"мыслями":8959,"мгно":8960,"ког":8961,"жень":8962,"сссс":8963,"параш":8964,"темноте":8965,"комфортно":8966,"усили":8967,"мели":8968,"sta":8969,"скольких":8970,"занимались":8971,"везёт":8972,"туалете":8973,"трой":8974,"ванию":8975,"способно":8976,"появится":8977,"нервни":8978,"причину":8979,"оливье":8980,"мэ":8981,"масле":8982,"няется":8983,"слуши":8984,"историю":8985,"сбываются":8986,"волнует":8987,"стане":8988,"возмож":8989,"принимают":8990,"воспитывать":8991,"огурцы":8992,"йй":8993,"роско":8994,"теть":8995,"живых":8996,"грусти":8997,"сделаешь":8998,"дурака":8999,"кавказ":9000,"ами":9001,"чал":9002,"избежать":9003,"кажу":9004,"знакомые":9005,"счастливые":9006,"матча":9007,"романтики":9008,"узнаю":9009,"билан":9010,"держите":9011,"отказыва":9012,"курят":9013,"пее":9014,"подчи":9015,"смотрится":9016,"полезны":9017,"загс":9018,"каре":9019,"могла":9020,"женскую":9021,"автомобили":9022,"употреблять":9023,"бет":9024,"запомина":9025,"краски":9026,"мудрости":9027,"зана":9028,"интри":9029,"жность":9030,"имеется":9031,"покупаю":9032,"нежности":9033,"фамилию":9034,"каша":9035,"баскет":9036,":\"":9037,"неправильно":9038,"ломать":9039,"ретесь":9040,"случается":9041,"ошибка":9042,"гала":9043,"категори":9044,"повысить":9045,"der":9046,"кап":9047,"вселенной":9048,"светит":9049,"русском":9050,"тяжелее":9051,"оказаться":9052,"дене":9053,"завя":9054,"житель":9055,"покажите":9056,"производ":9057,"салоне":9058,"бек":9059,"вампи":9060,"смотр":9061,"находите":9062,"уничто":9063,"ужина":9064,"ушами":9065,"брал":9066,"ссоры":9067,"пальцы":9068,"белого":9069,"купаться":9070,"kin":9071,"пары":9072,"голод":9073,"смесь":9074,"дарит":9075,"видом":9076,"отказать":9077,"курен":9078,"стого":9079,"ресторан":9080,"ze":9081,"настолько":9082,"дении":9083,"выши":9084,"быто":9085,"дитесь":9086,"доволен":9087,"калина":9088,"прекрасное":9089,"дио":9090,"всякий":9091,"сибир":9092,"стки":9093,"синий":9094,"мяч":9095,"болеете":9096,"апельси":9097,"поменьше":9098,"тельных":9099,"новке":9100,"подойти":9101,"каждое":9102,"выращи":9103,"регулярно":9104,"неф":9105,"хвата":9106,"приветики":9107,"обратиться":9108,"стря":9109,"тата":9110,"бане":9111,"знакомстве":9112,"спокойствие":9113,"красной":9114,"аллергия":9115,"позо":9116,"шизо":9117,"холодный":9118,"учеб":9119,"мгнове":9120,"гэ":9121,"огор":9122,"грязь":9123,"вных":9124,"крите":9125,"тьфу":9126,"мод":9127,"прогре":9128,"тита":9129,"приру":9130,"лезет":9131,"градусов":9132,"парфюм":9133,"стам":9134,"вредит":9135,"завтраш":9136,"встречали":9137,"бавария":9138,"нео":9139,"дочери":9140,"забира":9141,"парат":9142,"основа":9143,"домашний":9144,"жалость":9145,"навяз":9146,"мена":9147,"дире":9148,"профи":9149,"измене":9150,"кричать":9151,"пояс":9152,"покрасить":9153,"руй":9154,"преодоле":9155,"экс":9156,"экзаме":9157,"знаменито":9158,"справ":9159,"пюре":9160,"отта":9161,"хих":9162,"фрукт":9163,"!\"":9164,"моны":9165,"разобраться":9166,"tu":9167,"учит":9168,"матер":9169,"приятные":9170,"наступит":9171,"кастри":9172,"глубоко":9173,"даром":9174,"тиком":9175,"последней":9176,"лечиться":9177,"смешной":9178,"заснуть":9179,"бод":9180,"собирать":9181,"сиди":9182,"бабки":9183,"надежды":9184,"психологию":9185,"отры":9186,"полезнее":9187,"половинки":9188,"участи":9189,"целую":9190,"ошибаюсь":9191,"каму":9192,"бало":9193,"родиться":9194,"кладывать":9195,"ежедне":9196,"отдельно":9197,"сентября":9198,"наслед":9199,"опазды":9200,"ею":9201,"чии":9202,"пешком":9203,"очевидно":9204,"учили":9205,"свидете":9206,"появились":9207,"чаешь":9208,"сумо":9209,"ану":9210,"куби":9211,"помогать":9212,"стороне":9213,"улыбку":9214,"ужастик":9215,"флирт":9216,"торопи":9217,"входит":9218,"гнали":9219,"чую":9220,"трево":9221,"холостя":9222,"надоели":9223,"украины":9224,"справедливость":9225,"манипу":9226,"вита":9227,"женских":9228,"шеп":9229,"примеру":9230,"кей":9231,"нками":9232,"настроением":9233,"справиться":9234,"масте":9235,"вину":9236,"скинуть":9237,"сексуальный":9238,"мерседес":9239,"wi":9240,"увидел":9241,"циони":9242,"играете":9243,"укро":9244,"некому":9245,"дах":9246,"знакомство":9247,"молодость":9248,"интересней":9249,"ственную":9250,"зарплаты":9251,"трёх":9252,"брод":9253,"шти":9254,"чению":9255,"веса":9256,"врачи":9257,"языком":9258,"замер":9259,"мадри":9260,"частенько":9261,"скай":9262,"воспитать":9263,"египте":9264,"леге":9265,"развода":9266,"фирма":9267,"бываете":9268,"виски":9269,"кругом":9270,"занятся":9271,"лицом":9272,"ющая":9273,"умерла":9274,"боретесь":9275,"меняются":9276,"акку":9277,"продается":9278,"быстрей":9279,"принято":9280,"побывать":9281,"валю":9282,"праздни":9283,"жалеете":9284,"por":9285,"забывать":9286,"подарил":9287,"34":9288,"выжи":9289,"зают":9290,"мара":9291,"классные":9292,"тоска":9293,"неба":9294,"дие":9295,"яд":9296,"копа":9297,"мешать":9298,"странные":9299,"нство":9300,"набор":9301,"москву":9302,"котят":9303,"половина":9304,"уйдет":9305,"меняете":9306,"опасен":9307,"взглядом":9308,"поехали":9309,"закончился":9310,"нравяться":9311,"ночной":9312,"попыт":9313,"вернется":9314,"читали":9315,"стур":9316,"учились":9317,"полезна":9318,"герои":9319,"потратить":9320,"нарисо":9321,"побороть":9322,"завет":9323,"замок":9324,"чихуа":9325,"бали":9326,"стресс":9327,"месяце":9328,"?)?)?)?)":9329,"лло":9330,"фре":9331,"копей":9332,"сильней":9333,"центре":9334,"зелёный":9335,"арбуз":9336,"захотелось":9337,"любимыми":9338,"дми":9339,"ковой":9340,"тык":9341,"жом":9342,"пытаются":9343,"страшного":9344,"tak":9345,"неожиданно":9346,"sl":9347,"дожда":9348,"чистая":9349,"преды":9350,"надеть":9351,"ненавидят":9352,"центра":9353,"льна":9354,"соло":9355,"обозна":9356,"колеса":9357,"прио":9358,"ньку":9359,"фабри":9360,"америке":9361,"церковь":9362,"хнет":9363,"невы":9364,"чеш":9365,"выучить":9366,"вниз":9367,"балде":9368,"ственным":9369,"аборт":9370,"морков":9371,"инстинкт":9372,"моём":9373,"чистой":9374,"ньи":9375,"писто":9376,"брата":9377,"обая":9378,"2107":9379,"рождается":9380,"жений":9381,"тимати":9382,"слег":9383,"мандари":9384,"голубой":9385,"используете":9386,"ad":9387,"кока":9388,"сокра":9389,"разить":9390,"пускать":9391,"джер":9392,"расстояние":9393,"умы":9394,"рец":9395,"сажать":9396,"палец":9397,"имся":9398,"добрых":9399,"позити":9400,"почистить":9401,"ческом":9402,"шишь":9403,"царь":9404,"куплю":9405,"настоящим":9406,"проекта":9407,"покажет":9408,"отгада":9409,"гин":9410,"инвали":9411,"вские":9412,"автомат":9413,"скрыть":9414,"обойтись":9415,"дло":9416,"нибуть":9417,"гага":9418,"альтер":9419,"шы":9420,"гори":9421,"бегу":9422,"луна":9423,"сущ":9424,"обществе":9425,"бразили":9426,"приба":9427,"ственного":9428,"потеряла":9429,"доверяю":9430,"парикма":9431,"ob":9432,"ska":9433,"стади":9434,"шаю":9435,"походу":9436,"внезап":9437,"лезут":9438,"ухожу":9439,"почувствовать":9440,"роза":9441,"ватся":9442,"помог":9443,"показывают":9444,"противно":9445,"подойдут":9446,"расслабля":9447,"успокоить":9448,"андрей":9449,"слегка":9450,"хде":9451,"нинг":9452,"вел":9453,"фит":9454,"ыыыыыыыы":9455,"идете":9456,"вещей":9457,"взаимная":9458,"юри":9459,"резко":9460,"попугая":9461,"попить":9462,"пато":9463,"добрее":9464,"интересен":9465,"ванием":9466,"тайна":9467,"ане":9468,"паре":9469,"придёт":9470,"писал":9471,"говорим":9472,"беременным":9473,"войны":9474,"пойдем":9475,"турцию":9476,"звонить":9477,"блондинок":9478,"овся":9479,"шник":9480,"загру":9481,"сорт":9482,"шины":9483,"девушках":9484,"морской":9485,"хрена":9486,"уса":9487,"котя":9488,"котик":9489,"чены":9490,"общество":9491,"берегу":9492,"клин":9493,"фотошоп":9494,"im":9495,"спортсме":9496,"летнего":9497,"формы":9498,"vet":9499,"управ":9500,"почаще":9501,"десят":9502,"догада":9503,"отсюда":9504,"потеряли":9505,"бью":9506,"отель":9507,"вия":9508,"мышь":9509,"девственность":9510,"повода":9511,"гомо":9512,"таи":9513,"жесть":9514,"зывали":9515,"маленьких":9516,"новень":9517,"насто":9518,"поза":9519,"стр":9520,"тию":9521,"салю":9522,"грабли":9523,"читай":9524,"льными":9525,"боти":9526,"щено":9527,"скар":9528,"жное":9529,"странах":9530,"читала":9531,"музыке":9532,"футболисты":9533,"семейной":9534,"австра":9535,"лиги":9536,"гостях":9537,"ходим":9538,"чкам":9539,"спину":9540,"заняты":9541,"шле":9542,"ведро":9543,"обло":9544,"гера":9545,"еее":9546,"ванну":9547,"готовлю":9548,"ееееееее":9549,"розовые":9550,"пё":9551,"подра":9552,"предыду":9553,"нги":9554,"сути":9555,"цой":9556,"тайны":9557,"вке":9558,"задают":9559,"седня":9560,"тино":9561,"делаем":9562,"гитаре":9563,"смеюсь":9564,"выжить":9565,"зой":9566,"предста":9567,"рованный":9568,"нями":9569,"форе":9570,"представить":9571,"совки":9572,"выводы":9573,"рила":9574,"банка":9575,"близким":9576,"белой":9577,"перспе":9578,"изменил":9579,"проснуться":9580,"апреля":9581,"кси":9582,"198":9583,"торе":9584,"решает":9585,"забил":9586,"показывает":9587,"капель":9588,"пузы":9589,"европей":9590,"врет":9591,"сжи":9592,"причё":9593,"обви":9594,"легкий":9595,"выбираете":9596,"уси":9597,":)?":9598,"гене":9599,"красивыми":9600,"тывает":9601,"нетки":9602,"тренер":9603,"продаются":9604,"макдо":9605,"поезде":9606,"раю":9607,"куз":9608,"сыро":9609,"жением":9610,"англии":9611,"инициа":9612,"впа":9613,"жах":9614,"соседа":9615,"тную":9616,"веры":9617,"какту":9618,"нужда":9619,"кармане":9620,"наращи":9621,"ужо":9622,"экра":9623,"договори":9624,"состав":9625,"ссии":9626,"африке":9627,"пож":9628,"спросил":9629,"йорк":9630,"огро":9631,"одевать":9632,"ny":9633,"нусь":9634,"привык":9635,"грызть":9636,"зенита":9637,"виды":9638,"пляже":9639,"чужое":9640,"математи":9641,"пень":9642,"осталась":9643,"каран":9644,"напол":9645,"помы":9646,"ребус":9647,"хар":9648,"чувствах":9649,"пускай":9650,"зало":9651,"гадать":9652,"играла":9653,"голода":9654,"горло":9655,"анна":9656,"подруг":9657,"причин":9658,"сотру":9659,"отста":9660,"одних":9661,"шках":9662,"едино":9663,"льнее":9664,"купаль":9665,"сидишь":9666,"болель":9667,"покушать":9668,"хахаха":9669,"dela":9670,"полете":9671,"черного":9672,"поймет":9673,"довольна":9674,"пирсинг":9675,"конкурен":9676,"пускают":9677,"сумасшед":9678,"ненуж":9679,"певец":9680,"дождя":9681,"zz":9682,"провер":9683,"насчет":9684,"захва":9685,"бывали":9686,"рыбки":9687,"виноваты":9688,"позе":9689,"ковар":9690,"теку":9691,"рена":9692,"стесняюсь":9693,"серия":9694,"ситуацию":9695,"котенок":9696,"испытываете":9697,"красива":9698,"сце":9699,"намере":9700,"няюсь":9701,"спрашивают":9702,"проводить":9703,"яиц":9704,"бора":9705,"соц":9706,"братья":9707,"письмо":9708,"воздуха":9709,"ела":9710,"вызывают":9711,"дуро":9712,"стару":9713,"шил":9714,"плод":9715,"районе":9716,"ливерпуль":9717,"увидишь":9718,"заце":9719,"сата":9720,"зри":9721,"непоня":9722,"чехи":9723,"лочку":9724,"нормального":9725,"платья":9726,"стон":9727,"актера":9728,"равнодуш":9729,"котлеты":9730,"ati":9731,"привлекают":9732,"альтерна":9733,"бэ":9734,"кактус":9735,"слить":9736,"надоедает":9737,"напитки":9738,"тных":9739,"перевести":9740,"конди":9741,"волосами":9742,"продолжать":9743,"разнообрази":9744,"ерунда":9745,"достали":9746,"блоки":9747,"футболистов":9748,"ворачи":9749,"помыть":9750,"колю":9751,"минера":9752,"перевод":9753,"нормальных":9754,"вкусом":9755,"трое":9756,"теряет":9757,"победы":9758,"наркома":9759,"родо":9760,"муча":9761,"правит":9762,"испуга":9763,"придумайте":9764,"ангелы":9765,"портрет":9766,"dru":9767,"счё":9768,"катери":9769,"непре":9770,"думали":9771,"остаётся":9772,"улыбки":9773,"штук":9774,"овощ":9775,"ливые":9776,"ватель":9777,"выска":9778,"водителя":9779,"яич":9780,"сюрприз":9781,"шат":9782,"спали":9783,"имхо":9784,"уточ":9785,"черт":9786,"сково":9787,"компания":9788,"2106":9789,"момента":9790,"дует":9791,"думайте":9792,"черное":9793,"пятна":9794,"выходят":9795,"обеда":9796,"успех":9797,"напиться":9798,"рассказывать":9799,"ехали":9800,"сино":9801,"мышей":9802,"найдется":9803,"функ":9804,"женился":9805,"юбки":9806,"послу":9807,"приш":9808,"фил":9809,"работой":9810,"завоевать":9811,"коми":9812,"соскучи":9813,"иро":9814,"мастур":9815,"тойота":9816,"эмоция":9817,"реп":9818,"затем":9819,"chi":9820,"достоинства":9821,"снего":9822,"присни":9823,"рыбка":9824,"расскажи":9825,"способом":9826,"прива":9827,"получает":9828,"шутки":9829,"спб":9830,"вдохнове":9831,"адекват":9832,"опе":9833,"погоды":9834,"шевро":9835,"шаете":9836,"бывшим":9837,"количества":9838,"аван":9839,"заново":9840,"нужное":9841,"унитаз":9842,"бюджет":9843,"оль":9844,"канал":9845,"запла":9846,"ответит":9847,"имея":9848,"попроси":9849,"mar":9850,"закрыть":9851,"дешево":9852,"выр":9853,"статус":9854,"компози":9855,"toy":9856,"высокие":9857,"собрать":9858,"уверенности":9859,"тереть":9860,"2110":9861,"ситуациях":9862,"явление":9863,"телом":9864,"рубля":9865,"утре":9866,"спине":9867,"поцело":9868,"отби":9869,"бат":9870,"шаться":9871,"занят":9872,"сексуальная":9873,"париж":9874,"исчез":9875,"изде":9876,"пытаться":9877,"наличие":9878,"создал":9879,"улыбаюсь":9880,"зю":9881,"обна":9882,"встречались":9883,"pla":9884,"делу":9885,"пите":9886,"сквозь":9887,"шум":9888,"собакой":9889,"поцелуя":9890,"vs":9891,"онер":9892,"сные":9893,"снить":9894,"сдержи":9895,"замен":9896,"ценности":9897,"2014":9898,"отврати":9899,"lan":9900,"кцию":9901,"доми":9902,"нутся":9903,"картины":9904,"170":9905,"картошка":9906,"собственного":9907,"дадите":9908,"ьера":9909,"умирают":9910,"новогоднюю":9911,"тараканов":9912,"специали":9913,"pu":9914,"ир":9915,"общества":9916,"исполни":9917,"появилась":9918,"космос":9919,"ака":9920,"посади":9921,"педо":9922,"дым":9923,"домашнее":9924,"лишнее":9925,"yu":9926,"отте":9927,"выглядят":9928,"отдам":9929,"воля":9930,"бел":9931,"дном":9932,"ближ":9933,"уютно":9934,"косто":9935,"краску":9936,"груст":9937,"легенда":9938,"анек":9939,"помогут":9940,"тивная":9941,"победил":9942,"ать":9943,"речи":9944,"зомби":9945,"овчарка":9946,"озабо":9947,"моти":9948,"девя":9949,"стук":9950,"удается":9951,"прыщей":9952,"отече":9953,"альбо":9954,"вкусня":9955,"влюбляться":9956,"повтори":9957,"располо":9958,"крю":9959,"напра":9960,"ответе":9961,"плее":9962,"характером":9963,"компанию":9964,"обуви":9965,"ty":9966,"луста":9967,"75":9968,"wh":9969,"дке":9970,"хнуть":9971,"меняют":9972,"самоубий":9973,"особенного":9974,"берется":9975,"ящик":9976,"дружбе":9977,"надоест":9978,"умного":9979,"кося":9980,"ствий":9981,"ррр":9982,"разочарование":9983,"сравнивать":9984,"предохра":9985,"вдо":9986,"коня":9987,"курицу":9988,"штан":9989,"ремень":9990,"помогло":9991,"акту":9992,"уез":9993,"захочешь":9994,"газо":9995,"чувствуют":9996,"напо":9997,"задол":9998,"креди":9999,"логии":10000,"сде":10001,"деро":10002,"миха":10003,"будит":10004,"состояния":10005,"юююю":10006,"крыша":10007,"водкой":10008,"тяжелый":10009,"медведь":10010,"неизвестно":10011,"нико":10012,"тила":10013,"анекдо":10014,"макс":10015,"пата":10016,"бут":10017,"нией":10018,"сделаете":10019,"успеш":10020,"секреты":10021,"замечательно":10022,"маникюр":10023,"мадрид":10024,"кхл":10025,"пости":10026,"куба":10027,"получишь":10028,"картина":10029,"автомобиле":10030,"источник":10031,"пропал":10032,"проснулся":10033,"оригинально":10034,"творить":10035,"трудом":10036,"сборную":10037,"чужого":10038,"сковород":10039,"ed":10040,"находят":10041,"отправить":10042,"меняю":10043,"правой":10044,"тратите":10045,"взяла":10046,"избавля":10047,"плохим":10048,"аза":10049,"знь":10050,"болтать":10051,"66":10052,"мота":10053,"названием":10054,"сапоги":10055,"борьба":10056,"гимна":10057,"рол":10058,"забей":10059,"лах":10060,"безопас":10061,"убежать":10062,"спрашиваешь":10063,"оказывается":10064,"актёр":10065,"xo":10066,"емый":10067,"лении":10068,"стату":10069,"парнями":10070,"ландия":10071,"партне":10072,"ложиться":10073,"праздновать":10074,"морковь":10075,"ld":10076,"чмо":10077,"ходы":10078,"гат":10079,"kako":10080,"целом":10081,"сухой":10082,"безусловно":10083,"крыму":10084,"вспоминать":10085,"мра":10086,"позор":10087,"выиграл":10088,"кипя":10089,"чьих":10090,"дарили":10091,"товар":10092,"разлу":10093,"опасны":10094,"трава":10095,"желает":10096,"удалось":10097,"веселее":10098,"живём":10099,"обеспе":10100,"колготки":10101,"поэ":10102,"сталки":10103,"слабые":10104,"родная":10105,"предпочитают":10106,"****":10107,"ешся":10108,"колен":10109,"детском":10110,"любимом":10111,"яблоко":10112,"максима":10113,"килограмм":10114,"вдохно":10115,"укрепля":10116,"коричне":10117,"ноут":10118,"сопли":10119,"преимуще":10120,"холодной":10121,"ездил":10122,"похудения":10123,"ллиан":10124,"господи":10125,"ляции":10126,"ответили":10127,"карту":10128,"опасна":10129,"декабря":10130,"хэ":10131,"лечат":10132,"положено":10133,"всякую":10134,"написали":10135,"ствам":10136,"щаю":10137,"вопросами":10138,"полезное":10139,"претен":10140,"ненько":10141,"система":10142,"шш":10143,"голубые":10144,"кладбище":10145,"познаком":10146,"запол":10147,"чужим":10148,"строго":10149,"комплексы":10150,"вдвоем":10151,"знакомы":10152,"успел":10153,"девчёнки":10154,"ппи":10155,"швей":10156,"кормят":10157,"квартира":10158,"реагировать":10159,"резину":10160,"пт":10161,"моете":10162,"загляды":10163,"краситься":10164,"обязан":10165,"пету":10166,"шахматы":10167,"устроиться":10168,"настрой":10169,"ровал":10170,"отжима":10171,"научите":10172,"250":10173,"лёт":10174,"смен":10175,"проверь":10176,"tor":10177,"мужикам":10178,"исключения":10179,"мужей":10180,"совместимы":10181,"захотеть":10182,"гео":10183,"пойдете":10184,"пожи":10185,"поколе":10186,"сестры":10187,"веще":10188,"питера":10189,"центр":10190,"сче":10191,"мае":10192,"деньгах":10193,"иллюзия":10194,"познать":10195,"красную":10196,"хех":10197,"знакомится":10198,"появилось":10199,"пустота":10200,"егэ":10201,"прось":10202,"сломать":10203,"настоящих":10204,"ыыы":10205,"недостат":10206,"непонятно":10207,"чивая":10208,"кругу":10209,"позволяете":10210,"ушей":10211,"сие":10212,"слив":10213,"команди":10214,"потря":10215,"тным":10216,"переспать":10217,"худо":10218,"отношению":10219,"измеряется":10220,"честность":10221,"билеты":10222,"кусочек":10223,"длинный":10224,"горячий":10225,"грамотно":10226,"первому":10227,"нарисовать":10228,"погре":10229,"лью":10230,"сильным":10231,"kogda":10232,"девственности":10233,"майонез":10234,"перец":10235,"щами":10236,"счастливая":10237,"британ":10238,"фантастика":10239,"косметики":10240,"капусту":10241,"получше":10242,"действие":10243,"фен":10244,"полезный":10245,"экстра":10246,"музыкальные":10247,"семечки":10248,"виновата":10249,"варенье":10250,"творог":10251,"аккуму":10252,"ростов":10253,"щика":10254,"ственность":10255,"становиться":10256,"лишнего":10257,"кухню":10258,"энергии":10259,"распознать":10260,"улит":10261,"валер":10262,"мухи":10263,"рыва":10264,"160":10265,"рисунок":10266,"потол":10267,"потолсте":10268,"завод":10269,"счастьем":10270,"ааааа":10271,"уважения":10272,"наркотики":10273,"жизненный":10274,"самостоятельно":10275,"ушли":10276,"имеешь":10277,"элемен":10278,"стриптиз":10279,"бываю":10280,"диск":10281,"станете":10282,"спаль":10283,"аргу":10284,"большом":10285,"вернулся":10286,"высоты":10287,"нашёл":10288,"полы":10289,"лучшую":10290,"комму":10291,"зимы":10292,"действовать":10293,"имму":10294,"грозит":10295,"намекнуть":10296,"вна":10297,"мачо":10298,"злость":10299,"русской":10300,"младше":10301,"вконтакте":10302,"разная":10303,"газа":10304,"скажем":10305,"тельнее":10306,"арти":10307,"редкость":10308,"страдания":10309,"италии":10310,"теста":10311,"отзови":10312,"соста":10313,"самих":10314,"дорогое":10315,"курсы":10316,"вредная":10317,"принципи":10318,"любовницы":10319,"потолок":10320,"сходите":10321,"льке":10322,"зависти":10323,"животного":10324,"des":10325,"использо":10326,"развития":10327,"независи":10328,"запута":10329,"вище":10330,"пив":10331,"разное":10332,"фика":10333,"зубами":10334,"колоть":10335,"moj":10336,"пацан":10337,"опи":10338,"продавать":10339,"бесят":10340,"измен":10341,"игрушка":10342,"хамство":10343,"39":10344,"визи":10345,"сыром":10346,"брюки":10347,"исты":10348,"ядови":10349,"бать":10350,"банки":10351,"щину":10352,"одически":10353,"принца":10354,"tra":10355,"вход":10356,"пнуть":10357,"диски":10358,"руешь":10359,"торго":10360,"символ":10361,"сомневаюсь":10362,"личи":10363,"бата":10364,"кукуру":10365,"интересы":10366,"бойся":10367,"удача":10368,"общаюсь":10369,"российский":10370,"серебро":10371,"4e":10372,"усну":10373,"составля":10374,"плов":10375,"начинаете":10376,"едине":10377,"товарищи":10378,"уско":10379,"мил":10380,"удачно":10381,"планеты":10382,"кролика":10383,"бензина":10384,"але":10385,"наказать":10386,"мопе":10387,"руса":10388,"русь":10389,"помощ":10390,"береж":10391,"породи":10392,"сделаю":10393,"высокий":10394,"спрашивает":10395,"бюра":10396,"toyota":10397,"47":10398,"ренные":10399,"продукт":10400,"розовый":10401,"kra":10402,"sam":10403,"схо":10404,"чре":10405,"чами":10406,"счастливо":10407,"соседя":10408,"бараба":10409,"токо":10410,"задер":10411,"жество":10412,"знание":10413,"180":10414,"придётся":10415,"обслу":10416,"ценно":10417,"колесо":10418,"шни":10419,"лимит":10420,"бление":10421,"новка":10422,"разбудить":10423,"насы":10424,"шубу":10425,"смыслом":10426,"эгоист":10427,"влюбляются":10428,"замуже":10429,"дядя":10430,"сильной":10431,"выхода":10432,"авари":10433,"лбу":10434,"шкафу":10435,"нужным":10436,"отличная":10437,"ленью":10438,"экстри":10439,"займись":10440,"лочки":10441,"сими":10442,"бегают":10443,"значения":10444,"кефи":10445,"скучаете":10446,"крышу":10447,"зеркала":10448,"бриллиан":10449,"ворота":10450,"девиз":10451,"описать":10452,"веди":10453,"прокля":10454,"жится":10455,"подать":10456,"партнера":10457,"шоб":10458,"капли":10459,"ниссан":10460,"довер":10461,"тике":10462,"ждали":10463,"валентина":10464,"ол":10465,"лил":10466,"китае":10467,"виска":10468,"жива":10469,"фору":10470,"возьмут":10471,"третьего":10472,"микровол":10473,"дмитри":10474,"корень":10475,"сосу":10476,"пают":10477,"преж":10478,"молодого":10479,"границей":10480,"чится":10481,"парься":10482,"повезет":10483,"повторя":10484,"джоли":10485,"шешь":10486,"столом":10487,"скот":10488,"девать":10489,"бед":10490,"бии":10491,"гавно":10492,"верные":10493,"занятия":10494,"богатый":10495,"парашю":10496,"панк":10497,"балан":10498,"крути":10499,"клуба":10500,"пальто":10501,"хор":10502,"вича":10503,"вкуса":10504,"фай":10505,"полезная":10506,"выбирай":10507,"узнал":10508,"слабый":10509,"пай":10510,"пел":10511,"собачка":10512,"греет":10513,"писали":10514,"серьезный":10515,"категорию":10516,"нежные":10517,"целлю":10518,"козла":10519,"рос":10520,"слав":10521,"усталость":10522,"англия":10523,"чивые":10524,"педи":10525,"границы":10526,"официально":10527,"жаются":10528,"ответил":10529,"золотая":10530,"мультики":10531,"любых":10532,"шается":10533,"словам":10534,"серьезные":10535,"солярий":10536,"бутербро":10537,"ата":10538,"вшего":10539,"дкой":10540,"сверх":10541,"повлия":10542,"влюбленность":10543,"заре":10544,"веке":10545,"сного":10546,"трене":10547,"спорти":10548,"сказке":10549,"мда":10550,"щиков":10551,"границу":10552,"смешные":10553,"текст":10554,"брен":10555,"вешу":10556,"симпатичный":10557,"поискови":10558,"мышки":10559,"получил":10560,"упасть":10561,"франция":10562,"mm":10563,"телен":10564,"шара":10565,"кончается":10566,"обитае":10567,"власти":10568,"посмотрим":10569,"бутылку":10570,"сволочи":10571,"шится":10572,"мыше":10573,"публи":10574,"подобие":10575,"английски":10576,"прем":10577,"карбюра":10578,"песок":10579,"смело":10580,"психу":10581,"тёп":10582,"угадай":10583,"контролировать":10584,"биатло":10585,"чена":10586,"луну":10587,"самолё":10588,"ino":10589,"провока":10590,"няете":10591,"бросать":10592,"литр":10593,"sch":10594,"рассчи":10595,"рецепты":10596,"стереоти":10597,"аду":10598,"чешь":10599,"сестре":10600,"распро":10601,"бессон":10602,"ini":10603,"убил":10604,"требуется":10605,"десять":10606,"обруча":10607,"sy":10608,"ази":10609,"каст":10610,"поды":10611,"фоне":10612,"браться":10613,"хорошень":10614,"успеха":10615,"помеша":10616,"разумеется":10617,"нды":10618,"чила":10619,"молодая":10620,"толстая":10621,"получиться":10622,"выгляжу":10623,"прыгнуть":10624,"физически":10625,"умирать":10626,"чеснок":10627,"120":10628,"обой":10629,"тупая":10630,"вство":10631,"бессмер":10632,"слушают":10633,"улыбается":10634,"осени":10635,"48":10636,"люд":10637,"бум":10638,"вопросах":10639,"умру":10640,"забывае":10641,"извини":10642,"ресницы":10643,"тете":10644,"посидеть":10645,"досту":10646,"каждым":10647,"бль":10648,"сдавать":10649,"сож":10650,"переводится":10651,"городу":10652,"пляж":10653,"лежат":10654,"оси":10655,"сило":10656,"цвету":10657,"интересны":10658,"кольца":10659,"евровидение":10660,"осве":10661,"проб":10662,"прила":10663,"слух":10664,"нуждается":10665,"болта":10666,"хозяйка":10667,"отталки":10668,"екатери":10669,"освобо":10670,"саша":10671,"чуда":10672,"хлебом":10673,"обижаться":10674,"экономить":10675,"коп":10676,"десер":10677,"равнодушие":10678,"пахнут":10679,"мелодра":10680,"маршрут":10681,"ght":10682,"авиа":10683,"войне":10684,"пирог":10685,"народа":10686,"выкинуть":10687,"похмелья":10688,"быстрый":10689,"пищу":10690,"обмен":10691,"уровне":10692,"наглость":10693,"приметы":10694,"вме":10695,"елку":10696,"як":10697,"консер":10698,"помол":10699,"цветет":10700,"волни":10701,"шоколада":10702,"рекламе":10703,"лигу":10704,"относительно":10705,"владе":10706,"природу":10707,"любовницу":10708,"lt":10709,"сопроти":10710,"компро":10711,"учись":10712,"мечту":10713,"музыкой":10714,"короткие":10715,"результаты":10716,"сумму":10717,"вилья":10718,"твоём":10719,"корова":10720,"поздравить":10721,"поиск":10722,"приятных":10723,"фт":10724,"ццо":10725,"чника":10726,"ченный":10727,"отчая":10728,"белых":10729,"пия":10730,"ужасы":10731,"возьму":10732,"идите":10733,"учусь":10734,"таж":10735,"маску":10736,"сиком":10737,"изма":10738,"сума":10739,"враги":10740,"выбирает":10741,"солью":10742,"выкиды":10743,"водя":10744,"теру":10745,"пожарить":10746,"tol":10747,"надеяться":10748,"материально":10749,"давали":10750,"кучу":10751,"смогла":10752,"войну":10753,"работал":10754,"брось":10755,"волга":10756,"отпуске":10757,"пожелать":10758,"пушкин":10759,"инопланетя":10760,"шот":10761,"находятся":10762,"шир":10763,"разделе":10764,"фокус":10765,"которыми":10766,"живёшь":10767,"ищете":10768,"bla":10769,"den":10770,"востре":10771,"табу":10772,"чужая":10773,"пустя":10774,"надежду":10775,"восстано":10776,"съел":10777,"жных":10778,"ос":10779,"гаться":10780,"избра":10781,"интересна":10782,"родились":10783,"лии":10784,"подумай":10785,"побыть":10786,"киа":10787,"мнее":10788,"прикольная":10789,"духовке":10790,"вратарь":10791,"шес":10792,"книжку":10793,"объеди":10794,"золотые":10795,"санти":10796,"питаться":10797,"комплекс":10798,"каранда":10799,"жёл":10800,"посет":10801,"колё":10802,"страдаю":10803,"хомяка":10804,"увиде":10805,"декора":10806,"залить":10807,"запас":10808,"полтора":10809,"глупая":10810,"прибы":10811,"перебор":10812,"съедоб":10813,"кони":10814,"льны":10815,"дочке":10816,"пища":10817,"мылом":10818,"владель":10819,"виртуальный":10820,"выпей":10821,"замора":10822,"чному":10823,"всту":10824,"чувствами":10825,"голоса":10826,"надоела":10827,"письма":10828,"случится":10829,"негатив":10830,"слёз":10831,"выиграть":10832,"запоро":10833,"реальные":10834,"маркет":10835,"крест":10836,"стного":10837,"богатым":10838,"охла":10839,"пацаны":10840,"спасает":10841,"курорт":10842,"600":10843,"тошно":10844,"загар":10845,"стих":10846,"красив":10847,"хомяк":10848,"скорпи":10849,"ky":10850,"ив":10851,"носом":10852,"рыбку":10853,"мяу":10854,"смотра":10855,"пьем":10856,"прикольные":10857,"поцелуи":10858,"граждан":10859,"порадовать":10860,"нович":10861,"корни":10862,"чувствовали":10863,"amp":10864,"пропадает":10865,"ii":10866,"smo":10867,"чете":10868,"ноче":10869,"боб":10870,"беги":10871,"обита":10872,"зеленые":10873,"документы":10874,"шевроле":10875,"еле":10876,"накры":10877,"нога":10878,"приводят":10879,"обрете":10880,"отпусти":10881,"клубни":10882,"кр":10883,"вечная":10884,"перестал":10885,"самолюби":10886,"активно":10887,"обращать":10888,"крик":10889,"скорости":10890,"праздника":10891,"фамилии":10892,"дс":10893,"эко":10894,"ничё":10895,"хох":10896,"тиве":10897,"плин":10898,"дурац":10899,"бывшей":10900,"принимаю":10901,"поставили":10902,"еврей":10903,"ранетки":10904,"лите":10905,"даж":10906,"заморо":10907,"млин":10908,"бывал":10909,"делась":10910,"ответом":10911,"испании":10912,"сыграть":10913,"предпочте":10914,"мла":10915,"кулина":10916,"чаше":10917,"серге":10918,"террито":10919,"поеду":10920,"философия":10921,"финале":10922,"яяяяяяяя":10923,"вд":10924,"можен":10925,"мусо":10926,"бого":10927,"вицу":10928,"грибами":10929,"шансов":10930,"доказывать":10931,"pre":10932,"чала":10933,"школь":10934,"экз":10935,"пытается":10936,"обещания":10937,"подобное":10938,"события":10939,"пою":10940,"вег":10941,"научил":10942,"радиа":10943,"vy":10944,"иж":10945,"шра":10946,"прохо":10947,"жности":10948,"красит":10949,"грузо":10950,"секунд":10951,"тация":10952,"саму":10953,"шутить":10954,"больной":10955,"глупых":10956,"пирожки":10957,"прическу":10958,"предупре":10959,"финансо":10960,"спартака":10961,"раки":10962,"лянди":10963,"голодный":10964,"психологический":10965,"oo":10966,"езде":10967,"маша":10968,"обно":10969,"распла":10970,"свободен":10971,"штраф":10972,"поче":10973,"раны":10974,"мата":10975,"ственном":10976,"поведения":10977,"вечери":10978,"бабочки":10979,"схва":10980,"моне":10981,"полгода":10982,"воспиты":10983,"изменится":10984,"мелочи":10985,"мебель":10986,"стырь":10987,"случаи":10988,"лишние":10989,"ложите":10990,"делиться":10991,"интересную":10992,"запаха":10993,"вырасти":10994,"картину":10995,"брь":10996,"яна":10997,"нагруз":10998,"езд":10999,"архи":11000,"дерева":11001,"вкусного":11002,"вредны":11003,"неправда":11004,"воню":11005,"мот":11006,"везти":11007,"вероятно":11008,"вв":11009,"ровке":11010,"корд":11011,"фильмах":11012,"лип":11013,"водов":11014,"сезона":11015,"размыш":11016,"положение":11017,"2013":11018,"морда":11019,"питания":11020,"чистого":11021,".;)":11022,"сначало":11023,"устрой":11024,"реальный":11025,"бросили":11026,"толк":11027,"путина":11028,"лесбия":11029,"муравь":11030,"чешется":11031,"кп":11032,"кос":11033,"мыши":11034,"щер":11035,"гугле":11036,"пустой":11037,"пессими":11038,"моложе":11039,"мечтали":11040,"животик":11041,"спрятать":11042,"пользуются":11043,"произведения":11044,"отвлечь":11045,"бина":11046,"стихо":11047,"слона":11048,"маргари":11049,"театре":11050,"жную":11051,"разбор":11052,"творение":11053,"треуго":11054,"барс":11055,"сроке":11056,"ственных":11057,"проститу":11058,"сби":11059,"боку":11060,"чиха":11061,"нностью":11062,"liu":11063,"уголо":11064,"ринару":11065,"преки":11066,"черты":11067,"правильное":11068,"назов":11069,"проснулись":11070,"шахтер":11071,"ac":11072,"пса":11073,"грустные":11074,"съели":11075,"остановиться":11076,"паук":11077,"кален":11078,"рятся":11079,"зываться":11080,"молчат":11081,"категория":11082,"таблет":11083,"бухгал":11084,"просвет":11085,"тупи":11086,"ошибку":11087,"мстить":11088,"никакие":11089,"пами":11090,"жном":11091,"iti":11092,"получаете":11093,"итальян":11094,"око":11095,"личная":11096,"лочка":11097,"диеты":11098,"кроват":11099,"проблему":11100,"ona":11101,"назови":11102,"актрису":11103,"тдв":11104,"насмо":11105,"пору":11106,"заи":11107,"ладу":11108,"папы":11109,"станут":11110,"путать":11111,"ставки":11112,"бутылки":11113,"жертво":11114,"46":11115,"бежит":11116,"лыжи":11117,"грана":11118,"представь":11119,"завист":11120,"новки":11121,"ковая":11122,"бера":11123,"перси":11124,"воспитания":11125,"жва":11126,"несе":11127,"втором":11128,"почту":11129,"выборе":11130,"лабра":11131,"живают":11132,"пачи":11133,"старой":11134,"поднимает":11135,"пиццу":11136,"авангар":11137,"справи":11138,"застави":11139,"духа":11140,"пище":11141,"большее":11142,"зывай":11143,"марти":11144,"рке":11145,"стань":11146,"влияют":11147,"диака":11148,"эффективно":11149,"стесни":11150,"лив":11151,"русы":11152,"прислуши":11153,"зию":11154,"служе":11155,"завидовать":11156,"маленькой":11157,"благород":11158,"смириться":11159,"итоге":11160,"выда":11161,"отражение":11162,"королева":11163,"куй":11164,"пропи":11165,"продаже":11166,"чатся":11167,"тику":11168,"тием":11169,"обнять":11170,"шом":11171,"портить":11172,"2006":11173,"позвони":11174,"хххх":11175,"анализ":11176,"прозра":11177,"фразы":11178,"верху":11179,"начинаешь":11180,"сотруд":11181,"огля":11182,"штам":11183,"товый":11184,"попы":11185,"кине":11186,"мамочки":11187,"хоти":11188,"ционе":11189,"студию":11190,"ana":11191,"говорила":11192,"химия":11193,"олимпий":11194,"дьяво":11195,"пампер":11196,"metal":11197,"jo":11198,"еб":11199,"пьёт":11200,"новости":11201,"бывшие":11202,"сцена":11203,"веет":11204,"скутер":11205,"кричит":11206,"ветеринару":11207,"прыгать":11208,"ушко":11209,"лед":11210,"чины":11211,"курение":11212,"простили":11213,"родину":11214,"подождать":11215,"новорожде":11216,"хахахаха":11217,"крайне":11218,"асфаль":11219,"нными":11220,"лиде":11221,"табли":11222,"лео":11223,"подразуме":11224,"металл":11225,"park":11226,"покорны":11227,"служеб":11228,"ssi":11229,"встал":11230,"неизбе":11231,"суд":11232,"оценить":11233,"тюль":11234,"небыло":11235,"матри":11236,"чистый":11237,"половой":11238,"женатого":11239,"реальной":11240,"оргазма":11241,"каналу":11242,"владимир":11243,"японии":11244,"выспаться":11245,"юбку":11246,"разный":11247,"излечи":11248,"суро":11249,"ожидать":11250,"арт":11251,"пж":11252,"ушки":11253,"товать":11254,"реки":11255,"серый":11256,"риско":11257,"безна":11258,"пищи":11259,"рекламы":11260,"интеллект":11261,"пришлось":11262,"кусок":11263,"расход":11264,"книге":11265,"day":11266,"миллионе":11267,"обманывать":11268,"lyu":11269,"ea":11270,"ющее":11271,"юбка":11272,"мисс":11273,"падать":11274,"компьютера":11275,"звёзд":11276,"вклады":11277,"опель":11278,"проч":11279,"скру":11280,"пьёте":11281,"называли":11282,"марсе":11283,"арген":11284,"влюбится":11285,"вырастить":11286,"беременной":11287,"исполняет":11288,"оран":11289,"тль":11290,"юту":11291,"рыжий":11292,"подмоско":11293,"зову":11294,"смотрим":11295,"влюбились":11296,"выражается":11297,"семена":11298,"скромный":11299,"дурой":11300,"жанра":11301,"перейти":11302,"карта":11303,"полезные":11304,"открыто":11305,"sex":11306,"надоел":11307,"адренали":11308,"нде":11309,"отвали":11310,"пали":11311,"стана":11312,"расписа":11313,"хулига":11314,"признакам":11315,"тысячи":11316,"установить":11317,"жным":11318,"заводи":11319,"привя":11320,"трусах":11321,"альных":11322,"ндай":11323,"необходимость":11324,"помимо":11325,"любовницей":11326,"гармония":11327,"дцать":11328,"уль":11329,"гость":11330,"ченные":11331,"демо":11332,"пина":11333,"спас":11334,":):):)":11335,"истину":11336,"грязи":11337,"усе":11338,"демон":11339,"планета":11340,"остаются":11341,"экзамен":11342,"половинкой":11343,"короткий":11344,"достойно":11345,"змея":11346,"велосипеде":11347,"дог":11348,"летят":11349,"вреда":11350,"фом":11351,"жор":11352,"сильных":11353,"краснодар":11354,"испан":11355,"окружающим":11356,"гармонии":11357,"посоветовать":11358,"массо":11359,"сками":11360,"целей":11361,"шучу":11362,"смеха":11363,"возьм":11364,"радуйся":11365,"\"\"":11366,"акин":11367,"едой":11368,"хэм":11369,"приора":11370,"доверить":11371,"___":11372,"майл":11373,"объясни":11374,"неделя":11375,"самооценку":11376,"валерья":11377,"мли":11378,"орать":11379,"рёт":11380,"садить":11381,"знаки":11382,"женные":11383,"самолете":11384,"итак":11385,"прикры":11386,"самолет":11387,"взаимной":11388,"енто":11389,"отказ":11390,"организме":11391,"красавчик":11392,"пожрать":11393,"медо":11394,"труда":11395,"съела":11396,"!,":11397,"dj":11398,"тома":11399,"поделать":11400,"хий":11401,"лентя":11402,"всякое":11403,"дрож":11404,"тёть":11405,"условия":11406,"взаимопонимание":11407,"иммунит":11408,"пкой":11409,"безуми":11410,"скиньте":11411,"ющими":11412,"феев":11413,"кастрю":11414,":?":11415,"шные":11416,"нави":11417,"сидел":11418,"любящий":11419,".-":11420,"ic":11421,"ави":11422,"сознания":11423,"уважаете":11424,"путешествие":11425,"наслаждаться":11426,"обрета":11427,"зарази":11428,"разба":11429,"женная":11430,"трактор":11431,"кухня":11432,"ие":11433,"окро":11434,"наби":11435,"нежный":11436,"котом":11437,"читает":11438,"нкам":11439,"победу":11440,"женились":11441,"блуч":11442,"нир":11443,"дению":11444,"беля":11445,"сное":11446,"спала":11447,"птиц":11448,"святого":11449,"стервой":11450,"исполнитель":11451,"америка":11452,"ревнуют":11453,"незабывае":11454,"выделя":11455,"путем":11456,"глая":11457,"вкусу":11458,"убивать":11459,"восприя":11460,"?;":11461,"учё":11462,"проходят":11463,"престу":11464,"упал":11465,"комнату":11466,"чней":11467,"лебе":11468,"пат":11469,"хорошими":11470,"вности":11471,"импотен":11472,"прошлой":11473,"молодых":11474,"современные":11475,"ушёл":11476,"находит":11477,"ряет":11478,"собирается":11479,"пенсии":11480,"любопытство":11481,"персонаж":11482,"полю":11483,"вега":11484,"вечный":11485,"суи":11486,"кремом":11487,"способность":11488,"счетом":11489,"раскры":11490,"ведёт":11491,"жадность":11492,"денье":11493,"ударить":11494,"дневник":11495,"vam":11496,"неви":11497,"выпил":11498,"жись":11499,"зовет":11500,"американский":11501,"жутко":11502,"халяву":11503,"заинтересовать":11504,"прет":11505,"незаметно":11506,"пошёл":11507,"коси":11508,"любитель":11509,"морду":11510,"программу":11511,"валось":11512,"сар":11513,"купит":11514,"пальца":11515,"ъя":11516,"точек":11517,"дана":11518,"дашь":11519,"челя":11520,"пропусти":11521,"нулся":11522,"ритет":11523,"снизу":11524,"сексуальные":11525,"важны":11526,"петербург":11527,"ks":11528,"квас":11529,"фраз":11530,"лита":11531,"логан":11532,"муха":11533,"медом":11534,"дое":11535,"получили":11536,"ee":11537,"арома":11538,"ведете":11539,"прокла":11540,"присе":11541,"привыкли":11542,"чипсы":11543,"вырастет":11544,"ул":11545,"ягод":11546,"сладких":11547,"бананы":11548,"обращаться":11549,"поставил":11550,"лимоном":11551,"вегета":11552,"аву":11553,"ссори":11554,"продук":11555,"попса":11556,"колбасу":11557,"телефоне":11558,"ётесь":11559,"ничья":11560,"больнее":11561,"нна":11562,"нении":11563,"педа":11564,"следить":11565,"красивого":11566,"счастливыми":11567,"турция":11568,"бензо":11569,"начнут":11570,"мелодия":11571,"астра":11572,"новать":11573,"ковать":11574,"папе":11575,"жайте":11576,"крести":11577,"девственница":11578,"виртуальная":11579,"мультфильм":11580,"пеле":11581,"ценное":11582,"хаски":11583,"возить":11584,"зайцев":11585,"дураком":11586,"изменила":11587,"невесты":11588,"млн":11589,".=)":11590,"кинуть":11591,"женить":11592,"поливать":11593,"изменили":11594,"используют":11595,"gde":11596,"ярко":11597,"живы":11598,"греть":11599,"попада":11600,"самооценка":11601,"зму":11602,"углу":11603,"папой":11604,"ветки":11605,"близне":11606,"возникают":11607,"серебря":11608,"неповтори":11609,"пос":11610,"готовиться":11611,"желании":11612,"вечность":11613,"спрята":11614,"макдональ":11615,"дарите":11616,"чебура":11617,"гуру":11618,"автобус":11619,"жопе":11620,"побеждает":11621,"постепе":11622,"изюми":11623,"впро":11624,"поверх":11625,"спасет":11626,"держу":11627,"машинку":11628,"обиду":11629,"одинокие":11630,"всякой":11631,"болезне":11632,"вкой":11633,"вставля":11634,"необитае":11635,"завер":11636,"хоз":11637,"гур":11638,"летние":11639,"курицы":11640,"принцип":11641,"народу":11642,"ежедневно":11643,"42":11644,"распа":11645,"примета":11646,"маленького":11647,"oni":11648,"килограм":11649,"?,":11650,"креа":11651,"сры":11652,"шня":11653,"войти":11654,"домик":11655,"клапа":11656,"цветами":11657,"fu":11658,"уника":11659,"неудобно":11660,"лами":11661,"стреля":11662,"созре":11663,"семьей":11664,"сплетни":11665,"ахах":11666,"старых":11667,"начался":11668,"крепкий":11669,"периодически":11670,"gre":11671,"воняет":11672,"прошли":11673,"пуще":11674,"врага":11675,"одиноки":11676,"паралле":11677,"франции":11678,"пенсию":11679,"дядька":11680,"карьера":11681,"поне":11682,"желаете":11683,"мульти":11684,"банан":11685,"одеяло":11686,"бритни":11687,"шесть":11688,"юна":11689,"каши":11690,"отчество":11691,"личного":11692,"audi":11693,"one":11694,"осуще":11695,"корей":11696,"паспорте":11697,"пришёл":11698,"ились":11699,"зодиака":11700,"назвал":11701,"говорится":11702,"ари":11703,"выру":11704,"ходе":11705,"куни":11706,"хачу":11707,"преми":11708,"тельную":11709,"ездят":11710,"юмором":11711,"нешься":11712,"деток":11713,"бака":11714,"ряться":11715,"перей":11716,"брала":11717,"возрасты":11718,"kia":11719,"ответственности":11720,"сосать":11721,"берт":11722,"свежий":11723,"талию":11724,"капусты":11725,"любители":11726,"интересным":11727,"зрели":11728,"энергию":11729,"драз":11730,"нашим":11731,"неважно":11732,"почем":11733,"избы":11734,"стин":11735,"зил":11736,"взрослый":11737,"контакт":11738,"безответная":11739,"порок":11740,"загада":11741,"слабе":11742,"улица":11743,"советов":11744,"ехала":11745,"возвращаться":11746,"нахожу":11747,"стку":11748,"лено":11749,"провели":11750,"столица":11751,"sho":11752,"романтический":11753,"заметили":11754,"косметику":11755,"актуально":11756,"!=)":11757,"сб":11758,"заходи":11759,"шкаф":11760,"надпись":11761,"произой":11762,"салаты":11763,"bol":11764,"внезапно":11765,"фсе":11766,"пород":11767,"коза":11768,"режим":11769,"проби":11770,"деньгам":11771,"оставь":11772,"горшок":11773,"идио":11774,"вредна":11775,"единственная":11776,"сотво":11777,"финлянди":11778,"казахстан":11779,"необычное":11780,"бассейн":11781,"отправля":11782,"хил":11783,"признание":11784,"закончилась":11785,"журна":11786,"сволочь":11787,"джентль":11788,"вопреки":11789,"раздел":11790,"следо":11791,"одинок":11792,"мыслях":11793,"ожидания":11794,"олигар":11795,"крепко":11796,"уважаемые":11797,"супруже":11798,"болят":11799,"последнего":11800,"романтик":11801,"истори":11802,"вспоминаете":11803,"определяете":11804,"края":11805,"пьешь":11806,"красотка":11807,"движения":11808,"далее":11809,"расставания":11810,"вырос":11811,"приезжай":11812,"суици":11813,"колу":11814,"бул":11815,"чности":11816,"карл":11817,"езда":11818,"бывшая":11819,"услож":11820,"…………":11821,"метод":11822,"национальности":11823,"ct":11824,"уи":11825,"носо":11826,"?!;)":11827,"очередной":11828,"суббота":11829,"встретиться":11830,"касается":11831,"улучшить":11832,"куп":11833,"прочь":11834,"трек":11835,"спект":11836,"изменой":11837,"атлети":11838,"высшее":11839,"нормальную":11840,"спрашиваю":11841,"помидор":11842,"возвращается":11843,"огороде":11844,"капи":11845,"бир":11846,"баловать":11847,"подскажете":11848,"спим":11849,"слышите":11850,"варь":11851,"сильное":11852,"заказ":11853,"семейные":11854,"включить":11855,"цвете":11856,"поправи":11857,"поискать":11858,"чением":11859,"законо":11860,"слон":11861,"сливо":11862,"обида":11863,"наркотик":11864,"печаль":11865,"проверять":11866,"дааа":11867,"визу":11868,"провод":11869,"жары":11870,"сними":11871,"регистри":11872,"предлагать":11873,"бросают":11874,"бр":11875,"морская":11876,"пьян":11877,"линзы":11878,"ошибках":11879,"присоеди":11880,"наука":11881,"влюблены":11882,"эд":11883,"печь":11884,"детях":11885,"спортсмен":11886,"прощение":11887,"змеи":11888,"mp3":11889,"92":11890,"немогу":11891,"просты":11892,"ang":11893,"гардеро":11894,"общаетесь":11895,"дожди":11896,"vol":11897,"прекрасный":11898,"сочетание":11899,"магнито":11900,"ял":11901,"ягоды":11902,"неле":11903,"голая":11904,"мазда":11905,"процент":11906,"рыжие":11907,"жуть":11908,"продав":11909,"магазина":11910,"улыбаетесь":11911,"hi":11912,"ежи":11913,"каете":11914,"накормить":11915,"вому":11916,"живое":11917,"хваста":11918,"настроении":11919,"мозгами":11920,"ожидание":11921,"здравствуй":11922,"листа":11923,"висит":11924,"кеды":11925,"нормальным":11926,"книжки":11927,"учатся":11928,"поттер":11929,"родственники":11930,"шалаше":11931,"навя":11932,"рика":11933,"подлости":11934,"свекрови":11935,"вшая":11936,"ёжи":11937,"рованные":11938,"ощущаете":11939,"закончилось":11940,"двигаться":11941,"обижаются":11942,"заведи":11943,"массу":11944,"стоимость":11945,"уменьшить":11946,"ждёшь":11947,"нереально":11948,"подтяги":11949,"прести":11950,"драться":11951,"пятно":11952,"техно":11953,"встречал":11954,"выросли":11955,"подробно":11956,"точный":11957,"влении":11958,"свето":11959,"гореть":11960,"спут":11961,"совершенство":11962,"реза":11963,"чтой":11964,"записа":11965,"чивают":11966,"няю":11967,"помогу":11968,"трусо":11969,"найдёшь":11970,"забота":11971,"сыграли":11972,"магнит":11973,"тону":11974,"кошкой":11975,"ренный":11976,"миг":11977,"тину":11978,"бабло":11979,"тун":11980,"позд":11981,"баллы":11982,"сладко":11983,"мария":11984,"йтед":11985,"смея":11986,"дресси":11987,"примеры":11988,"руковод":11989,"стремиться":11990,"элементар":11991,"vat":11992,"осты":11993,"солё":11994,"метис":11995,"хозяина":11996,"продуктов":11997,"обманывают":11998,"подвиг":11999,"pp":12000,"краю":12001,"вновь":12002,"фак":12003,"кличко":12004,"сыпать":12005,"информации":12006,"одеялом":12007,"изнача":12008,"разврат":12009,"гоп":12010,"вышло":12011,"считай":12012,"украсть":12013,"отдыхает":12014,"кончится":12015,"убирать":12016,"гипно":12017,"постепенно":12018,"испе":12019,"лидер":12020,"жению":12021,"обста":12022,"настроению":12023,"пальцем":12024,"флир":12025,"сахаром":12026,"aa":12027,"толи":12028,"набери":12029,"полюбишь":12030,"лест":12031,"минима":12032,"собачки":12033,"собачку":12034,"музыкан":12035,"лёк":12036,"форми":12037,"орган":12038,"роналдо":12039,"рифму":12040,"господ":12041,"вших":12042,"грань":12043,"ооочень":12044,"подозре":12045,"виднее":12046,"голубы":12047,"получают":12048,"сибирь":12049,"ford":12050,"плей":12051,"тке":12052,"тёт":12053,"цили":12054,"ювен":12055,"коже":12056,"дино":12057,"ниями":12058,"расстраи":12059,"аппарат":12060,"транспорт":12061,"алиса":12062,"собрались":12063,"дожить":12064,"крова":12065,"правилам":12066,"трусов":12067,"броси":12068,"расстались":12069,"наступающим":12070,"упор":12071,"носталь":12072,"погово":12073,"вине":12074,"голой":12075,"аааааа":12076,"открывать":12077,"клубы":12078,"челябин":12079,"iq":12080,"ксю":12081,"раска":12082,"чае":12083,"сали":12084,"езжу":12085,"картошки":12086,"зубной":12087,"июня":12088,"уход":12089,"шники":12090,"совать":12091,"педик":12092,"голуби":12093,"заморачи":12094,"нёт":12095,"сидим":12096,"пасси":12097,"начинаются":12098,"золота":12099,"урал":12100,"кухни":12101,"тины":12102,"вопросик":12103,"знакомо":12104,"приятная":12105,"свини":12106,"великоле":12107,"тюнинг":12108,"программа":12109,"поправиться":12110,"росли":12111,"заправ":12112,"перчат":12113,"фера":12114,"пожар":12115,"попала":12116,"ногтя":12117,"ющиеся":12118,"безопасности":12119,"black":12120,"йка":12121,"узнает":12122,"погиб":12123,"села":12124,"вопросу":12125,"токси":12126,"катастро":12127,"задуматься":12128,"каз":12129,"постро":12130,"козло":12131,"заты":12132,"такому":12133,"казаться":12134,"lub":12135,"прошлым":12136,"зверя":12137,"напрягает":12138,"тупость":12139,"поисковике":12140,"влю":12141,"покое":12142,"мотива":12143,"вымер":12144,"щаться":12145,"кошелек":12146,"ппц":12147,"юнайтед":12148,"бегает":12149,"женный":12150,"вредить":12151,"прятать":12152,"толстые":12153,"((((((":12154,"острове":12155,"океан":12156,"прячется":12157,"светлое":12158,"уефа":12159,"сывают":12160,"машиной":12161,"черном":12162,"обидел":12163,"свинья":12164,"одеваться":12165,"звуки":12166,"готовят":12167,"пользуется":12168,"добраться":12169,"подушку":12170,"возможен":12171,"шуток":12172,"хера":12173,"необходимости":12174,"летела":12175,"добиваться":12176,"инжектор":12177,"салют":12178,"хд":12179,"мыться":12180,"праздну":12181,"близкого":12182,"ипоте":12183,"юби":12184,"догады":12185,"милым":12186,"летняя":12187,"корре":12188,"существа":12189,"противоре":12190,"колбаса":12191,"товарищ":12192,"актуаль":12193,"ппа":12194,"риску":12195,"отку":12196,"песне":12197,"черной":12198,"писатель":12199,"достал":12200,"лишних":12201,"заметил":12202,"извраще":12203,"ser":12204,"замо":12205,"тум":12206,"переве":12207,"рассвет":12208,"альфа":12209,"весьма":12210,"помеха":12211,"сыграл":12212,"экзоти":12213,"ато":12214,"управля":12215,"номе":12216,"ничный":12217,"такова":12218,"мамо":12219,"меж":12220,"фильтр":12221,"полные":12222,"техника":12223,"узнала":12224,"дешё":12225,"приносят":12226,"страдают":12227,"учился":12228,"играем":12229,"нтв":12230,"движи":12231,"художник":12232,"взор":12233,"члена":12234,"нормальной":12235,"купишь":12236,"согласились":12237,"критику":12238,"ren":12239,"промолчать":12240,"подде":12241,"аква":12242,"клином":12243,"защита":12244,"фигуры":12245,"скромные":12246,"притягивает":12247,",?":12248,"as":12249,"вложить":12250,"секси":12251,"отдыхаю":12252,"партнер":12253,"определё":12254,"ms":12255,"звери":12256,"огород":12257,"удел":12258,"фра":12259,"може":12260,"выбросить":12261,"прий":12262,"шол":12263,"крыль":12264,"шкам":12265,"случаев":12266,"полезным":12267,"летаю":12268,"стринги":12269,"2114":12270,"портят":12271,"деревья":12272,"аккуратно":12273,"-?":12274,"гит":12275,"взят":12276,"началось":12277,"основные":12278,"жён":12279,"захочется":12280,"ходом":12281,"лух":12282,"ветром":12283,"цветные":12284,"психолога":12285,"шоколадку":12286,"брюне":12287,"горизон":12288,"постараться":12289,"лаком":12290,"дизель":12291,"живую":12292,"получит":12293,"нижнее":12294,"токио":12295,"чт":12296,"фини":12297,"зировать":12298,"кролик":12299,"худой":12300,"ленные":12301,"ete":12302,"велико":12303,"силах":12304,"капуста":12305,"зарабатывает":12306,"шерсть":12307,"коктейль":12308,"пообща":12309,"зараза":12310,"табле":12311,"блеск":12312,"отношениям":12313,"последнюю":12314,"сайта":12315,"прыщи":12316,"шампанского":12317,"молодцы":12318,"отзовитесь":12319,"^^":12320,"mit":12321,"»?":12322,"злить":12323,"невро":12324,"ваний":12325,"застре":12326,"запя":12327,"особы":12328,"идешь":12329,"камни":12330,"свободные":12331,"способности":12332,"переживай":12333,"присутствует":12334,"неприлично":12335,"лат":12336,"жими":12337,"паете":12338,"актив":12339,"пойма":12340,"похожие":12341,"спрашивай":12342,"дверью":12343,"--------":12344,"gra":12345,"чата":12346,"сада":12347,"дурь":12348,"суе":12349,"суда":12350,".?:)":12351,"половинке":12352,"главным":12353,"металли":12354,"вибра":12355,"разными":12356,"богатые":12357,"kie":12358,"коротко":12359,"принадлежит":12360,"правильные":12361,"свойственно":12362,"объем":12363,"джонни":12364,"картофель":12365,"лудше":12366,"кк":12367,"лк":12368,"щими":12369,"рынок":12370,"делах":12371,"подска":12372,"коммен":12373,"влен":12374,"червя":12375,"профессию":12376,"партнё":12377,"португа":12378,"озву":12379,"нечто":12380,"дарю":12381,"теплее":12382,"левая":12383,"обычной":12384,"передви":12385,"экспе":12386,"держат":12387,"информация":12388,"пригодится":12389,"роскошь":12390,"чихуахуа":12391,"арен":12392,"иной":12393,"кв":12394,"жели":12395,"гиба":12396,"слаще":12397,"пожалуста":12398,"корпора":12399,"морози":12400,"принципы":12401,"яндек":12402,"печально":12403,"девственник":12404,"4to":12405,"ливость":12406,"белым":12407,"пунк":12408,"английском":12409,"зззз":12410,"шная":12411,"теки":12412,"подбира":12413,"nes":12414,"миллиар":12415,"ссылка":12416,"оранже":12417,"ються":12418,"коко":12419,"вопло":12420,"проста":12421,"ктору":12422,"мней":12423,"мужику":12424,"ветерина":12425,"низко":12426,"игрушку":12427,"тормоза":12428,"ds":12429,"жками":12430,"личку":12431,"кун":12432,"серий":12433,"яндекс":12434,"образования":12435,"превращается":12436,"патаму":12437,"иммунитет":12438,"вини":12439,"золу":12440,"умни":12441,"гордиться":12442,"пытались":12443,"логично":12444,"бабушке":12445,"философи":12446,"зарядку":12447,"кес":12448,"очистить":12449,"умо":12450,"каться":12451,"застря":12452,"вест":12453,"любителя":12454,"новогодние":12455,"мудрый":12456,"ответами":12457,"незнаком":12458,"будьте":12459,"играй":12460,"горчи":12461,"разнообраз":12462,"хрони":12463,"козы":12464,"мусуль":12465,"живые":12466,"вью":12467,"глядеть":12468,"началась":12469,"каждые":12470,"поверите":12471,"толстый":12472,"невеста":12473,"mno":12474,"мэй":12475,"ссер":12476,"грустить":12477,"спира":12478,"приятней":12479,"едим":12480,"пьяная":12481,"фотография":12482,"аватарке":12483,"расслабиться":12484,"ex":12485,"адво":12486,"посмотрел":12487,"бота":12488,"простые":12489,"подве":12490,"молодё":12491,"найдёт":12492,"полезного":12493,"написала":12494,"con":12495,"натуре":12496,"месту":12497,"большего":12498,"вопросам":12499,"смена":12500,"ездит":12501,"последних":12502,"165":12503,"принимает":12504,"простит":12505,"отдали":12506,"серьезных":12507,"загорать":12508,"обозначает":12509,"дры":12510,"шну":12511,"чивается":12512,"звезду":12513,"индий":12514,"звёзды":12515,"ir":12516,"непредсказуе":12517,"потери":12518,"бления":12519,"семейный":12520,"дорогах":12521,"несу":12522,"нехва":12523,"ставите":12524,"денья":12525,"отличное":12526,"спрятаться":12527,"аквариум":12528,"ири":12529,"прямой":12530,"идиоты":12531,"китайский":12532,"сете":12533,"ёлку":12534,"росто":12535,"чива":12536,"лывать":12537,"альным":12538,"слышит":12539,"расчету":12540,"43":12541,"недолго":12542,"посло":12543,"телу":12544,"массы":12545,"мазь":12546,"красивы":12547,"влением":12548,"холода":12549,"характере":12550,"высокая":12551,"район":12552,"измениться":12553,"забываю":12554,"прекрасная":12555,"don":12556,"неза":12557,"потер":12558,"сиро":12559,"буме":12560,"тёр":12561,"багаж":12562,"мартини":12563,"мадам":12564,"прогуля":12565,"тушка":12566,"подво":12567,"поймут":12568,"стности":12569,"приходите":12570,"пользовался":12571,"степень":12572,"извращен":12573,"злошники":12574,"упре":12575,"добе":12576,"доход":12577,"босиком":12578,"делами":12579,"кругло":12580,"психологу":12581,"задницу":12582,"пускает":12583,"контроль":12584,"потолстеть":12585,"поди":12586,"мешок":12587,"лечение":12588,"оставлять":12589,"?!?!":12590,"встречается":12591,"спрошу":12592,"кличку":12593,"брыз":12594,"абор":12595,"гонять":12596,"часо":12597,"гаешь":12598,"скорую":12599,"гус":12600,"скрывают":12601,"окружающие":12602,"фет":12603,"моды":12604,"ружи":12605,"щин":12606,"девочкой":12607,"тайну":12608,"балконе":12609,"знакомятся":12610,"известный":12611,"министра":12612,"достичь":12613,"отрастить":12614,"жестоко":12615,"уровня":12616,"отгадайте":12617,"wor":12618,"каешь":12619,"лесть":12620,"гий":12621,"ответам":12622,"альфон":12623,"женатым":12624,"здоровью":12625,"звездой":12626,"уйду":12627,"петербурге":12628,"боритесь":12629,"нуля":12630,"страдает":12631,"врачей":12632,"плечи":12633,"майкл":12634,"упаков":12635,"союз":12636,"указа":12637,"нае":12638,"телю":12639,"выдают":12640,"тупик":12641,"вслух":12642,"нееее":12643,"магазины":12644,"компьютером":12645,"слабых":12646,"справляетесь":12647,"читы":12648,"подклю":12649,"краской":12650,"толпе":12651,"душевная":12652,"подробнее":12653,"fore":12654,"мле":12655,"уму":12656,"мост":12657,"тапки":12658,"луком":12659,"пели":12660,"нравилось":12661,"простого":12662,"анд":12663,"собеседника":12664,"геи":12665,"похуде":12666,"бывшими":12667,"лекарства":12668,"вшийся":12669,"хватало":12670,"востребова":12671,"вшую":12672,"посторон":12673,"роят":12674,"сообра":12675,"живая":12676,"значить":12677,"читают":12678,"улицы":12679,"обладать":12680,"красавец":12681,"(-":12682,"гет":12683,"сцу":12684,"эми":12685,"передать":12686,"родным":12687,"мечте":12688,"сексуальность":12689,"оптима":12690,"дыхание":12691,"изначально":12692,"угле":12693,"нации":12694,"нели":12695,"раком":12696,"стё":12697,"чук":12698,"тортик":12699,"привыкнуть":12700,"убеди":12701,"расскажешь":12702,"бумеран":12703,"53":12704,"аэ":12705,"уаз":12706,"наедине":12707,"волей":12708,"будить":12709,"крысы":12710,"стрелять":12711,"занимает":12712,"рождество":12713,"открой":12714,"доллар":12715,"адеква":12716,"hy":12717,"амур":12718,"ове":12719,"поумне":12720,"челю":12721,"пром":12722,"ster":12723,"птичка":12724,"приготовления":12725,"наблюдать":12726,"мёд":12727,"бутерброд":12728,"пакети":12729,"ps":12730,"ъе":12731,"нечая":12732,"выз":12733,"вуль":12734,"цепи":12735,"летнему":12736,"вернее":12737,"андже":12738,"вашими":12739,"хочеш":12740,"прын":12741,"снаружи":12742,"тренировки":12743,"актеры":12744,"камен":12745,"доехать":12746,"паться":12747,"снове":12748,"москвич":12749,"длиться":12750,"игр":12751,"покупай":12752,"причинам":12753,"очарова":12754,"ноября":12755,"чева":12756,"странная":12757,"одиноким":12758,"движение":12759,"душкой":12760,"количестве":12761,"просыпается":12762,"инструмент":12763,"посетить":12764,"урок":12765,"недвижи":12766,"зарабо":12767,"семи":12768,"сокрови":12769,"стами":12770,"тятся":12771,"невидим":12772,"горят":12773,"лобо":12774,"составить":12775,"беше":12776,"садо":12777,"прячу":12778,"основе":12779,"way":12780,"og":12781,"вставить":12782,"закро":12783,"женском":12784,"мною":12785,"страхи":12786,"завидую":12787,"скоростью":12788,"золотую":12789,"2112":12790,"транспорте":12791,"старого":12792,"прощай":12793,"влюблялись":12794,"свари":12795,"устрое":12796,"самец":12797,"пивка":12798,"цирк":12799,"удачу":12800,"блох":12801,"комплексов":12802,"мёрт":12803,"svo":12804,"музе":12805,"гусе":12806,"термина":12807,"торрен":12808,"волом":12809,"нервов":12810,"кличка":12811,"успешно":12812,"восполь":12813,"пушкина":12814,"заши":12815,"маза":12816,"кузов":12817,"большими":12818,"зительно":12819,"скур":12820,"желанию":12821,"амби":12822,"неудач":12823,"иллюзии":12824,"президент":12825,"расшиф":12826,"чувствие":12827,"чар":12828,"мужских":12829,"скоко":12830,"танц":12831,"болга":12832,"заканчиваются":12833,"представляю":12834,"медведя":12835,"прикиды":12836,"презервативы":12837,"богатство":12838,"нхл":12839,"снет":12840,"флей":12841,"моль":12842,"отклады":12843,"пика":12844,"44":12845,"ено":12846,"фле":12847,"погу":12848,"мекси":12849,"бескоры":12850,"иии":12851,"гуляет":12852,"начнет":12853,"мурлы":12854,"затра":12855,"лапу":12856,"сика":12857,"шина":12858,"трусики":12859,"иностран":12860,"романы":12861,"маргарита":12862,"вирус":12863,"паю":12864,"ценность":12865,"обижать":12866,"рановато":12867,"горькая":12868,"направление":12869,"гитару":12870,"вло":12871,"оф":12872,"чрез":12873,"помешает":12874,"послушай":12875,"брас":12876,"создания":12877,"хоккею":12878,"десерт":12879,"устра":12880,"що":12881,"напе":12882,"лится":12883,"реальная":12884,"заботли":12885,"систему":12886,"комары":12887,"сопротивля":12888,"неот":12889,"отправи":12890,"пароль":12891,"льному":12892,"троих":12893,"петро":12894,"проснулась":12895,"заслужить":12896,"дна":12897,"лиз":12898,"мазать":12899,"дика":12900,"беге":12901,"сушить":12902,"сыно":12903,"опаса":12904,"лондон":12905,"прощаю":12906,"ресторане":12907,"вероятность":12908,"hon":12909,"тком":12910,"яс":12911,"ненадо":12912,"носили":12913,"выносить":12914,"промы":12915,"лысо":12916,"сюжет":12917,"разочаровы":12918,"кушаете":12919,"вегетариан":12920,"5000":12921,"нон":12922,"быдло":12923,"видя":12924,"стою":12925,"красивей":12926,"кришти":12927,"убили":12928,"покупали":12929,"начнется":12930,"исполните":12931,"duma":12932,"худые":12933,"подмосковье":12934,"устать":12935,"саль":12936,"детка":12937,"верности":12938,"голов":12939,"полом":12940,"русскую":12941,"велик":12942,"забываете":12943,"старое":12944,"ложится":12945,"ssan":12946,"проявление":12947,"выпускной":12948,"невыноси":12949,"um":12950,"весом":12951,"вие":12952,"шеве":12953,"стоп":12954,"хивает":12955,"пользы":12956,"начальника":12957,"духом":12958,"резин":12959,"попадаются":12960,"ita":12961,"red":12962,"мягко":12963,"сдесь":12964,"щщ":12965,"ноге":12966,"лохо":12967,"хонда":12968,"содержать":12969,"знакомитесь":12970,"внизу":12971,"разговариваете":12972,"обезьяны":12973,"заводят":12974,"досу":12975,"плюше":12976,"свободным":12977,"les":12978,"отрицательно":12979,"обратитесь":12980,"парикмахер":12981,"пачиму":12982,"?*":12983,"кa":12984,"эли":12985,"погод":12986,"ливая":12987,"моет":12988,"старую":12989,"маленьким":12990,"близкий":12991,"восстановить":12992,"исте":12993,"жец":12994,"прост":12995,"баи":12996,"суса":12997,"концов":12998,"нейтра":12999,"провоци":13000,"%.":13001,"sja":13002,"емое":13003,"ое":13004,"опрос":13005,"псе":13006,"лаза":13007,"нькие":13008,"подтвер":13009,"встречала":13010,"красного":13011,"улыбнуться":13012,"горький":13013,"автобусе":13014,"симпто":13015,"впи":13016,"уволь":13017,"ущер":13018,"наж":13019,"почер":13020,"потяну":13021,"запро":13022,"знаний":13023,"цин":13024,"грузи":13025,"2015":13026,"побег":13027,"прощают":13028,"желтый":13029,"просыпаться":13030,"фанаты":13031,"гибдд":13032,"прививки":13033,"linkin":13034,"кинг":13035,"синя":13036,"гитара":13037,"подпи":13038,"доброту":13039,"признаваться":13040,"атмо":13041,"nissan":13042,"вреднее":13043,"запчасти":13044,"благодаря":13045,"останови":13046,"игорь":13047,"оду":13048,"конешно":13049,"общее":13050,"головной":13051,"горба":13052,"мужиком":13053,"найдите":13054,"несёт":13055,"гроб":13056,"вечерам":13057,"рррррррр":13058,"произведение":13059,"утом":13060,"отмыть":13061,"белка":13062,"рыбок":13063,"простое":13064,"триллер":13065,"желая":13066,"иномарку":13067,"домашнего":13068,"объясня":13069,"истины":13070,"взрослым":13071,"проститутки":13072,"сход":13073,"лав":13074,"ныть":13075,"пела":13076,"пиани":13077,"страя":13078,"пельме":13079,"вежливо":13080,"бно":13081,"мсти":13082,"огра":13083,"корма":13084,"киньте":13085,"бегут":13086,"стаф":13087,"меняться":13088,"думаем":13089,"сделано":13090,"маловато":13091,"зеленая":13092,"большинстве":13093,"посоветовали":13094,"монитор":13095,"воображение":13096,"очках":13097,"захочу":13098,"дитя":13099,"бедный":13100,"гивает":13101,"встве":13102,"трон":13103,"злопамя":13104,"научила":13105,"русским":13106,"смертью":13107,"поцелуев":13108,"замкну":13109,"сексуальной":13110,"рекомендую":13111,"великолеп":13112,"уходите":13113,"следы":13114,"ребёнком":13115,"красоте":13116,"санта":13117,"гнев":13118,"гараж":13119,"гениально":13120,"вкусненького":13121,"нава":13122,"ляцию":13123,"карло":13124,"болеют":13125,"убивают":13126,"норме":13127,"карьеру":13128,"авангард":13129,"кода":13130,"боре":13131,"бочки":13132,"нуло":13133,"взгляды":13134,"обещал":13135,"озеро":13136,"допустим":13137,"художе":13138,"бизнеса":13139,"экспери":13140,"52":13141,"::":13142,"даёте":13143,"ответите":13144,"отношении":13145,"спеть":13146,"слышно":13147,"понравились":13148,"колец":13149,"расставаться":13150,"августа":13151,"будильник":13152,"98":13153,"gla":13154,"огне":13155,"ночные":13156,"лыжах":13157,"голосу":13158,"not":13159,"змей":13160,"теплые":13161,"кроссовки":13162,"воле":13163,"заводится":13164,"динами":13165,"научили":13166,"натуральный":13167,"сервис":13168,"fer":13169,"ёй":13170,"ковое":13171,"няются":13172,"нький":13173,"траву":13174,"пойдешь":13175,"занимался":13176,"съем":13177,"отсутствия":13178,"сосиски":13179,"700":13180,"елена":13181,"каже":13182,"вожу":13183,"маха":13184,"фель":13185,"драть":13186,"теряют":13187,"покупке":13188,"среднего":13189,"спрашиваете":13190,"область":13191,"обажаю":13192,"косметикой":13193,"ьше":13194,"мез":13195,"гена":13196,"зубки":13197,"сделайте":13198,"волка":13199,"дрочить":13200,"поступать":13201,"оторвать":13202,"поймёшь":13203,"кофей":13204,"гони":13205,"выгра":13206,"откли":13207,"щенку":13208,"излиш":13209,"команде":13210,"бумаги":13211,"приключений":13212,"течение":13213,"заводит":13214,"развить":13215,"разводи":13216,"компе":13217,"скука":13218,"спек":13219,"внимательно":13220,"создавать":13221,"ставили":13222,"мысленно":13223,"витамин":13224,"контроли":13225,"оказался":13226,"сметаной":13227,"высказыва":13228,"напугать":13229,"столо":13230,"ктором":13231,"ценный":13232,"вскую":13233,"смотреться":13234,"найдете":13235,"печали":13236,"октября":13237,"актеров":13238,"вольно":13239,"мух":13240,"человеческая":13241,"вкусе":13242,"удаля":13243,"знакомый":13244,"новогодний":13245,"тренажер":13246,"обслужи":13247,"ювентус":13248,"торов":13249,"выби":13250,"сестру":13251,"рио":13252,"орхи":13253,"снимают":13254,"огурец":13255,"религия":13256,"кэ":13257,"свести":13258,"теща":13259,"лапы":13260,"чину":13261,"беременная":13262,"запретить":13263,"французский":13264,"любым":13265,"хлам":13266,"чч":13267,"лое":13268,"отделе":13269,"газе":13270,"рыми":13271,"щали":13272,"порну":13273,"обязанности":13274,"ванную":13275,"блюд":13276,"собрался":13277,"карбюратор":13278,"800":13279,"hel":13280,"икру":13281,"тк":13282,"хем":13283,"поворот":13284,"льника":13285,"левый":13286,"банку":13287,"пур":13288,"влюблена":13289,"достойны":13290,"iu":13291,"захотел":13292,"сывает":13293,"зоны":13294,"правдо":13295,"жопы":13296,"ногой":13297,"сильного":13298,"зачастую":13299,"обратись":13300,"навига":13301,"кпп":13302,"рани":13303,"лиге":13304,"молит":13305,"тези":13306,"диплом":13307,"умными":13308,"трубку":13309,"холодная":13310,"1500":13311,"тенни":13312,"картошкой":13313,"оружи":13314,"украину":13315,"овчарки":13316,"лапшу":13317,"младен":13318,"поэт":13319,"тихий":13320,"церк":13321,"меню":13322,"вкусы":13323,"dow":13324,"толстеют":13325,"лифте":13326,"гаранти":13327,"рово":13328,"приходить":13329,"изнутри":13330,"славя":13331,"достала":13332,"научись":13333,"пробовать":13334,"наличии":13335,"мышц":13336,"израиль":13337,"харь":13338,"травы":13339,"плохом":13340,"крема":13341,"круглый":13342,"энергия":13343,"оцениваете":13344,"перспекти":13345,"фрей":13346,"ленный":13347,"бедра":13348,"разумом":13349,"грехи":13350,"теннис":13351,"растений":13352,"супруга":13353,"специальные":13354,"определяет":13355,"аквариуме":13356,"принципиально":13357,"ип":13358,"никакая":13359,"видов":13360,"белья":13361,"щенные":13362,"дружно":13363,"мном":13364,"стекла":13365,"умную":13366,"победи":13367,"всюду":13368,"венча":13369,"белору":13370,"баксов":13371,"41":13372,"наполе":13373,"заци":13374,"забрать":13375,"сани":13376,"плакали":13377,"правде":13378,"терьера":13379,"ненавидите":13380,"сладкие":13381,"красотой":13382,"внешностью":13383,"творчеству":13384,"современных":13385,"билана":13386,"патриот":13387,"ye":13388,"повзросле":13389,"рене":13390,"вена":13391,"гигие":13392,"нравитесь":13393,"tom":13394,"спросила":13395,"предательства":13396,"фальши":13397,"08":13398,"косы":13399,"шести":13400,"больнице":13401,"!).":13402,"ствуете":13403,"надежный":13404,"экскур":13405,"шампунем":13406,"\".)":13407,"еть":13408,"еба":13409,"нга":13410,"понадо":13411,"вывать":13412,"тама":13413,"крыше":13414,"немцы":13415,"одиноких":13416,"администра":13417,"резина":13418,"площадь":13419,"мастера":13420,"om":13421,"повсе":13422,"тигр":13423,"стиля":13424,"человеческой":13425,"крыса":13426,"собственный":13427,"сомнений":13428,"выбрал":13429,"разговоры":13430,"орехи":13431,"заболеть":13432,"пылесо":13433,"ger":13434,"забывают":13435,"пропор":13436,"стене":13437,"гены":13438,"уважают":13439,"фирму":13440,"заслуживает":13441,"нежная":13442,"пожалеешь":13443,"рес":13444,"лас":13445,"суки":13446,"человечества":13447,"расскажу":13448,"врагу":13449,"варивать":13450,"морде":13451,"ланхо":13452,"прикоснове":13453,"графия":13454,"2х":13455,"tv":13456,"мж":13457,"юно":13458,"насильно":13459,"полюбил":13460,"поговорим":13461,"бегом":13462,"луны":13463,"спасение":13464,"клиен":13465,"мобильный":13466,"брита":13467,"интересуют":13468,"целует":13469,"влюбленных":13470,"событие":13471,"снегуро":13472,"подарков":13473,"успокаивает":13474,"тэ":13475,"бору":13476,"вселенная":13477,"жам":13478,"перестанет":13479,"сладень":13480,"подаро":13481,"начинай":13482,"чонок":13483,"радуюсь":13484,"фигуру":13485,"эээ":13486,"встает":13487,"канале":13488,"cev":13489,"грызу":13490,"жёны":13491,"витаминов":13492,"брута":13493,"топлива":13494,"цкого":13495,"ково":13496,"зацию":13497,"леса":13498,"детское":13499,"человечество":13500,"советский":13501,"плюнуть":13502,"скрывает":13503,"2115":13504,"пригласи":13505,"жёст":13506,"катя":13507,"поворо":13508,"чень":13509,"сец":13510,"подход":13511,"романтично":13512,"малышу":13513,"впрочем":13514,"подумаю":13515,"выли":13516,"менял":13517,"женатый":13518,"свиньи":13519,"чёрная":13520,"немецкая":13521,"робот":13522,"павлю":13523,"лака":13524,"ручку":13525,"мужскую":13526,"брон":13527,"длина":13528,"матчи":13529,"ангела":13530,"взаимности":13531,"бревно":13532,"есе":13533,"змом":13534,"платит":13535,"случалось":13536,"здоров":13537,"открывается":13538,"навеяли":13539,"________":13540,"zu":13541,"ждите":13542,"йогу":13543,"пэ":13544,"хрю":13545,"кадру":13546,"прошед":13547,"делайте":13548,"ковский":13549,"трус":13550,"сделают":13551,"внедоро":13552,"nado":13553,"пальцев":13554,"очков":13555,"преодолеть":13556,"азарт":13557,"аккумулятор":13558,"нечаянно":13559,"вшей":13560,"сбу":13561,"пугают":13562,"кончить":13563,"последним":13564,"маленькую":13565,"дядьки":13566,"рг":13567,"пожить":13568,"тапочки":13569,"шедев":13570,"взры":13571,"спортивный":13572,"музыкальный":13573,"сбли":13574,"понос":13575,"голы":13576,"пакет":13577,"рассказ":13578,"ссию":13579,"спина":13580,"возьмет":13581,"перестала":13582,"покажу":13583,"титаник":13584,"sli":13585,"упря":13586,"фэн":13587,"потя":13588,"простая":13589,"туман":13590,"русскому":13591,"ron":13592,"глоба":13593,"стараетесь":13594,"летел":13595,"связаны":13596,"поисках":13597,"взаимность":13598,"отзыв":13599,"мороженное":13600,"огромный":13601,"возможны":13602,"96":13603,"ине":13604,"иго":13605,"уходи":13606,"неинтересно":13607,"поре":13608,"чтото":13609,"бакла":13610,"рядли":13611,"бессо":13612,"надца":13613,"мечтах":13614,"оценки":13615,"городах":13616,"объяснять":13617,"шашлыки":13618,"прикалы":13619,"флаг":13620,"укрепляет":13621,"dan":13622,"кса":13623,"ваку":13624,"чег":13625,"мана":13626,"щеко":13627,"обнару":13628,"рабочего":13629,"констру":13630,"траге":13631,"печени":13632,"журнал":13633,"содержание":13634,"шизофре":13635,"кузне":13636,"gen":13637,"вшему":13638,"зд":13639,"уехал":13640,"вылез":13641,"падают":13642,"подстри":13643,"мнем":13644,"препода":13645,"закончить":13646,"виноград":13647,"мерие":13648,"ционер":13649,"беспокоит":13650,"настя":13651,"небольшой":13652,"кис":13653,"соком":13654,"пежо":13655,"магазинам":13656,"ёрз":13657,"определение":13658,"потребность":13659,"стадион":13660,"кази":13661,"течении":13662,"мистер":13663,"буй":13664,"молочный":13665,"дивана":13666,"заглянуть":13667,"ji":13668,"удержи":13669,"седь":13670,"вешь":13671,"жених":13672,"столь":13673,"шал":13674,"помоги":13675,"крутая":13676,"?!:)":13677,"удалась":13678,"существовать":13679,"stra":13680,"большому":13681,"органы":13682,"основной":13683,"симпатия":13684,"флирту":13685,"перестает":13686,"ошибаться":13687,"сёдня":13688,"грубость":13689,"козел":13690,"линей":13691,"вою":13692,"ценит":13693,"cher":13694,"закончились":13695,"tako":13696,"лошадей":13697,"убийство":13698,"крокоди":13699,"que":13700,"сду":13701,"чеб":13702,"ложе":13703,"лятся":13704,"чулки":13705,"глад":13706,"драй":13707,"хен":13708,"абха":13709,"упала":13710,"громче":13711,"физио":13712,"требуют":13713,"жалости":13714,"жанре":13715,"имидж":13716,"искал":13717,"xx":13718,"дожде":13719,"няли":13720,"правди":13721,"греции":13722,"приходиться":13723,"узбе":13724,"полюбит":13725,"порекоменду":13726,"ватив":13727,"дением":13728,"пупси":13729,"толпы":13730,"характеру":13731,"культура":13732,"режиссер":13733,"принцесса":13734,"56":13735,"раско":13736,"вычи":13737,"вика":13738,"соски":13739,"переехать":13740,"акпп":13741,"женатые":13742,"этажа":13743,"назовете":13744,"шоколаде":13745,"красавицы":13746,"классику":13747,"яркие":13748,"парашютом":13749,"бже":13750,"оправ":13751,"сера":13752,"дипло":13753,"провода":13754,"белую":13755,"препод":13756,"глазу":13757,"переходит":13758,"занимаешься":13759,"кричат":13760,"экстре":13761,"колени":13762,"добавлять":13763,"отдыхал":13764,"запрещено":13765,"подростков":13766,"tt":13767,"гормоны":13768,"украшения":13769,"рубль":13770,"какао":13771,"подкаблуч":13772,"up":13773,"мск":13774,"деми":13775,"выходите":13776,"забьет":13777,"втор":13778,"ющийся":13779,"научилась":13780,"чайник":13781,"обязательств":13782,"почитайте":13783,"выбираю":13784,"изменяли":13785,"чужом":13786,"ухажи":13787,"соответствует":13788,"кадры":13789,"цветочек":13790,"дмитрий":13791,"авито":13792,"ep":13793,"тны":13794,"пожертво":13795,"божий":13796,"победите":13797,"pod":13798,"продолжения":13799,"наслаждение":13800,"существование":13801,"котёнок":13802,"комаров":13803,"следующей":13804,"маньяк":13805,"середине":13806,"дождаться":13807,"попой":13808,"заж":13809,"мелки":13810,"чике":13811,"част":13812,"карли":13813,"2016":13814,"приятным":13815,"повесить":13816,"кормит":13817,"обладает":13818,"беременных":13819,"фрукто":13820,"методом":13821,"собственных":13822,"восторге":13823,"попытка":13824,"ушах":13825,"юг":13826,"вытащить":13827,"рист":13828,"бик":13829,"полную":13830,"обрели":13831,"коллекциони":13832,"схе":13833,"забудешь":13834,"шея":13835,"писю":13836,"шири":13837,"разбить":13838,"версия":13839,"переход":13840,"первыми":13841,"ездили":13842,"скольз":13843,"подарила":13844,"предлагают":13845,"порядочность":13846,"свидетель":13847,"тость":13848,"рожа":13849,"мозо":13850,"заде":13851,"дочкой":13852,"прошёл":13853,"шев":13854,"стола":13855,"ветра":13856,"губки":13857,"дному":13858,"обычного":13859,"шансон":13860,"тюнин":13861,"пирами":13862,"операция":13863,"мелкие":13864,"тоску":13865,"коса":13866,"даме":13867,"ньо":13868,"смогут":13869,"одинокий":13870,"задаю":13871,"boy":13872,"бабник":13873,"просыпаетесь":13874,"срать":13875,"флю":13876,"чешу":13877,"честный":13878,"сено":13879,"седан":13880,"гадить":13881,"турой":13882,"думается":13883,"грустный":13884,"слать":13885,"глуп":13886,"ууууу":13887,"парамет":13888,"сексуальное":13889,"ахахаха":13890,"шлюха":13891,"уборку":13892,"увидела":13893,"эст":13894,"нисколько":13895,"стремя":13896,"надцать":13897,"игнор":13898,"котэ":13899,"rock":13900,"слушайте":13901,"ктивное":13902,"сериале":13903,"прячете":13904,"флек":13905,"ливым":13906,"выно":13907,"выдер":13908,"боди":13909,"сводит":13910,"склон":13911,"труси":13912,"бриться":13913,"бесплатный":13914,"преврати":13915,"гараже":13916,"насекомое":13917,"пистолет":13918,"уволи":13919,"чма":13920,"несли":13921,"баня":13922,"батаре":13923,"ментом":13924,"работаешь":13925,"почте":13926,"средств":13927,"защиты":13928,"рекламу":13929,"июля":13930,"mon":13931,"охарактери":13932,"нало":13933,"постара":13934,"парази":13935,"чувстве":13936,"гордо":13937,"особенности":13938,"техни":13939,"уроды":13940,"пропасть":13941,"воздухе":13942,"дедушка":13943,"оптимист":13944,"самолюбие":13945,"хилтон":13946,"оправдать":13947,"френ":13948,"данное":13949,"модные":13950,"зани":13951,"лапочка":13952,"шапку":13953,"бят":13954,"препара":13955,"подарю":13956,"хватить":13957,"ордина":13958,"статисти":13959,"аааааааааааааааа":13960,"карман":13961,"угады":13962,"справедливости":13963,"car":13964,"пше":13965,"увижу":13966,"муки":13967,"вием":13968,"главной":13969,"--?":13970,"злоб":13971,"chno":13972,"девчата":13973,"снилось":13974,"покупают":13975,"отпускать":13976,"основная":13977,"cor":13978,"шерсти":13979,"………….":13980,"вду":13981,"хы":13982,"неуверенность":13983,"кина":13984,"ходь":13985,"тяж":13986,"грин":13987,"романа":13988,"российских":13989,"поступков":13990,"павлюченко":13991,"нетесь":13992,"погуля":13993,"ливы":13994,"сиам":13995,"галки":13996,"обмо":13997,"фильмец":13998,"желающие":13999,"ммммм":14000,"вредный":14001,"ставил":14002,"мелочь":14003,"350":14004,"3000":14005,"получ":14006,"милень":14007,"сина":14008,"имеем":14009,"серё":14010,"самка":14011,"природой":14012,"zay":14013,"внешний":14014,"фарш":14015,"протеин":14016,"евич":14017,"ламина":14018,"мары":14019,"меняй":14020,"хати":14021,"парне":14022,"трога":14023,"подружиться":14024,"способствует":14025,"девочкам":14026,"дальней":14027,"укусить":14028,"искали":14029,"85":14030,"цц":14031,"личную":14032,"татар":14033,"прощу":14034,"алла":14035,"выраста":14036,"чемпионате":14037,"ego":14038,"нло":14039,"автора":14040,"годам":14041,"злости":14042,"ramm":14043,"подозри":14044,"успела":14045,"ненавидит":14046,"принципу":14047,"литератур":14048,"клетку":14049,"танцую":14050,"49":14051,"нива":14052,"рики":14053,"бон":14054,"бий":14055,"вется":14056,"компот":14057,"сладости":14058,"термо":14059,"внут":14060,"внуков":14061,"обычное":14062,"спросили":14063,"цветочки":14064,"узнают":14065,"мягкий":14066,"переживать":14067,"желудка":14068,"родственников":14069,"дьявол":14070,"привязанность":14071,"попла":14072,"деться":14073,"чистые":14074,"синие":14075,"красят":14076,"пую":14077,"плодо":14078,"требо":14079,"назвала":14080,"идем":14081,"коровы":14082,"рована":14083,"живётся":14084,"помириться":14085,"физическая":14086,"сетях":14087,"монастырь":14088,"тишине":14089,"возьмите":14090,"спиртное":14091,"августе":14092,"злым":14093,"злых":14094,"нифига":14095,"диет":14096,"гадости":14097,"машинки":14098,"взамен":14099,"салата":14100,"ахахахаха":14101,"секас":14102,"деревню":14103,"smot":14104,"врят":14105,"мб":14106,"томи":14107,"бока":14108,"принести":14109,"женским":14110,"сложи":14111,"бесконе":14112,"повез":14113,"спортив":14114,"далека":14115,"случиться":14116,"процессе":14117,"христи":14118,"сентябре":14119,"безразличие":14120,"поступаете":14121,"оформить":14122,"pra":14123,"абра":14124,"жнее":14125,"рожают":14126,"водом":14127,"теры":14128,"выразить":14129,"сынок":14130,"городов":14131,"мыслить":14132,"облада":14133,"начну":14134,"вернулась":14135,"отказывать":14136,"верим":14137,"тупых":14138,"немецкий":14139,"отрезать":14140,"жидкость":14141,"трахаться":14142,"афта":14143,"ресниц":14144,"ok":14145,"давить":14146,"риса":14147,"мечтой":14148,"шиться":14149,"сываю":14150,"драго":14151,"легкие":14152,"свободного":14153,"разновидно":14154,"собственное":14155,"короткая":14156,"сложная":14157,"stein":14158,"honda":14159,"нa":14160,"юб":14161,"ён":14162,"википе":14163,"крыши":14164,"племян":14165,"бельё":14166,"честным":14167,"засту":14168,"мания":14169,"чивы":14170,"сисек":14171,"глубже":14172,"боялись":14173,"советом":14174,"достижения":14175,"коллективе":14176,"юбилей":14177,"%)":14178,"взо":14179,"ивать":14180,"огляды":14181,"котика":14182,"льда":14183,"завыше":14184,"тацию":14185,"паци":14186,"вампир":14187,"учил":14188,"собакам":14189,"доставляет":14190,"амкар":14191,"мягкие":14192,"системы":14193,"пожалеть":14194,"помолчать":14195,"вымерли":14196,"тобою":14197,"костей":14198,"завали":14199,"разор":14200,"спан":14201,"храпит":14202,"инстинк":14203,"стимул":14204,"буквально":14205,"ода":14206,"спереди":14207,"затяги":14208,"проводи":14209,"гипер":14210,"интереса":14211,"2018":14212,"научился":14213,"объек":14214,"венти":14215,"загады":14216,"стесняетесь":14217,"коллектив":14218,"комментарии":14219,"копейки":14220,"ben":14221,"обалде":14222,"отключи":14223,"тимо":14224,"детской":14225,"выйду":14226,"зуба":14227,"удара":14228,"попали":14229,"святое":14230,"выглядишь":14231,"обещали":14232,"сойдет":14233,"злиться":14234,"брюнетка":14235,"встретишь":14236,"cla":14237,"брез":14238,"жья":14239,"шной":14240,"рейти":14241,"киви":14242,"руются":14243,"бабла":14244,"керы":14245,"обижают":14246,"гражданский":14247,"просмотра":14248,"целиком":14249,"аватарку":14250,"обстоятельств":14251,"договориться":14252,"непременно":14253,"вдохновение":14254,"шков":14255,"мосты":14256,"рись":14257,"отцом":14258,"сигнали":14259,"тиву":14260,"пасту":14261,"целе":14262,"цепти":14263,"детского":14264,"очеред":14265,"тайся":14266,"замена":14267,"действий":14268,"выбрала":14269,"тюльпа":14270,"тнт":14271,"тору":14272,"неет":14273,"луние":14274,"шире":14275,"сковоро":14276,"богаты":14277,"счету":14278,"получаю":14279,"zda":14280,"олень":14281,"модан":14282,"деи":14283,"репей":14284,"дида":14285,"дизе":14286,"беды":14287,"подходить":14288,"хард":14289,"ответила":14290,"риям":14291,"отдыхаете":14292,"алексей":14293,"выбором":14294,"сперва":14295,"песенка":14296,"ранеток":14297,"кастрировать":14298,"церкви":14299,"йт":14300,"ягу":14301,"годо":14302,"заодно":14303,"серые":14304,"кули":14305,"мине":14306,"бука":14307,"советские":14308,"холодное":14309,"замужней":14310,"восста":14311,"канада":14312,"повторять":14313,"фанат":14314,"завидуете":14315,"стремление":14316,"яндексе":14317,"несомне":14318,"заблоки":14319,"папи":14320,"щении":14321,"сульта":14322,"народные":14323,"соседка":14324,"дневной":14325,"благодарить":14326,"темноты":14327,"химии":14328,"устой":14329,"ковых":14330,"лоу":14331,"луа":14332,"мужским":14333,"полном":14334,"нюха":14335,"черных":14336,"девка":14337,"полагаю":14338,"депрессию":14339,"экстрасен":14340,"капитан":14341,"рвать":14342,"товой":14343,"полюбила":14344,"фобия":14345,"вообщем":14346,"причиной":14347,"отдай":14348,"понты":14349,"законы":14350,"викторина":14351,"свадебное":14352,"свар":14353,"шон":14354,"рональ":14355,"модный":14356,"прило":14357,"пеналь":14358,"шила":14359,"летних":14360,"езжай":14361,"гордитесь":14362,"этаже":14363,"сторона":14364,"совершить":14365,"защитить":14366,"третья":14367,"дти":14368,"лс":14369,"окрас":14370,"сходит":14371,"находя":14372,"доктора":14373,"проце":14374,"ряете":14375,"пункт":14376,"болел":14377,"местом":14378,"175":14379,"горячее":14380,"разговора":14381,"ложитесь":14382,"насморк":14383,"натя":14384,"ненужно":14385,"суше":14386,"пойдём":14387,"тном":14388,"слышишь":14389,"здоровым":14390,"ссор":14391,"буратино":14392,"мопед":14393,"69":14394,"каро":14395,"высыпа":14396,"виктор":14397,"чиками":14398,"сухари":14399,"больные":14400,"работай":14401,"покурить":14402,"коробка":14403,"коробку":14404,"ванна":14405,"гоняют":14406,"биатлон":14407,"ботинки":14408,"таблеток":14409,"словно":14410,"шорты":14411,"плоды":14412,"желанием":14413,"дрова":14414,"замечать":14415,"поедет":14416,"симпатичнее":14417,"расставание":14418,"ооооо":14419,"энерги":14420,"зимние":14421,"джексон":14422,"приручить":14423,"сущность":14424,"акинфеев":14425,"внутрь":14426,"жева":14427,"чику":14428,"любима":14429,"цер":14430,"рабочем":14431,"чьё":14432,"имел":14433,"кармли":14434,"спрос":14435,"предложите":14436,"пьяные":14437,"сорта":14438,"музей":14439,"бразилия":14440,"ирина":14441,"ностью":14442,"вающий":14443,"дача":14444,"пробки":14445,"луне":14446,"чупа":14447,"покататься":14448,"крутые":14449,"свободный":14450,"средний":14451,"новосибир":14452,"poche":14453,"норве":14454,"предал":14455,"штанах":14456,"психику":14457,"повторить":14458,"смешную":14459,"фанати":14460,"аудио":14461,"пространство":14462,"3d":14463,"чес":14464,"дий":14465,"подлость":14466,"заниматся":14467,"одиночку":14468,"мечтаешь":14469,"жестокие":14470,"09":14471,"азер":14472,"вася":14473,"ледя":14474,"присту":14475,"получился":14476,"подожди":14477,"власте":14478,"графию":14479,"2108":14480,"попку":14481,"агенте":14482,"врёт":14483,"премьер":14484,"em":14485,"тна":14486,"наплевать":14487,"заходите":14488,"тыщ":14489,"споре":14490,"тянется":14491,"помогли":14492,"клавиа":14493,"порошок":14494,"встречаете":14495,"вечной":14496,"носишь":14497,"плз":14498,"теплый":14499,"ret":14500,"ягоди":14501,"нажра":14502,"поплакать":14503,"чемодан":14504,"мокры":14505,"засос":14506,"гав":14507,"анто":14508,"цепля":14509,"достойна":14510,"предлагает":14511,"универса":14512,"лино":14513,"вата":14514,"револю":14515,"дико":14516,"кормя":14517,"родится":14518,"стороной":14519,"средством":14520,"съешь":14521,"ндри":14522,"узнаем":14523,"вспомни":14524,"блэк":14525,"прогулки":14526,"ален":14527,"вначале":14528,"юности":14529,"карие":14530,"посме":14531,"марина":14532,"летов":14533,"типу":14534,"гази":14535,"развлечь":14536,"читайте":14537,"ответишь":14538,"готовится":14539,"черную":14540,"этими":14541,"идеальные":14542,"попуга":14543,"терпением":14544,"местами":14545,"пахнуть":14546,"печенье":14547,"ахахах":14548,"аватарка":14549,"delat":14550,"дзю":14551,"одень":14552,"зацените":14553,"способа":14554,"зайка":14555,"восток":14556,"жертву":14557,"спирс":14558,"преступление":14559,"йогурт":14560,"иста":14561,"сная":14562,"зак":14563,"пеше":14564,"кривые":14565,"посещают":14566,"информацию":14567,"сюрпри":14568,"листо":14569,"синт":14570,"база":14571,"препят":14572,"считаются":14573,"цыга":14574,"продам":14575,"фруктов":14576,"перемены":14577,"ате":14578,"кальян":14579,"михай":14580,"детская":14581,"стрел":14582,"армя":14583,"звонят":14584,"практика":14585,"мудрее":14586,"пираты":14587,"согласитесь":14588,"холодильника":14589,"огня":14590,"her":14591,"камаз":14592,"лиц":14593,"делись":14594,"реку":14595,"выходи":14596,"вед":14597,"тиях":14598,"признать":14599,"будни":14600,"пухо":14601,"человеческое":14602,"шоп":14603,"фильму":14604,"молодому":14605,"иностра":14606,"удаётся":14607,"rab":14608,"мягче":14609,"тишину":14610,"произойти":14611,"грязные":14612,"сливками":14613,"rammstein":14614,"ути":14615,"васили":14616,"годности":14617,"стенку":14618,"творится":14619,"желать":14620,"удалять":14621,"тайн":14622,"анаста":14623,"мальчиком":14624,"мышление":14625,"кушай":14626,"побыстрее":14627,"дебил":14628,"договор":14629,"прома":14630,"подли":14631,"цивили":14632,"выйди":14633,"тяжелая":14634,"парнях":14635,"виден":14636,"веселый":14637,"рамки":14638,"сумка":14639,"бабочка":14640,"современной":14641,"категорически":14642,"вят":14643,"нны":14644,"посмотрю":14645,"дуб":14646,"помнят":14647,"всякая":14648,"line":14649,"средняя":14650,"горячей":14651,"программы":14652,"обсужда":14653,"барабану":14654,"эконом":14655,"110":14656,"vro":14657,"win":14658,"ищем":14659,"наста":14660,"необы":14661,"полет":14662,"дара":14663,"рюм":14664,"коррек":14665,"звони":14666,"прощаете":14667,"виктория":14668,"засунуть":14669,"пта":14670,"энд":14671,"ягода":14672,"пость":14673,"потихо":14674,"погладить":14675,"роберт":14676,"бот":14677,"кудря":14678,"ренная":14679,"кримина":14680,"маленькое":14681,"перечисли":14682,"одноклассники":14683,"джун":14684,"zaycev":14685,"наси":14686,"подоро":14687,"вился":14688,"дипре":14689,"щений":14690,"правая":14691,"смелости":14692,"займет":14693,"красави":14694,"зарабатывают":14695,"водители":14696,"плыть":14697,"идеале":14698,"вю":14699,"инета":14700,"томат":14701,"почто":14702,"матра":14703,"отмени":14704,"куб":14705,"жигули":14706,"изуча":14707,"верная":14708,"полным":14709,"шуба":14710,"класть":14711,"блок":14712,"ааааааа":14713,"lea":14714,"любовные":14715,"главные":14716,"заметить":14717,"замечаете":14718,"ииииииии":14719,"емая":14720,"поближе":14721,"рари":14722,"прод":14723,"фов":14724,"пораньше":14725,"берё":14726,"21099":14727,"москвичи":14728,"вшим":14729,"несут":14730,"рог":14731,"бытия":14732,"пишешь":14733,"вернётся":14734,"знакомая":14735,"глисты":14736,"покупки":14737,"половиной":14738,"предатель":14739,"истинное":14740,"методы":14741,"ржууууууууу":14742,"чрезмер":14743,"качай":14744,"нажи":14745,"льку":14746,"кукла":14747,"цветка":14748,"бросит":14749,"бросай":14750,"рюк":14751,"праздников":14752,"богатых":14753,"берёт":14754,"домашняя":14755,"матиз":14756,"развитие":14757,"айфон":14758,"уважением":14759,"презерватив":14760,"совпадают":14761,"фитнес":14762,"лана":14763,"кише":14764,"обь":14765,"подгляды":14766,"стрель":14767,"порш":14768,"chen":14769,"lex":14770,"радуетесь":14771,"откровен":14772,"понедельника":14773,"выпадают":14774,"христо":14775,"ak":14776,"ртом":14777,"эволю":14778,"поработать":14779,"колько":14780,"личные":14781,"возможностей":14782,"длинно":14783,"трудности":14784,"заботы":14785,"перестают":14786,"предлагаю":14787,"заливать":14788,"навязчи":14789,"усом":14790,"натво":14791,"нема":14792,"копать":14793,"давит":14794,"тари":14795,"лению":14796,"нулась":14797,"танк":14798,"(((((((":14799,"невероят":14800,"лондо":14801,"самогон":14802,"обстоятельствах":14803,"идиотов":14804,"симптомы":14805,"кати":14806,"вазе":14807,"вывод":14808,"дился":14809,"ська":14810,"бани":14811,"большей":14812,"зиме":14813,"назло":14814,"скрываете":14815,"симпатичные":14816,"наивность":14817,"жирная":14818,"отказались":14819,"программи":14820,"троллей":14821,"кактусы":14822,"!(":14823,"клетки":14824,"накло":14825,"лимона":14826,"данные":14827,"вены":14828,"пачка":14829,"конкурс":14830,"спасать":14831,"встретимся":14832,"подумали":14833,"париже":14834,"запомнился":14835,"размером":14836,"сердечко":14837,"avon":14838,"пмс":14839,"водоро":14840,"дины":14841,"преде":14842,"кормом":14843,"исправи":14844,"групп":14845,"мобиль":14846,"noe":14847,"питается":14848,"наказывать":14849,"правосла":14850,"ассоциация":14851,"китайцы":14852,"каблуках":14853,"кнопка":14854,"гимн":14855,"евровидении":14856,"!;)":14857,"гнал":14858,"икра":14859,"неплохой":14860,"репута":14861,"сего":14862,"летку":14863,"работо":14864,"чёрт":14865,"хип":14866,"смеются":14867,"поржать":14868,"жениха":14869,"веселые":14870,"обмана":14871,"главнее":14872,"температуру":14873,"передача":14874,"рыбалка":14875,"кариб":14876,"когти":14877,"аля":14878,"нарису":14879,"жадный":14880,"счастливее":14881,"петух":14882,"клоу":14883,"восход":14884,"америку":14885,"бутылка":14886,"аппетита":14887,"значило":14888,"португалия":14889,"апа":14890,"полюбому":14891,"кобель":14892,"отва":14893,"бится":14894,"чьим":14895,"плесень":14896,"родили":14897,"солда":14898,"украшение":14899,"смешная":14900,"кержа":14901,"посуды":14902,"системе":14903,"актёра":14904,"ксения":14905,"появля":14906,"моты":14907,"деваться":14908,"течет":14909,"купе":14910,"любиш":14911,"играешь":14912,"личном":14913,"бардак":14914,"влаж":14915,"героя":14916,"вульгар":14917,"пенальти":14918,"синтети":14919,"01":14920,"одоб":14921,"увидели":14922,"поправля":14923,"зарегистри":14924,"лотере":14925,"виз":14926,"проиграл":14927,"башке":14928,"рыбой":14929,"возму":14930,"спание":14931,"худень":14932,"последствий":14933,"влияние":14934,"симпатии":14935,"гармони":14936,"четверг":14937,"осаго":14938,"сумочке":14939,"наки":14940,"позы":14941,"дегра":14942,"руйте":14943,"чаются":14944,"кажет":14945,"ждал":14946,"девят":14947,"технику":14948,"успеваю":14949,
[...]
